<unk>	0
<s>	0
</s>	0
▁t	-0
he	-1
▁a	-2
in	-3
▁the	-4
er	-5
▁b	-6
re	-7
on	-8
▁f	-9
▁s	-10
▁c	-11
▁w	-12
is	-13
▁h	-14
es	-15
it	-16
▁to	-17
nd	-18
al	-19
▁o	-20
or	-21
ing	-22
▁in	-23
le	-24
ar	-25
st	-26
▁p	-27
en	-28
ut	-29
ro	-30
an	-31
ed	-32
▁g	-33
▁d	-34
▁and	-35
▁of	-36
at	-37
▁m	-38
ck	-39
ll	-40
▁l	-41
▁T	-42
▁on	-43
am	-44
as	-45
ou	-46
▁for	-47
▁th	-48
ot	-49
▁B	-50
ri	-51
▁be	-52
gh	-53
id	-54
ay	-55
ow	-56
▁S	-57
▁A	-58
ir	-59
ve	-60
et	-61
om	-62
ce	-63
ver	-64
▁C	-65
▁is	-66
▁H	-67
▁L	-68
▁M	-69
▁his	-70
ith	-71
▁go	-72
▁but	-73
ly	-74
ad	-75
▁st	-76
▁with	-77
ak	-78
▁n	-79
ss	-80
im	-81
▁he	-82
ack	-83
ght	-84
▁P	-85
▁re	-86
▁it	-87
ore	-88
rom	-89
▁W	-90
ag	-91
▁at	-92
ch	-93
▁from	-94
ur	-95
▁e	-96
ft	-97
all	-98
ide	-99
▁The	-100
oo	-101
to	-102
ard	-103
el	-104
▁ha	-105
▁se	-106
▁F	-107
ion	-108
▁le	-109
▁D	-110
▁u	-111
▁G	-112
▁wh	-113
▁as	-114
▁are	-115
▁into	-116
▁po	-117
ill	-118
▁goal	-119
▁sh	-120
ent	-121
ast	-122
ol	-123
▁ball	-124
▁their	-125
ick	-126
▁have	-127
▁E	-128
se	-129
ue	-130
▁de	-131
▁an	-132
ra	-133
▁out	-134
un	-135
right	-136
▁N	-137
▁R	-138
il	-139
ain	-140
ross	-141
▁back	-142
▁J	-143
▁ch	-144
ner	-145
for	-146
pp	-147
ke	-148
▁by	-149
▁com	-150
own	-151
▁bo	-152
▁get	-153
ter	-154
▁pl	-155
ook	-156
ge	-157
▁gam	-158
▁V	-159
ct	-160
her	-161
▁Le	-162
▁O	-163
ust	-164
ier	-165
▁box	-166
ague	-167
▁off	-168
▁fir	-169
▁I	-170
ward	-171
▁K	-172
▁1	-173
▁He	-174
▁has	-175
▁down	-176
ind	-177
▁who	-178
ul	-179
fore	-180
alf	-181
▁before	-182
▁first	-183
ves	-184
ace	-185
art	-186
ree	-187
way	-188
▁up	-189
ime	-190
rou	-191
ell	-192
ic	-193
lo	-194
▁right	-195
▁def	-196
son	-197
▁cross	-198
fter	-199
▁cor	-200
▁mak	-201
▁U	-202
▁half	-203
▁left	-204
▁corner	-205
▁this	-206
em	-207
▁j	-208
che	-209
▁ag	-210
▁play	-211
▁League	-212
▁r	-213
and	-214
LL	-215
ome	-216
▁over	-217
▁con	-218
urn	-219
ost	-220
▁chan	-221
▁look	-222
▁again	-223
our	-224
rem	-225
ive	-226
ond	-227
▁side	-228
remier	-229
▁Premier	-230
side	-231
▁they	-232
▁win	-233
od	-234
nt	-235
ight	-236
▁after	-237
ham	-238
▁game	-239
▁that	-240
▁away	-241
!!	-242
▁2	-243
ess	-244
ine	-245
▁just	-246
kick	-247
est	-248
iver	-249
ep	-250
▁shot	-251
ew	-252
qu	-253
enal	-254
nder	-255
ley	-256
iel	-257
▁last	-258
▁Un	-259
ford	-260
ab	-261
▁v	-262
us	-263
ate	-264
ited	-265
▁will	-266
ee	-267
ield	-268
▁United	-269
▁sc	-270
▁head	-271
▁al	-272
ts	-273
▁time	-274
▁sp	-275
ity	-276
▁ne	-277
ff	-278
▁tak	-279
▁y	-280
OO	-281
ass	-282
th	-283
▁(	-284
oul	-285
▁cle	-286
wo	-287
ott	-288
▁mid	-289
▁sec	-290
la	-291
▁It	-292
wards	-293
▁pass	-294
▁him	-295
▁min	-296
▁su	-297
▁whi	-298
▁att	-299
ong	-300
▁was	-301
▁one	-302
out	-303
▁second	-304
vert	-305
▁minut	-306
▁post	-307
rough	-308
▁against	-309
ps	-310
▁all	-311
um	-312
pt	-313
▁through	-314
ces	-315
▁Ar	-316
▁can	-317
▁way	-318
oot	-319
▁gets	-320
▁fl	-321
ie	-322
ure	-323
-0	-324
▁free	-325
ers	-326
▁Th	-327
hind	-328
ang	-329
▁been	-330
▁behind	-331
▁two	-332
row	-333
▁minutes	-334
▁start	-335
▁pre	-336
ark	-337
fort	-338
-1	-339
▁stri	-340
▁bre	-341
▁te	-342
are	-343
ced	-344
▁towards	-345
ving	-346
field	-347
▁so	-348
▁cont	-349
▁inside	-350
▁fin	-351
keep	-352
▁Pal	-353
▁far	-354
os	-355
ould	-356
▁Wol	-357
▁defe	-358
▁Wolves	-359
▁run	-360
▁now	-361
oun	-362
▁sl	-363
ough	-364
▁find	-365
ant	-366
▁more	-367
ist	-368
ob	-369
▁three	-370
▁break	-371
▁City	-372
hel	-373
▁Vill	-374
▁home	-375
ool	-376
ssess	-377
▁Ham	-378
▁clear	-379
AA	-380
▁goes	-381
ven	-382
▁not	-383
VE	-384
other	-385
▁Villa	-386
pool	-387
ason	-388
iverpool	-389
ig	-390
ix	-391
▁Liverpool	-392
▁make	-393
ble	-394
▁well	-395
ry	-396
▁wide	-397
ches	-398
▁only	-399
▁Burn	-400
ru	-401
sea	-402
▁qu	-403
▁end	-404
▁team	-405
helsea	-406
▁Chelsea	-407
ite	-408
▁man	-409
▁area	-410
▁makes	-411
▁ef	-412
▁season	-413
back	-414
reat	-415
▁score	-416
▁host	-417
ssession	-418
ting	-419
▁possession	-420
senal	-421
ation	-422
▁Arsenal	-423
rent	-424
▁whe	-425
▁forward	-426
▁New	-427
verton	-428
▁Everton	-429
▁do	-430
ty	-431
cast	-432
▁games	-433
ort	-434
▁effort	-435
one	-436
pen	-437
ition	-438
▁four	-439
castle	-440
▁Newcastle	-441
▁rep	-442
▁cl	-443
uch	-444
mer	-445
ally	-446
uton	-447
▁Luton	-448
▁top	-449
▁under	-450
ash	-451
▁Ful	-452
▁Burnley	-453
▁Fulham	-454
▁had	-455
▁poin	-456
▁comes	-457
orest	-458
led	-459
▁Forest	-460
rentford	-461
▁Brentford	-462
▁20	-463
▁midfield	-464
▁ac	-465
▁Bright	-466
▁Brighton	-467
ence	-468
ling	-469
▁penal	-470
▁Jo	-471
▁open	-472
owe	-473
▁Al	-474
▁another	-475
▁goals	-476
▁pro	-477
ki	-478
▁looks	-479
▁mat	-480
iss	-481
▁lead	-482
▁bet	-483
AL	-484
ous	-485
▁hosts	-486
age	-487
▁sa	-488
▁del	-489
fer	-490
lock	-491
outh	-492
▁West	-493
▁Di	-494
▁ed	-495
▁Palace	-496
▁un	-497
▁fr	-498
len	-499
ire	-500
▁attack	-501
so	-502
▁ad	-503
▁there	-504
▁here	-505
▁cut	-506
▁penalty	-507
▁edge	-508
ian	-509
ins	-510
▁ca	-511
▁per	-512
▁dri	-513
ud	-514
ull	-515
▁then	-516
pe	-517
▁clo	-518
ST	-519
▁chance	-520
▁comp	-521
man	-522
▁St	-523
▁Mc	-524
urs	-525
ish	-526
feree	-527
▁Sp	-528
HA	-529
▁though	-530
round	-531
day	-532
time	-533
▁them	-534
▁stra	-535
oth	-536
up	-537
▁3	-538
eet	-539
ince	-540
ings	-541
▁inter	-542
lect	-543
ies	-544
ourn	-545
ournem	-546
▁tri	-547
▁keep	-548
ournemouth	-549
▁straight	-550
▁low	-551
▁Bournemouth	-552
!!!	-553
▁vis	-554
ach	-555
▁ear	-556
▁long	-557
▁also	-558
ne	-559
▁ro	-560
▁res	-561
▁six	-562
▁block	-563
-2	-564
▁referee	-565
ank	-566
▁send	-567
▁visit	-568
oll	-569
▁Spurs	-570
ha	-571
▁across	-572
itch	-573
▁takes	-574
▁ex	-575
▁fa	-576
▁press	-577
arg	-578
▁Ch	-579
▁repla	-580
owever	-581
ison	-582
ning	-583
▁li	-584
ove	-585
▁when	-586
▁put	-587
▁en	-588
▁De	-589
we	-590
▁since	-591
ere	-592
▁onto	-593
▁points	-594
▁book	-595
▁app	-596
▁too	-597
owing	-598
ord	-599
▁There	-600
▁past	-601
▁which	-602
wn	-603
ster	-604
▁header	-605
▁gi	-606
ors	-607
▁wing	-608
va	-609
old	-610
▁any	-611
▁come	-612
▁set	-613
▁cent	-614
▁That	-615
HE	-616
▁quick	-617
▁some	-618
▁close	-619
imp	-620
▁On	-621
ides	-622
▁They	-623
ood	-624
able	-625
ah	-626
▁visitors	-627
io	-628
▁turn	-629
▁attem	-630
▁-	-631
▁space	-632
▁sto	-633
▁change	-634
oment	-635
▁deliver	-636
▁strik	-637
ez	-638
allen	-639
ther	-640
▁moment	-641
▁late	-642
▁near	-643
LLLL	-644
▁defender	-645
lu	-646
ellow	-647
ame	-648
ont	-649
▁final	-650
hes	-651
▁Fer	-652
▁net	-653
▁opp	-654
▁five	-655
▁defence	-656
gg	-657
▁beat	-658
▁won	-659
▁challen	-660
ges	-661
anche	-662
TI	-663
▁card	-664
▁Ha	-665
▁strike	-666
▁lat	-667
les	-668
▁Z	-669
▁does	-670
line	-671
▁no	-672
ween	-673
ance	-674
be	-675
ans	-676
▁pick	-677
▁between	-678
AR	-679
▁good	-680
▁scored	-681
▁sw	-682
▁ab	-683
▁inj	-684
arget	-685
▁An	-686
▁could	-687
▁However	-688
▁take	-689
▁place	-690
ert	-691
▁yellow	-692
▁while	-693
eto	-694
sen	-695
▁touch	-696
▁cur	-697
▁Mart	-698
ird	-699
▁contin	-700
ear	-701
▁wor	-702
▁looking	-703
dle	-704
ON	-705
▁middle	-706
NC	-707
over	-708
oy	-709
ana	-710
▁rec	-711
▁front	-712
▁both	-713
RE	-714
-3	-715
ock	-716
ved	-717
▁add	-718
▁target	-719
▁pressure	-720
▁SA	-721
▁own	-722
anger	-723
erb	-724
▁third	-725
▁pitch	-726
ows	-727
▁1-0	-728
..	-729
ions	-730
▁Rob	-731
▁challenge	-732
▁line	-733
ful	-734
▁di	-735
ory	-736
raw	-737
ball	-738
▁Ma	-739
hing	-740
▁danger	-741
▁Y	-742
▁SAVE	-743
▁finds	-744
▁10	-745
▁still	-746
ub	-747
OOOO	-748
off	-749
▁sub	-750
▁league	-751
ME	-752
▁foot	-753
▁ra	-754
▁ret	-755
ottom	-756
▁Tra	-757
▁going	-758
▁we	-759
iz	-760
▁see	-761
ange	-762
▁Ed	-763
▁ben	-764
▁Will	-765
▁vi	-766
vent	-767
▁today	-768
▁k	-769
▁kick	-770
anchester	-771
ber	-772
very	-773
▁sends	-774
▁dis	-775
▁Manchester	-776
▁Fern	-777
▁need	-778
▁She	-779
ounter	-780
▁Fernand	-781
▁goalkeep	-782
▁Dou	-783
▁early	-784
att	-785
▁Lu	-786
▁match	-787
ury	-788
▁imp	-789
ial	-790
▁striker	-791
▁Fod	-792
▁dro	-793
UB	-794
lli	-795
▁Wh	-796
igh	-797
▁Sheff	-798
▁bottom	-799
act	-800
▁bench	-801
otten	-802
TE	-803
▁deflect	-804
▁than	-805
▁pos	-806
▁Sheffield	-807
sel	-808
ice	-809
rugg	-810
).	-811
ious	-812
▁injury	-813
TIME	-814
av	-815
▁attempt	-816
▁draw	-817
):	-818
head	-819
▁goalkeeper	-820
ment	-821
▁having	-822
▁hit	-823
▁winger	-824
▁SUB	-825
ottenham	-826
▁ass	-827
▁being	-828
▁Tottenham	-829
▁lo	-830
▁foll	-831
ath	-832
▁Joh	-833
ga	-834
▁opening	-835
ris	-836
▁around	-837
ade	-838
eta	-839
▁counter	-840
▁were	-841
xt	-842
▁manag	-843
▁defeat	-844
▁coming	-845
▁midfielder	-846
▁outside	-847
og	-848
▁shoot	-849
ilva	-850
▁foul	-851
▁other	-852
▁vict	-853
hand	-854
▁changes	-855
SE	-856
ola	-857
omin	-858
▁Gar	-859
▁feet	-860
▁John	-861
ib	-862
▁che	-863
▁hand	-864
▁VAR	-865
▁bri	-866
▁return	-867
▁Br	-868
ute	-869
▁Silva	-870
▁ahead	-871
▁rece	-872
de	-873
▁Neto	-874
▁finish	-875
foot	-876
▁loo	-877
▁much	-878
▁wins	-879
▁work	-880
▁We	-881
▁ar	-882
▁SUBS	-883
▁4	-884
cing	-885
ap	-886
ign	-887
▁cuts	-888
▁offside	-889
▁player	-890
▁high	-891
ards	-892
pped	-893
stit	-894
▁Onana	-895
ared	-896
▁spot	-897
ip	-898
ees	-899
▁lost	-900
▁Ol	-901
▁players	-902
te	-903
▁try	-904
▁dec	-905
gu	-906
▁scor	-907
▁men	-908
▁tries	-909
ingham	-910
▁des	-911
▁like	-912
ye	-913
▁Nun	-914
▁Jam	-915
▁Sal	-916
gaard	-917
▁continue	-918
▁hold	-919
ils	-920
▁substit	-921
ich	-922
▁pus	-923
ound	-924
aka	-925
ma	-926
less	-927
▁Re	-928
NCE	-929
vel	-930
lent	-931
▁Mad	-932
▁once	-933
VER	-934
▁CHA	-935
▁Park	-936
adi	-937
▁(4	-938
fford	-939
▁CHANCE	-940
▁position	-941
ips	-942
po	-943
▁delivery	-944
▁blocked	-945
ng	-946
▁matches	-947
▁bl	-948
▁next	-949
pping	-950
▁miss	-951
▁sees	-952
▁throw	-953
▁conced	-954
▁kn	-955
footed	-956
alis	-957
▁Wil	-958
▁made	-959
▁Ant	-960
▁After	-961
▁202	-962
ane	-963
▁yet	-964
ko	-965
ara	-966
▁stand	-967
ational	-968
▁would	-969
ho	-970
▁br	-971
Ne	-972
▁wee	-973
▁fire	-974
Neil	-975
▁Red	-976
▁0	-977
AAAA	-978
▁centre	-979
▁victory	-980
▁scoring	-981
▁making	-982
ction	-983
▁quickly	-984
uri	-985
ortun	-986
▁deep	-987
▁flank	-988
▁Ale	-989
▁strugg	-990
▁chances	-991
ays	-992
ates	-993
ai	-994
▁Rod	-995
olley	-996
amp	-997
▁James	-998
▁replaced	-999
eno	-1000
▁short	-1001
▁Trafford	-1002
if	-1003
▁rem	-1004
arr	-1005
▁Wat	-1006
ades	-1007
▁Emer	-1008
▁save	-1009
▁eight	-1010
▁plays	-1011
▁range	-1012
▁appear	-1013
▁Jack	-1014
▁winning	-1015
▁FU	-1016
rong	-1017
▁eas	-1018
▁equ	-1019
▁yards	-1020
llo	-1021
national	-1022
▁opportun	-1023
▁Mat	-1024
),	-1025
tle	-1026
ated	-1027
come	-1028
▁seven	-1029
▁Kam	-1030
▁international	-1031
cc	-1032
TON	-1033
wis	-1034
▁Gu	-1035
▁meet	-1036
▁recei	-1037
▁Am	-1038
▁Mar	-1039
edo	-1040
use	-1041
kins	-1042
▁poor	-1043
go	-1044
ks	-1045
ile	-1046
▁compet	-1047
read	-1048
▁Sem	-1049
ens	-1050
▁live	-1051
lliant	-1052
▁Ben	-1053
▁few	-1054
▁roll	-1055
▁move	-1056
▁2-0	-1057
adium	-1058
▁2-1	-1059
▁teams	-1060
▁brilliant	-1061
NI	-1062
▁hel	-1063
▁following	-1064
▁Saka	-1065
atter	-1066
▁assist	-1067
self	-1068
▁cover	-1069
per	-1070
▁fans	-1071
▁Rodri	-1072
▁getting	-1073
▁or	-1074
most	-1075
eny	-1076
▁cou	-1077
▁flick	-1078
▁Watkins	-1079
▁Alex	-1080
▁threat	-1081
arez	-1082
ister	-1083
varez	-1084
▁resul	-1085
▁This	-1086
▁Fernandes	-1087
▁Alvarez	-1088
▁ho	-1089
▁Son	-1090
▁remain	-1091
ress	-1092
▁should	-1093
▁Bl	-1094
▁former	-1095
ka	-1096
▁dou	-1097
▁better	-1098
pts	-1099
▁GO	-1100
▁And	-1101
▁inv	-1102
▁most	-1103
▁stop	-1104
▁competition	-1105
▁Pa	-1106
ners	-1107
▁throughball	-1108
atch	-1109
▁able	-1110
▁Ad	-1111
▁Ca	-1112
▁Mag	-1113
▁wa	-1114
ffer	-1115
▁pow	-1116
▁contro	-1117
▁Stadium	-1118
▁stre	-1119
ean	-1120
ORE	-1121
TED	-1122
▁UNI	-1123
▁Robin	-1124
▁UNITED	-1125
int	-1126
▁volley	-1127
▁Salah	-1128
▁did	-1129
▁pull	-1130
bs	-1131
ia	-1132
▁los	-1133
HAM	-1134
hed	-1135
min	-1136
▁Dan	-1137
▁check	-1138
▁us	-1139
▁Sch	-1140
▁rest	-1141
▁Blades	-1142
▁equalis	-1143
▁Nor	-1144
ually	-1145
ary	-1146
fts	-1147
▁himself	-1148
inn	-1149
▁Sa	-1150
▁full	-1151
▁Nunez	-1152
LE	-1153
▁looked	-1154
med	-1155
ple	-1156
▁Ster	-1157
▁Sterling	-1158
▁lit	-1159
▁given	-1160
az	-1161
▁19	-1162
oung	-1163
aland	-1164
▁boun	-1165
▁little	-1166
ira	-1167
ski	-1168
▁Wilson	-1169
FF	-1170
du	-1171
ical	-1172
▁where	-1173
DE	-1174
▁heads	-1175
▁byline	-1176
▁replaces	-1177
ture	-1178
ither	-1179
▁crow	-1180
pie	-1181
urst	-1182
▁Lewis	-1183
▁Haaland	-1184
ram	-1185
yard	-1186
▁bar	-1187
▁col	-1188
ixture	-1189
▁sides	-1190
▁sur	-1191
▁Anton	-1192
▁cleared	-1193
▁Robinson	-1194
ect	-1195
▁bu	-1196
ping	-1197
▁crowd	-1198
▁fixture	-1199
unha	-1200
▁Pick	-1201
▁Toff	-1202
▁Cunha	-1203
▁Martin	-1204
▁Ho	-1205
▁sm	-1206
▁wel	-1207
▁tack	-1208
▁level	-1209
▁ent	-1210
▁drives	-1211
▁His	-1212
▁Hoj	-1213
ander	-1214
▁loose	-1215
...	-1216
ordon	-1217
▁Gordon	-1218
▁almost	-1219
▁flag	-1220
▁enough	-1221
▁Pickford	-1222
▁Sol	-1223
▁point	-1224
▁clash	-1225
▁welcome	-1226
▁1-1	-1227
▁Ward	-1228
▁Palmer	-1229
ily	-1230
ston	-1231
▁event	-1232
▁shots	-1233
▁control	-1234
▁without	-1235
ught	-1236
-1):	-1237
arab	-1238
pite	-1239
ashes	-1240
▁shown	-1241
▁opportunity	-1242
rist	-1243
ondon	-1244
▁starting	-1245
ms	-1246
leg	-1247
▁TO	-1248
▁if	-1249
▁tra	-1250
▁London	-1251
▁slides	-1252
▁El	-1253
arl	-1254
▁Van	-1255
▁Diaz	-1256
▁curl	-1257
▁power	-1258
▁collect	-1259
NAL	-1260
▁Bow	-1261
▁Rich	-1262
▁Aston	-1263
▁Do	-1264
▁Cal	-1265
▁inc	-1266
▁Bowen	-1267
OU	-1268
▁fe	-1269
ken	-1270
ision	-1271
▁Foden	-1272
▁latter	-1273
mir	-1274
▁WI	-1275
▁Gun	-1276
▁lin	-1277
vious	-1278
pect	-1279
ac	-1280
hite	-1281
▁dangerous	-1282
▁Fle	-1283
▁face	-1284
▁Mit	-1285
▁started	-1286
▁great	-1287
▁double	-1288
▁Gunners	-1289
ams	-1290
ately	-1291
▁caught	-1292
▁path	-1293
▁very	-1294
▁cann	-1295
▁coverage	-1296
LO	-1297
res	-1298
omes	-1299
▁comfort	-1300
▁cla	-1301
▁about	-1302
gle	-1303
▁Cup	-1304
▁Eng	-1305
▁Kon	-1306
▁int	-1307
▁taking	-1308
pan	-1309
▁Po	-1310
ibbs	-1311
White	-1312
▁Gibbs	-1313
▁Bu	-1314
acho	-1315
▁Tri	-1316
nacho	-1317
▁comple	-1318
▁Garnacho	-1319
▁previous	-1320
▁Engl	-1321
▁What	-1322
piece	-1323
▁Rash	-1324
▁taken	-1325
▁Rashford	-1326
ptain	-1327
edro	-1328
▁squ	-1329
▁Pedro	-1330
▁Jackson	-1331
inez	-1332
▁201	-1333
▁adv	-1334
▁Martinez	-1335
▁As	-1336
▁fires	-1337
ital	-1338
▁Jan	-1339
ppier	-1340
▁Johnson	-1341
bar	-1342
ild	-1343
▁Madd	-1344
▁crossbar	-1345
ALF	-1346
▁HALF	-1347
▁action	-1348
▁Maddison	-1349
TY	-1350
▁sit	-1351
▁FULL	-1352
▁creat	-1353
elli	-1354
▁every	-1355
als	-1356
wang	-1357
▁attacking	-1358
ppy	-1359
▁lea	-1360
▁Hwang	-1361
▁added	-1362
kken	-1363
▁Hello	-1364
▁Flekken	-1365
sey	-1366
▁In	-1367
anke	-1368
ilian	-1369
inski	-1370
▁booked	-1371
▁Kaminski	-1372
olo	-1373
ries	-1374
▁stopp	-1375
▁Solanke	-1376
▁Ro	-1377
aten	-1378
▁Mor	-1379
▁Por	-1380
▁headed	-1381
▁played	-1382
▁Is	-1383
▁mark	-1384
LLL	-1385
ift	-1386
oure	-1387
▁Are	-1388
▁Bra	-1389
▁Leno	-1390
▁playing	-1391
ardi	-1392
▁WIDE	-1393
beaten	-1394
▁Trippier	-1395
▁seem	-1396
▁tight	-1397
▁fourth	-1398
▁captain	-1399
▁(1	-1400
▁got	-1401
▁camp	-1402
▁unbeaten	-1403
▁MA	-1404
ario	-1405
▁THE	-1406
▁nothing	-1407
▁Martinelli	-1408
OR	-1409
▁knock	-1410
icario	-1411
hy	-1412
uck	-1413
▁repl	-1414
▁GOOOO	-1415
▁Vicario	-1416
ances	-1417
▁treat	-1418
▁cannot	-1419
▁Mo	-1420
▁Dav	-1421
▁Pere	-1422
▁couple	-1423
▁tackle	-1424
▁receives	-1425
joy	-1426
▁Ez	-1427
▁Ode	-1428
▁want	-1429
▁Areola	-1430
▁Odegaard	-1431
▁ri	-1432
▁table	-1433
▁Porro	-1434
▁enjoy	-1435
▁picks	-1436
▁domin	-1437
▁Pereira	-1438
rag	-1439
▁Fr	-1440
ailey	-1441
▁claim	-1442
▁club	-1443
▁what	-1444
▁invol	-1445
▁Bailey	-1446
ER	-1447
ise	-1448
▁am	-1449
issa	-1450
▁Town	-1451
▁resp	-1452
▁whips	-1453
▁losing	-1454
ug	-1455
▁Ber	-1456
▁Tur	-1457
▁nod	-1458
▁Braz	-1459
▁equaliser	-1460
▁11	-1461
lenty	-1462
inging	-1463
▁Foder	-1464
▁Foderingham	-1465
of	-1466
Lew	-1467
Lewin	-1468
▁each	-1469
▁Calvert	-1470
▁moments	-1471
▁Os	-1472
▁Gomes	-1473
▁All	-1474
▁flo	-1475
▁fall	-1476
arabia	-1477
▁Sarabia	-1478
CK	-1479
aby	-1480
▁tou	-1481
▁Diaby	-1482
▁Nk	-1483
ably	-1484
anga	-1485
iding	-1486
▁step	-1487
▁Elanga	-1488
▁curling	-1489
▁eventually	-1490
ku	-1491
iting	-1492
▁Ander	-1493
▁whist	-1494
▁McNeil	-1495
arry	-1496
▁ter	-1497
▁campa	-1498
▁contest	-1499
ey	-1500
king	-1501
usev	-1502
ustr	-1503
▁For	-1504
▁Kul	-1505
▁big	-1506
▁Kulusev	-1507
▁campaign	-1508
▁12	-1509
▁Isak	-1510
▁treatment	-1511
ao	-1512
▁Se	-1513
▁GOO	-1514
▁inst	-1515
RN	-1516
▁Bru	-1517
▁plenty	-1518
▁reg	-1519
ating	-1520
▁proble	-1521
▁addition	-1522
▁Kulusevski	-1523
yi	-1524
▁jo	-1525
▁rus	-1526
ready	-1527
▁Joao	-1528
▁really	-1529
▁Douc	-1530
▁nine	-1531
▁supp	-1532
▁15	-1533
ched	-1534
ccess	-1535
▁Alexander	-1536
gb	-1537
mers	-1538
▁pun	-1539
▁Bees	-1540
▁Doucoure	-1541
▁5	-1542
half	-1543
▁3-1	-1544
▁Willian	-1545
▁Gil	-1546
▁Luiz	-1547
▁Reds	-1548
ouma	-1549
vertz	-1550
▁Christ	-1551
▁Havertz	-1552
▁stoppage	-1553
NG	-1554
els	-1555
ose	-1556
ted	-1557
ather	-1558
▁substitute	-1559
▁McG	-1560
▁burst	-1561
▁Dought	-1562
▁frustr	-1563
▁clearance	-1564
▁substitut	-1565
▁mo	-1566
iled	-1567
▁Can	-1568
▁Eze	-1569
arlison	-1570
▁Doughty	-1571
▁already	-1572
▁Richarlison	-1573
bye	-1574
atters	-1575
ertain	-1576
▁drops	-1577
▁McGinn	-1578
▁forced	-1579
▁attempts	-1580
▁strong	-1581
▁additional	-1582
elt	-1583
rown	-1584
▁came	-1585
▁Wissa	-1586
▁angle	-1587
aw	-1588
ef	-1589
▁Ko	-1590
▁SC	-1591
inho	-1592
▁Tom	-1593
▁tim	-1594
▁comb	-1595
▁curls	-1596
ouri	-1597
▁stands	-1598
▁Emerson	-1599
▁recover	-1600
▁Cher	-1601
▁minute	-1602
▁Morris	-1603
▁success	-1604
ues	-1605
▁Bro	-1606
▁Gall	-1607
▁winner	-1608
▁Toffees	-1609
uge	-1610
-2-3	-1611
▁sup	-1612
▁Wood	-1613
▁turns	-1614
▁defend	-1615
▁leg	-1616
agher	-1617
▁Gallagher	-1618
und	-1619
▁Good	-1620
▁Brazilian	-1621
wh	-1622
▁Sou	-1623
▁drag	-1624
ensive	-1625
▁Another	-1626
uez	-1627
▁abs	-1628
▁you	-1629
▁superb	-1630
▁struggling	-1631
wor	-1632
lund	-1633
▁Hojlund	-1634
▁Gab	-1635
▁ris	-1636
▁ste	-1637
▁(4-2-3	-1638
Ar	-1639
ati	-1640
obb	-1641
▁Jes	-1642
▁With	-1643
▁SCORE	-1644
▁gives	-1645
▁races	-1646
▁goodbye	-1647
▁halfway	-1648
riel	-1649
udus	-1650
▁Brown	-1651
▁Kudus	-1652
▁Gabriel	-1653
▁(4-2-3-1):	-1654
erg	-1655
owed	-1656
▁pace	-1657
LLLLLLLL	-1658
iv	-1659
cel	-1660
ied	-1661
▁Fernandez	-1662
▁deflected	-1663
xG	-1664
Arn	-1665
but	-1666
▁dire	-1667
▁hits	-1668
▁Gross	-1669
fl	-1670
gi	-1671
Prow	-1672
▁3-0	-1673
Prowse	-1674
▁Semedo	-1675
▁interce	-1676
nes	-1677
▁Ogb	-1678
ivert	-1679
▁whose	-1680
▁defensive	-1681
▁either	-1682
▁decision	-1683
▁ke	-1684
▁tw	-1685
mina	-1686
▁opt	-1687
▁Lemina	-1688
▁Hammers	-1689
▁impress	-1690
bi	-1691
owski	-1692
▁Paqu	-1693
▁Tark	-1694
Arnold	-1695
▁steps	-1696
▁brings	-1697
▁trying	-1698
▁complete	-1699
▁Tarkowski	-1700
wa	-1701
umo	-1702
▁Mbe	-1703
▁arri	-1704
▁clos	-1705
ations	-1706
▁Mbeumo	-1707
▁Paqueta	-1708
▁finding	-1709
anc	-1710
oni	-1711
▁Ray	-1712
▁Guim	-1713
▁Ay	-1714
araes	-1715
▁huge	-1716
▁Jesus	-1717
▁ground	-1718
▁Guimaraes	-1719
▁Nott	-1720
antage	-1721
▁whistle	-1722
▁Nottingham	-1723
alk	-1724
lopp	-1725
lues	-1726
mber	-1727
▁Muri	-1728
▁puts	-1729
▁Hatters	-1730
▁may	-1731
▁Ayew	-1732
▁many	-1733
▁SCORES	-1734
RI	-1735
well	-1736
ensen	-1737
▁Blues	-1738
▁those	-1739
▁booking	-1740
ged	-1741
▁new	-1742
erson	-1743
onent	-1744
▁best	-1745
attack	-1746
▁build	-1747
▁stret	-1748
▁despite	-1749
▁replace	-1750
▁opponent	-1751
left	-1752
ones	-1753
▁deal	-1754
▁went	-1755
▁advantage	-1756
▁NO	-1757
NCHE	-1758
STER	-1759
ging	-1760
ured	-1761
▁Car	-1762
▁perf	-1763
▁Tross	-1764
▁quite	-1765
▁times	-1766
▁Trossard	-1767
▁Ait	-1768
▁spell	-1769
▁failed	-1770
▁Ederson	-1771
ene	-1772
▁Rice	-1773
ino	-1774
lai	-1775
red	-1776
zob	-1777
▁Gue	-1778
▁lot	-1779
zobos	-1780
▁happy	-1781
▁Szobos	-1782
ani	-1783
zlai	-1784
▁Mac	-1785
▁Cash	-1786
▁Almir	-1787
▁record	-1788
▁Allister	-1789
▁defenders	-1790
▁Szoboszlai	-1791
cut	-1792
ero	-1793
los	-1794
▁Marc	-1795
▁MANCHE	-1796
▁Almiron	-1797
▁MANCHESTER	-1798
ik	-1799
ake	-1800
iah	-1801
▁give	-1802
▁help	-1803
▁perfor	-1804
ntil	-1805
wood	-1806
▁Hag	-1807
▁Mun	-1808
etiah	-1809
uring	-1810
▁part	-1811
▁Klopp	-1812
▁Nketiah	-1813
hin	-1814
rav	-1815
▁Jim	-1816
▁Doku	-1817
▁gone	-1818
▁loss	-1819
▁test	-1820
▁clean	-1821
▁opener	-1822
▁Dub	-1823
▁OFF	-1824
oming	-1825
▁week	-1826
▁reach	-1827
▁twice	-1828
▁z	-1829
▁cr	-1830
ravka	-1831
▁Cham	-1832
atches	-1833
▁sliding	-1834
▁involved	-1835
▁LI	-1836
yond	-1837
▁luck	-1838
▁same	-1839
▁least	-1840
▁beyond	-1841
ota	-1842
akpo	-1843
aron	-1844
hill	-1845
kend	-1846
ulls	-1847
▁Gust	-1848
▁Harr	-1849
▁Seag	-1850
▁Aaron	-1851
▁Gakpo	-1852
▁Hamer	-1853
▁Willi	-1854
▁doesn	-1855
▁weekend	-1856
▁Dubravka	-1857
▁Seagulls	-1858
two	-1859
▁Sc	-1860
pies	-1861
▁Bel	-1862
▁bit	-1863
▁Jota	-1864
▁Magpies	-1865
▁perfect	-1866
tt	-1867
wobi	-1868
▁Cry	-1869
Nouri	-1870
▁push	-1871
▁soon	-1872
urther	-1873
▁Iwobi	-1874
▁Garner	-1875
▁direct	-1876
▁passes	-1877
▁Harrison	-1878
ayo	-1879
ius	-1880
▁im	-1881
stal	-1882
upay	-1883
▁Beto	-1884
flight	-1885
selves	-1886
▁Maupay	-1887
▁differ	-1888
▁Crystal	-1889
-4	-1890
vin	-1891
▁My	-1892
▁tr	-1893
ided	-1894
▁found	-1895
▁allowing	-1896
▁themselves	-1897
jk	-1898
vo	-1899
▁Dy	-1900
▁Daw	-1901
▁Dijk	-1902
▁conf	-1903
▁Emery	-1904
▁lines	-1905
▁Dawson	-1906
▁things	-1907
▁Anfield	-1908
▁Andersen	-1909
ase	-1910
ead	-1911
▁HA	-1912
enez	-1913
▁fine	-1914
▁Dyche	-1915
▁Schar	-1916
▁Jensen	-1917
▁Mateta	-1918
▁Jimenez	-1919
▁performan	-1920
lor	-1921
alot	-1922
oney	-1923
▁stay	-1924
▁Dalot	-1925
▁falls	-1926
▁rolls	-1927
▁England	-1928
▁certain	-1929
▁threaten	-1930
▁earl	-1931
▁sure	-1932
▁slight	-1933
▁touches	-1934
rov	-1935
ount	-1936
ching	-1937
thing	-1938
▁Both	-1939
▁form	-1940
rought	-1941
▁Traore	-1942
▁delivers	-1943
ryk	-1944
▁(3	-1945
enyo	-1946
▁Eag	-1947
▁Mud	-1948
▁Rom	-1949
▁den	-1950
▁GOAL	-1951
▁Joel	-1952
▁prom	-1953
▁drill	-1954
▁Mudryk	-1955
▁Semenyo	-1956
ala	-1957
▁ST	-1958
▁Bark	-1959
▁Cott	-1960
▁fails	-1961
▁Barkley	-1962
mit	-1963
▁Od	-1964
▁la	-1965
▁xG	-1966
ALLL	-1967
▁Lar	-1968
▁Vin	-1969
▁red	-1970
ently	-1971
▁deny	-1972
▁read	-1973
▁25	-1974
TING	-1975
omez	-1976
▁appe	-1977
▁trou	-1978
▁Gomez	-1979
▁Eagles	-1980
▁Cherries	-1981
OL	-1982
mate	-1983
bound	-1984
raven	-1985
▁Carlos	-1986
▁Ogbene	-1987
eb	-1988
hod	-1989
zic	-1990
▁0.	-1991
▁aim	-1992
▁fly	-1993
▁seen	-1994
▁further	-1995
hon	-1996
icul	-1997
igne	-1998
▁Raya	-1999
▁Digne	-2000
▁debut	-2001
cellent	-2002
▁Robert	-2003
▁intercept	-2004
emi	-2005
▁Ud	-2006
ised	-2007
▁Ten	-2008
guson	-2009
though	-2010
▁alter	-2011
▁crosses	-2012
▁earlier	-2013
▁however	-2014
iod	-2015
▁13	-2016
▁Ta	-2017
ages	-2018
ouni	-2019
rawn	-2020
▁Klu	-2021
▁caus	-2022
▁love	-2023
▁period	-2024
▁Ferguson	-2025
▁touchline	-2026
▁brilliantly	-2027
ec	-2028
eek	-2029
rew	-2030
unk	-2031
ouard	-2032
▁result	-2033
▁Edouard	-2034
▁Kluivert	-2035
▁es	-2036
ogie	-2037
▁Amd	-2038
▁McA	-2039
isson	-2040
▁mean	-2041
▁Toney	-2042
▁Udogie	-2043
▁Alisson	-2044
▁performance	-2045
▁6	-2046
tee	-2047
anks	-2048
omas	-2049
▁But	-2050
rovic	-2051
▁even	-2052
▁took	-2053
▁catch	-2054
▁flies	-2055
▁wrong	-2056
▁young	-2057
▁McAtee	-2058
▁Thomas	-2059
▁Amdouni	-2060
▁brought	-2061
▁collects	-2062
▁excellent	-2063
arm	-2064
nier	-2065
leman	-2066
while	-2067
▁Taver	-2068
▁shoots	-2069
▁restart	-2070
▁Tavernier	-2071
ney	-2072
▁NE	-2073
cher	-2074
▁Col	-2075
▁Fab	-2076
▁ski	-2077
▁must	-2078
▁Young	-2079
erbi	-2080
▁Kil	-2081
▁Zerbi	-2082
▁releg	-2083
▁Having	-2084
▁certainly	-2085
oma	-2086
uro	-2087
chett	-2088
▁drop	-2089
▁saved	-2090
chettino	-2091
▁Antonio	-2092
▁managed	-2093
▁sending	-2094
▁Pochettino	-2095
▁hope	-2096
▁Mitoma	-2097
▁Palhin	-2098
▁beaten	-2099
▁instead	-2100
▁manages	-2101
▁problems	-2102
-3):	-2103
haps	-2104
ipped	-2105
▁Dunk	-2106
▁Euro	-2107
▁done	-2108
▁Palhinha	-2109
▁conceding	-2110
NT	-2111
aff	-2112
ALLLL	-2113
▁OVER	-2114
▁sent	-2115
ILL	-2116
iling	-2117
▁Elli	-2118
▁join	-2119
▁runs	-2120
ething	-2121
ardiola	-2122
▁seconds	-2123
▁Guardiola	-2124
▁pa	-2125
here	-2126
▁Gre	-2127
▁arm	-2128
pions	-2129
▁above	-2130
▁Kilman	-2131
▁Romero	-2132
▁bounces	-2133
▁conceded	-2134
▁Champions	-2135
eed	-2136
▁PE	-2137
lare	-2138
medi	-2139
▁Pet	-2140
▁AR	-2141
▁day	-2142
▁sign	-2143
▁immedi	-2144
▁rushes	-2145
▁strikes	-2146
▁powerful	-2147
▁relegation	-2148
LOSE	-2149
▁CHE	-2150
range	-2151
▁Walk	-2152
▁simp	-2153
▁CLOSE	-2154
▁White	-2155
▁Sm	-2156
ially	-2157
waite	-2158
▁Bran	-2159
▁conc	-2160
▁drive	-2161
▁oppos	-2162
▁clears	-2163
omething	-2164
▁Goodison	-2165
VES	-2166
▁Ke	-2167
week	-2168
▁cal	-2169
▁let	-2170
NALTY	-2171
alish	-2172
▁Gusto	-2173
thwaite	-2174
▁during	-2175
▁giving	-2176
▁PENALTY	-2177
▁finally	-2178
▁heading	-2179
▁respond	-2180
▁Grealish	-2181
▁Branthwaite	-2182
do	-2183
cek	-2184
bles	-2185
ible	-2186
icks	-2187
▁WOL	-2188
▁Sarr	-2189
▁Clare	-2190
▁beats	-2191
▁Soucek	-2192
▁WOLVES	-2193
▁Walker	-2194
▁lovely	-2195
▁Petrovic	-2196
▁something	-2197
ux	-2198
fal	-2199
ilo	-2200
kes	-2201
arge	-2202
▁Cou	-2203
▁Kab	-2204
▁McT	-2205
SENAL	-2206
▁Heck	-2207
ominay	-2208
▁Coufal	-2209
▁easily	-2210
▁switch	-2211
▁ARSENAL	-2212
▁Clarets	-2213
▁rolling	-2214
▁winless	-2215
▁Christie	-2216
▁McTominay	-2217
cor	-2218
leas	-2219
▁Bal	-2220
▁show	-2221
anchez	-2222
▁Kabore	-2223
▁Sanchez	-2224
▁midweek	-2225
▁competitions	-2226
der	-2227
uff	-2228
▁em	-2229
▁Cas	-2230
▁Wel	-2231
▁Caic	-2232
▁expect	-2233
▁keeping	-2234
▁shooting	-2235
GH	-2236
▁gl	-2237
▁0-0	-2238
▁num	-2239
onder	-2240
▁heav	-2241
▁Smith	-2242
▁pulls	-2243
▁Caicedo	-2244
▁struggled	-2245
▁Lo	-2246
▁Dev	-2247
▁Mol	-2248
▁med	-2249
ineux	-2250
▁Bent	-2251
▁mist	-2252
▁zone	-2253
▁Turner	-2254
▁Molineux	-2255
▁deflects	-2256
▁comfortable	-2257
sa	-2258
sw	-2259
LSE	-2260
OOL	-2261
ILLA	-2262
LSEA	-2263
POOL	-2264
▁200	-2265
▁init	-2266
▁shir	-2267
▁such	-2268
▁LIVER	-2269
▁Muniz	-2270
▁VILLA	-2271
▁blast	-2272
▁conse	-2273
▁scram	-2274
▁Devils	-2275
▁CHELSEA	-2276
▁LIVERPOOL	-2277
ca	-2278
ld	-2279
pl	-2280
Burn	-2281
beck	-2282
▁Hud	-2283
▁Tay	-2284
▁Bill	-2285
▁ends	-2286
▁thum	-2287
cutive	-2288
▁hands	-2289
▁until	-2290
▁Taylor	-2291
▁Welbeck	-2292
▁goalwards	-2293
AST	-2294
eele	-2295
ists	-2296
mark	-2297
▁Tot	-2298
▁avo	-2299
▁cru	-2300
icius	-2301
▁real	-2302
▁Chong	-2303
▁Steele	-2304
▁seeing	-2305
▁Vinicius	-2306
▁consecutive	-2307
TH	-2308
deb	-2309
yan	-2310
rodu	-2311
teta	-2312
▁Ram	-2313
▁occ	-2314
Burnie	-2315
▁Arteta	-2316
▁McBurnie	-2317
uk	-2318
urp	-2319
▁lack	-2320
▁produ	-2321
▁react	-2322
▁swings	-2323
▁contact	-2324
▁rebound	-2325
▁comfortably	-2326
WC	-2327
Odo	-2328
▁16	-2329
Odoi	-2330
ters	-2331
uire	-2332
ASTLE	-2333
▁(4-3	-2334
▁Coll	-2335
▁NEWC	-2336
▁dart	-2337
▁sear	-2338
▁Chris	-2339
▁Archer	-2340
▁Hudson	-2341
▁wonder	-2342
▁Maguire	-2343
▁created	-2344
▁introdu	-2345
▁NEWCASTLE	-2346
▁LU	-2347
▁2-2	-2348
▁air	-2349
kolen	-2350
▁year	-2351
▁might	-2352
kolenko	-2353
▁Ramsey	-2354
▁starts	-2355
▁Norgaard	-2356
▁Mykolenko	-2357
▁Robertson	-2358
EST	-2359
▁saw	-2360
▁Adeb	-2361
▁keeps	-2362
▁later	-2363
▁latest	-2364
load	-2365
oyes	-2366
ring	-2367
▁Howe	-2368
▁Toti	-2369
▁Moyes	-2370
▁ready	-2371
▁misses	-2372
▁Adebayo	-2373
▁returns	-2374
▁running	-2375
rah	-2376
yne	-2377
!!!!	-2378
▁batt	-2379
▁pati	-2380
▁sets	-2381
▁Frank	-2382
ex	-2383
She	-2384
hil	-2385
▁Aw	-2386
▁Old	-2387
icial	-2388
oniyi	-2389
▁EVER	-2390
ashing	-2391
▁Antony	-2392
▁bright	-2393
▁denied	-2394
▁Awoniyi	-2395
▁EVERTON	-2396
▁beating	-2397
gl	-2398
ny	-2399
ina	-2400
Shea	-2401
ares	-2402
▁Est	-2403
▁HAM	-2404
▁how	-2405
ompan	-2406
oster	-2407
▁fort	-2408
▁hard	-2409
▁Bruyne	-2410
▁Davies	-2411
▁desper	-2412
▁Elliott	-2413
rid	-2414
▁BU	-2415
LOCK	-2416
ogle	-2417
▁cre	-2418
stone	-2419
ompany	-2420
▁Bogle	-2421
▁Foster	-2422
▁Janelt	-2423
▁Collins	-2424
▁Kompany	-2425
▁combine	-2426
▁Johnstone	-2427
▁defending	-2428
no	-2429
lev	-2430
ren	-2431
▁BRI	-2432
▁Dis	-2433
▁Ken	-2434
ongst	-2435
▁WEST	-2436
▁BLOCK	-2437
▁shows	-2438
▁vital	-2439
▁bursts	-2440
▁leading	-2441
▁(4-3-3):	-2442
▁official	-2443
ORD	-2444
ned	-2445
▁More	-2446
▁Verb	-2447
▁ease	-2448
▁Konsa	-2449
▁March	-2450
▁clips	-2451
▁hoping	-2452
▁unable	-2453
▁perhaps	-2454
asi	-2455
its	-2456
rab	-2457
ifth	-2458
▁3-2	-2459
▁Bas	-2460
▁she	-2461
athan	-2462
ingra	-2463
irney	-2464
▁neat	-2465
▁LUTON	-2466
▁Scott	-2467
▁Disasi	-2468
▁defeats	-2469
WN	-2470
rey	-2471
▁LE	-2472
arde	-2473
chen	-2474
▁Man	-2475
ingly	-2476
otter	-2477
ruggen	-2478
▁Olise	-2479
▁award	-2480
▁withd	-2481
▁Nathan	-2482
▁Oliver	-2483
▁Adingra	-2484
▁Cairney	-2485
▁manager	-2486
▁Williams	-2487
▁Verbruggen	-2488
HAT	-2489
▁sn	-2490
▁Zin	-2491
obert	-2492
chenko	-2493
legarde	-2494
▁impact	-2495
swinging	-2496
▁Odobert	-2497
▁offload	-2498
▁underway	-2499
▁Zinchenko	-2500
▁Bellegarde	-2501
▁deflection	-2502
▁impressive	-2503
ja	-2504
▁14	-2505
▁Ake	-2506
▁isn	-2507
▁feed	-2508
▁draws	-2509
▁fifth	-2510
▁picked	-2511
lie	-2512
▁aw	-2513
▁BRE	-2514
▁acc	-2515
emiro	-2516
ooper	-2517
Potter	-2518
marked	-2519
▁drags	-2520
▁create	-2521
▁surely	-2522
▁assists	-2523
▁medical	-2524
▁Casemiro	-2525
▁appearances	-2526
app	-2527
▁Ev	-2528
FORD	-2529
LHAM	-2530
▁Vit	-2531
▁hig	-2532
urphy	-2533
▁FULHAM	-2534
▁Konate	-2535
▁Longst	-2536
▁Murphy	-2537
▁clever	-2538
▁Murillo	-2539
▁support	-2540
▁trouble	-2541
▁Longstaff	-2542
EL	-2543
ALA	-2544
LEY	-2545
end	-2546
ots	-2547
▁Bar	-2548
▁Tim	-2549
▁Zani	-2550
erslev	-2551
nderson	-2552
▁Vitinho	-2553
▁Zaniolo	-2554
▁cutback	-2555
▁Roerslev	-2556
▁goalscor	-2557
▁meetings	-2558
▁unmarked	-2559
▁Henderson	-2560
CE	-2561
nel	-2562
GHTON	-2563
olute	-2564
▁Biss	-2565
▁Cast	-2566
▁dist	-2567
▁Bueno	-2568
▁allows	-2569
▁catches	-2570
▁remains	-2571
▁BRIGHTON	-2572
▁Bissouma	-2573
Re	-2574
cle	-2575
ova	-2576
▁30	-2577
leos	-2578
▁Eri	-2579
▁Mil	-2580
▁ham	-2581
▁tame	-2582
leosho	-2583
ordova	-2584
possess	-2585
▁firing	-2586
▁fortun	-2587
ITY	-2588
TTE	-2589
Reid	-2590
▁Ler	-2591
▁met	-2592
OREST	-2593
▁CITY	-2594
▁Matt	-2595
▁FOREST	-2596
▁Larsen	-2597
▁confid	-2598
▁disapp	-2599
▁Koleosho	-2600
▁dispossess	-2601
▁immediately	-2602
KE	-2603
orn	-2604
pla	-2605
val	-2606
atic	-2607
▁enc	-2608
▁ser	-2609
▁Ryan	-2610
▁laun	-2611
▁Lerma	-2612
▁haven	-2613
▁lifts	-2614
▁Fabian	-2615
▁Mitche	-2616
▁breaks	-2617
▁outing	-2618
▁stages	-2619
▁appears	-2620
EM	-2621
bling	-2622
▁Broo	-2623
▁diff	-2624
▁hist	-2625
▁qual	-2626
cember	-2627
▁David	-2628
▁Yates	-2629
▁heavy	-2630
▁disappo	-2631
▁options	-2632
▁Mitchell	-2633
▁anything	-2634
▁replacing	-2635
gan	-2636
lud	-2637
agne	-2638
atur	-2639
uary	-2640
▁our	-2641
▁sus	-2642
amall	-2643
▁Bobb	-2644
▁Dias	-2645
▁Lane	-2646
alless	-2647
▁Andre	-2648
▁appro	-2649
▁Brooks	-2650
▁Bramall	-2651
▁Edwards	-2652
▁mistake	-2653
▁December	-2654
▁difficul	-2655
▁successive	-2656
▁Ne	-2657
rick	-2658
will	-2659
▁199	-2660
▁doing	-2661
▁waiting	-2662
▁Castagne	-2663
▁goalless	-2664
▁resulting	-2665
▁Bo	-2666
▁BURN	-2667
▁WHAT	-2668
NTFORD	-2669
▁Vital	-2670
▁avoid	-2671
▁slips	-2672
▁flicks	-2673
▁Colwill	-2674
▁January	-2675
▁prevent	-2676
▁momentum	-2677
▁BRENTFORD	-2678
EMOU	-2679
OURN	-2680
▁dead	-2681
EMOUTH	-2682
▁BOURN	-2683
▁keeper	-2684
▁attempted	-2685
▁difficult	-2686
▁BOURNEMOUTH	-2687
zes	-2688
▁Co	-2689
icha	-2690
▁bod	-2691
▁2023	-2692
▁wall	-2693
▁Micha	-2694
▁enter	-2695
▁seems	-2696
▁BURNLEY	-2697
▁Billing	-2698
▁Cordova	-2699
NHAM	-2700
elly	-2701
▁End	-2702
ished	-2703
▁Adam	-2704
▁Pope	-2705
▁hook	-2706
▁Berge	-2707
▁TOTTE	-2708
▁along	-2709
▁holds	-2710
▁occas	-2711
▁rises	-2712
▁marker	-2713
▁TOTTENHAM	-2714
▁wonderful	-2715
ji	-2716
▁Mi	-2717
fted	-2718
tend	-2719
▁GOOD	-2720
▁lose	-2721
▁brief	-2722
IN	-2723
kan	-2724
tim	-2725
STON	-2726
ueke	-2727
▁Tie	-2728
▁cap	-2729
▁car	-2730
aches	-2731
kanji	-2732
▁cruc	-2733
▁derb	-2734
lemans	-2735
▁ASTON	-2736
▁Akanji	-2737
▁Madueke	-2738
▁drawing	-2739
▁pushing	-2740
▁Tielemans	-2741
▁continues	-2742
ELD	-2743
IELD	-2744
hony	-2745
lupp	-2746
onan	-2747
otte	-2748
▁NOT	-2749
OAAAA	-2750
▁Just	-2751
▁race	-2752
placed	-2753
▁Hecke	-2754
▁Jones	-2755
▁Buonan	-2756
▁blocks	-2757
▁sticks	-2758
▁Anthony	-2759
▁Schlupp	-2760
▁history	-2761
▁Brownhill	-2762
▁withdrawn	-2763
▁Buonanotte	-2764
ssa	-2765
▁(2	-2766
▁Luk	-2767
▁glo	-2768
ALACE	-2769
▁Road	-2770
▁term	-2771
▁speed	-2772
▁PALACE	-2773
▁turned	-2774
▁Norwood	-2775
▁cutting	-2776
FL	-2777
HEFF	-2778
▁EFL	-2779
inton	-2780
ising	-2781
▁Erik	-2782
▁care	-2783
▁slow	-2784
▁SAVED	-2785
▁SHEFF	-2786
▁centr	-2787
▁stays	-2788
▁Cooper	-2789
▁travel	-2790
▁distance	-2791
▁Joelinton	-2792
▁SHEFFIELD	-2793
hi	-2794
iba	-2795
▁45	-2796
oyle	-2797
▁sing	-2798
▁Doyle	-2799
▁Zouma	-2800
▁bring	-2801
▁count	-2802
▁Saliba	-2803
▁streak	-2804
▁English	-2805
▁joining	-2806
▁receiving	-2807
uc	-2808
vi	-2809
ung	-2810
wing	-2811
▁Con	-2812
▁Hug	-2813
▁fou	-2814
itive	-2815
worth	-2816
▁kept	-2817
▁prov	-2818
▁road	-2819
▁swit	-2820
▁slide	-2821
▁Doming	-2822
▁missed	-2823
▁netted	-2824
▁crucial	-2825
▁dropping	-2826
▁Dominguez	-2827
▁goalscorer	-2828
▁Wer	-2829
▁mon	-2830
lling	-2831
▁Chil	-2832
▁clim	-2833
▁alive	-2834
▁charg	-2835
▁Hughes	-2836
▁Werner	-2837
▁charge	-2838
▁moving	-2839
▁putting	-2840
▁Chilwell	-2841
org	-2842
ril	-2843
guil	-2844
ined	-2845
▁Now	-2846
▁fiz	-2847
▁Jorg	-2848
▁sheet	-2849
▁compos	-2850
▁recent	-2851
▁single	-2852
▁thanks	-2853
▁holding	-2854
get	-2855
▁FA	-2856
acks	-2857
glas	-2858
goal	-2859
mund	-2860
work	-2861
▁FOR	-2862
▁Moor	-2863
▁Turf	-2864
▁cons	-2865
▁Gueye	-2866
▁Kenil	-2867
▁these	-2868
▁Douglas	-2869
▁Kenilworth	-2870
bj	-2871
ody	-2872
▁Gv	-2873
ento	-2874
heus	-2875
▁Liv	-2876
▁pot	-2877
▁Endo	-2878
▁lays	-2879
ardiol	-2880
▁Bruun	-2881
▁never	-2882
ramento	-2883
▁Matheus	-2884
▁enjoyed	-2885
▁Gvardiol	-2886
▁Livramento	-2887
▁completely	-2888
▁co	-2889
▁Bot	-2890
▁Des	-2891
▁Nel	-2892
asing	-2893
chang	-2894
▁nods	-2895
▁Domin	-2896
▁Satur	-2897
▁heart	-2898
▁smart	-2899
▁Botman	-2900
▁Moreno	-2901
▁Nelson	-2902
▁showing	-2903
▁Saturday	-2904
▁9	-2905
ats	-2906
uel	-2907
▁IT	-2908
yeka	-2909
▁hal	-2910
agers	-2911
aring	-2912
bjerg	-2913
▁2022	-2914
▁Reed	-2915
▁TOWN	-2916
▁delay	-2917
▁floor	-2918
▁needs	-2919
TINGHAM	-2920
▁Danilo	-2921
▁Onyeka	-2922
▁Wilder	-2923
▁drills	-2924
▁handball	-2925
▁NOTTINGHAM	-2926
AT	-2927
RY	-2928
ton	-2929
▁Cl	-2930
ruck	-2931
▁Max	-2932
▁Ven	-2933
▁row	-2934
▁van	-2935
ordan	-2936
▁Aina	-2937
▁Pinn	-2938
▁ever	-2939
▁Broja	-2940
▁saves	-2941
▁Jordan	-2942
▁Reguil	-2943
▁likely	-2944
▁potent	-2945
▁respon	-2946
▁Pinnock	-2947
▁driving	-2948
▁Hojbjerg	-2949
▁absolute	-2950
▁slightly	-2951
▁Tr	-2952
acob	-2953
engi	-2954
guez	-2955
hest	-2956
mour	-2957
▁Var	-2958
▁2021	-2959
▁Kova	-2960
▁Jacob	-2961
▁Mengi	-2962
▁deser	-2963
▁rever	-2964
▁Barnes	-2965
▁Varane	-2966
▁rather	-2967
▁suppor	-2968
▁Despite	-2969
▁Gilmour	-2970
▁interval	-2971
iw	-2972
na	-2973
cic	-2974
ior	-2975
ridge	-2976
▁Main	-2977
▁coll	-2978
hodzic	-2979
▁Harry	-2980
▁Trust	-2981
▁extend	-2982
▁Kovacic	-2983
▁picking	-2984
▁Reguilon	-2985
▁opponents	-2986
lla	-2987
▁Ah	-2988
elle	-2989
▁Cuc	-2990
▁Gud	-2991
▁Tor	-2992
▁saf	-2993
herty	-2994
▁Emir	-2995
▁Foll	-2996
▁Post	-2997
▁Ahmed	-2998
▁Kelle	-2999
▁round	-3000
▁Bridge	-3001
▁Cucure	-3002
▁Mainoo	-3003
▁Patter	-3004
▁Torres	-3005
▁Trusty	-3006
▁concer	-3007
▁Doherty	-3008
▁Emirates	-3009
▁Kelleher	-3010
▁Following	-3011
▁Patterson	-3012
▁appearance	-3013
▁Ahmedhodzic	-3014
ago	-3015
▁ev	-3016
inan	-3017
▁due	-3018
arrow	-3019
▁Only	-3020
▁wast	-3021
inning	-3022
upinan	-3023
▁force	-3024
▁shirt	-3025
▁gloves	-3026
▁Gudmund	-3027
▁Toffolo	-3028
▁enjoying	-3029
▁football	-3030
▁Cucurella	-3031
▁Estupinan	-3032
▁Rodriguez	-3033
ED	-3034
elof	-3035
pril	-3036
send	-3037
▁Joe	-3038
▁ind	-3039
▁lun	-3040
▁Lind	-3041
▁legs	-3042
amford	-3043
ention	-3044
▁Clark	-3045
▁bounce	-3046
▁suffer	-3047
▁delight	-3048
▁Lindelof	-3049
▁Townsend	-3050
▁Cottagers	-3051
IS	-3052
br	-3053
ele	-3054
lou	-3055
▁er	-3056
ecog	-3057
▁4-1	-3058
▁Mee	-3059
▁ago	-3060
berch	-3061
▁fray	-3062
▁fouls	-3063
ecoglou	-3064
▁Graven	-3065
▁narrow	-3066
▁Stamford	-3067
▁difference	-3068
▁Gravenberch	-3069
▁Postecoglou	-3070
how	-3071
jum	-3072
RYST	-3073
ully	-3074
▁GRE	-3075
▁act	-3076
▁tem	-3077
▁tit	-3078
▁tur	-3079
adley	-3080
andro	-3081
▁feel	-3082
▁thin	-3083
RYSTAL	-3084
▁Evans	-3085
▁includ	-3086
▁leaves	-3087
▁Bradley	-3088
▁CRYSTAL	-3089
▁injured	-3090
▁leaving	-3091
AD	-3092
cto	-3093
ept	-3094
dock	-3095
enes	-3096
iago	-3097
▁Hod	-3098
▁its	-3099
ities	-3100
▁Lall	-3101
ctober	-3102
ipping	-3103
▁opens	-3104
▁Lallana	-3105
erv	-3106
ices	-3107
rigi	-3108
▁Jos	-3109
▁Nic	-3110
mates	-3111
▁diss	-3112
lessly	-3113
▁GREAT	-3114
▁Origi	-3115
▁ended	-3116
▁impro	-3117
▁squad	-3118
▁Bassey	-3119
▁netting	-3120
▁reverse	-3121
pa	-3122
OST	-3123
ete	-3124
▁gu	-3125
juma	-3126
oted	-3127
roke	-3128
▁Cul	-3129
ember	-3130
▁caut	-3131
▁hang	-3132
igning	-3133
▁April	-3134
▁carry	-3135
▁dives	-3136
▁sails	-3137
▁sixth	-3138
▁couldn	-3139
▁follow	-3140
▁fouled	-3141
▁Danjuma	-3142
▁October	-3143
▁opposition	-3144
ND	-3145
kez	-3146
odf	-3147
▁So	-3148
ants	-3149
▁Ker	-3150
▁bra	-3151
ering	-3152
▁Boly	-3153
▁Godf	-3154
▁Miley	-3155
▁among	-3156
▁Cullen	-3157
▁Kerkez	-3158
▁claims	-3159
▁regain	-3160
▁Godfrey	-3161
▁central	-3162
▁dissent	-3163
▁standing	-3164
▁Fabianski	-3165
▁meanwhile	-3166
▁perfectly	-3167
sson	-3168
elebr	-3169
▁pokes	-3170
▁title	-3171
▁trick	-3172
▁simple	-3173
▁arrives	-3174
▁decides	-3175
▁quality	-3176
▁fortunate	-3177
iet	-3178
jer	-3179
▁Ajer	-3180
▁poss	-3181
ortant	-3182
▁Moham	-3183
▁blows	-3184
▁loses	-3185
▁celebr	-3186
▁flicked	-3187
▁approach	-3188
▁crossing	-3189
▁response	-3190
▁GOOOOOOOO	-3191
▁Gudmundsson	-3192
zu	-3193
▁At	-3194
onal	-3195
vers	-3196
enesi	-3197
ively	-3198
panzu	-3199
▁earn	-3200
▁held	-3201
▁pres	-3202
▁Guehi	-3203
▁darts	-3204
▁Mpanzu	-3205
▁Senesi	-3206
▁awarded	-3207
▁highest	-3208
▁meeting	-3209
▁expected	-3210
▁substitutes	-3211
elh	-3212
iak	-3213
▁En	-3214
ident	-3215
▁Selh	-3216
▁Tete	-3217
▁drib	-3218
▁name	-3219
▁surp	-3220
▁derby	-3221
▁relie	-3222
▁Ground	-3223
▁Milner	-3224
▁struck	-3225
▁Michael	-3226
▁continu	-3227
▁Selhurst	-3228
asu	-3229
den	-3230
▁Agu	-3231
▁mis	-3232
ancur	-3233
▁Cook	-3234
▁From	-3235
▁clin	-3236
▁cour	-3237
▁pair	-3238
▁turf	-3239
▁Since	-3240
▁overh	-3241
▁quiet	-3242
▁sever	-3243
▁skips	-3244
▁releas	-3245
▁within	-3246
▁missing	-3247
▁upfield	-3248
▁Jorginho	-3249
▁Bentancur	-3250
▁different	-3251
▁confidence	-3252
▁alterations	-3253
▁opportunities	-3254
NE	-3255
iy	-3256
ula	-3257
urt	-3258
uled	-3259
▁Ira	-3260
▁Sin	-3261
▁tip	-3262
▁tot	-3263
▁Brun	-3264
gether	-3265
▁Keane	-3266
isterra	-3267
▁Europa	-3268
▁Iraola	-3269
▁floats	-3270
▁inviting	-3271
▁positive	-3272
▁desperate	-3273
▁Sinisterra	-3274
▁substitution	-3275
bers	-3276
land	-3277
uran	-3278
▁1-1!	-3279
▁Niak	-3280
▁aren	-3281
▁firm	-3282
▁lets	-3283
▁Osula	-3284
▁pushes	-3285
▁latches	-3286
▁interest	-3287
▁absolutely	-3288
▁ma	-3289
▁me	-3290
▁sk	-3291
ebru	-3292
elso	-3293
▁Bur	-3294
▁gap	-3295
ashed	-3296
trick	-3297
▁didn	-3298
▁requ	-3299
▁Bruno	-3300
▁Celso	-3301
▁moves	-3302
ebruary	-3303
▁Kamara	-3304
▁manage	-3305
▁thread	-3306
▁neither	-3307
▁everyone	-3308
▁frustrated	-3309
▁inswinging	-3310
oud	-3311
ped	-3312
sim	-3313
yle	-3314
ampt	-3315
gson	-3316
ikas	-3317
weep	-3318
▁fav	-3319
▁fit	-3320
▁Sels	-3321
▁Tsim	-3322
▁boot	-3323
amptey	-3324
▁Duran	-3325
▁Kelly	-3326
▁enters	-3327
▁secure	-3328
▁Hodgson	-3329
▁Lamptey	-3330
▁crowded	-3331
▁flashes	-3332
▁passing	-3333
▁somehow	-3334
▁Although	-3335
▁Tsimikas	-3336
▁recovers	-3337
▁1.	-3338
▁Em	-3339
▁bec	-3340
▁pla	-3341
astic	-3342
▁Sang	-3343
▁rare	-3344
▁sweep	-3345
▁pushed	-3346
▁Sangare	-3347
▁several	-3348
▁although	-3349
▁register	-3350
▁scoreline	-3351
▁frustration	-3352
arn	-3353
cas	-3354
haw	-3355
▁No	-3356
born	-3357
▁Wan	-3358
▁hat	-3359
rahma	-3360
▁Shaw	-3361
▁fail	-3362
▁kind	-3363
▁main	-3364
▁nice	-3365
▁alert	-3366
▁climb	-3367
▁conne	-3368
▁field	-3369
▁loops	-3370
ampions	-3371
ovember	-3372
▁Stones	-3373
▁battle	-3374
▁opened	-3375
▁overla	-3376
▁looping	-3377
▁Benrahma	-3378
▁bringing	-3379
erd	-3380
ked	-3381
ukw	-3382
Biss	-3383
▁Kiw	-3384
▁lay	-3385
▁nam	-3386
fully	-3387
iyasu	-3388
▁POST	-3389
▁bund	-3390
▁fair	-3391
▁hour	-3392
▁opts	-3393
▁poun	-3394
▁wait	-3395
anding	-3396
▁feeds	-3397
▁slott	-3398
Bissaka	-3399
▁Aguerd	-3400
▁problem	-3401
▁receive	-3402
▁stretch	-3403
▁February	-3404
▁Tomiyasu	-3405
▁champions	-3406
▁dominated	-3407
▁important	-3408
-5	-3409
die	-3410
ual	-3411
-2):	-3412
gent	-3413
uatt	-3414
▁Zab	-3415
▁days	-3416
▁wild	-3417
▁Rober	-3418
▁meets	-3419
uattara	-3420
▁flying	-3421
▁search	-3422
▁Eriksen	-3423
▁surpris	-3424
▁scramble	-3425
▁composure	-3426
▁returning	-3427
▁supporters	-3428
dal	-3429
cket	-3430
ines	-3431
ness	-3432
▁Sam	-3433
▁nor	-3434
arnyi	-3435
▁easy	-3436
▁lift	-3437
▁helps	-3438
▁appeal	-3439
▁causing	-3440
▁Zabarnyi	-3441
▁comeback	-3442
▁possible	-3443
▁switches	-3444
op	-3445
thy	-3446
yer	-3447
▁Or	-3448
cess	-3449
hate	-3450
vals	-3451
ways	-3452
▁tee	-3453
▁Ream	-3454
▁prod	-3455
minute	-3456
▁Burke	-3457
▁Eddie	-3458
▁Kiwior	-3459
▁drifts	-3460
▁gather	-3461
antastic	-3462
▁Cottage	-3463
▁allowed	-3464
▁clearly	-3465
▁failing	-3466
▁sitting	-3467
▁Niakhate	-3468
▁November	-3469
li	-3470
ph	-3471
game	-3472
imum	-3473
ying	-3474
▁amb	-3475
▁sha	-3476
aking	-3477
inted	-3478
point	-3479
▁Velt	-3480
▁dram	-3481
▁Lukic	-3482
▁chest	-3483
▁displ	-3484
▁Craven	-3485
▁victor	-3486
eptember	-3487
▁Veltman	-3488
▁caution	-3489
▁channel	-3490
▁initial	-3491
▁Ouattara	-3492
▁deadlock	-3493
▁fixtures	-3494
ih	-3495
asce	-3496
ered	-3497
ihad	-3498
lles	-3499
ltim	-3500
▁pul	-3501
ought	-3502
▁Bell	-3503
ically	-3504
▁Lasce	-3505
▁Muric	-3506
▁Their	-3507
▁indic	-3508
▁Aarons	-3509
▁blasts	-3510
▁commit	-3511
▁flight	-3512
▁convert	-3513
▁require	-3514
▁results	-3515
▁shoulder	-3516
▁Lascelles	-3517
▁September	-3518
▁including	-3519
eba	-3520
▁Et	-3521
▁Jul	-3522
acked	-3523
▁Hins	-3524
▁Lock	-3525
▁Luke	-3526
▁Mean	-3527
▁shape	-3528
helwood	-3529
▁Baleba	-3530
▁Etihad	-3531
▁always	-3532
▁retain	-3533
▁rivals	-3534
▁Rodrigo	-3535
▁current	-3536
▁shortly	-3537
▁whipped	-3538
▁fantastic	-3539
▁Hinshelwood	-3540
eve	-3541
hen	-3542
▁Gr	-3543
ried	-3544
sequ	-3545
▁boo	-3546
▁exp	-3547
▁spr	-3548
▁Fati	-3549
▁unle	-3550
▁leads	-3551
▁knocks	-3552
▁Lockyer	-3553
▁closing	-3554
▁connect	-3555
▁respect	-3556
▁subsequ	-3557
ltimately	-3558
▁Meanwhile	-3559
ars	-3560
ten	-3561
uss	-3562
▁May	-3563
▁don	-3564
chman	-3565
forts	-3566
sided	-3567
ugust	-3568
▁STAR	-3569
▁boss	-3570
▁disc	-3571
urious	-3572
vement	-3573
▁ruled	-3574
▁Argent	-3575
▁favour	-3576
▁worked	-3577
▁Dominic	-3578
▁hitting	-3579
▁deserved	-3580
LLLLLLLLLLLLLLLL	-3581
jd	-3582
za	-3583
bic	-3584
ded	-3585
ety	-3586
ngs	-3587
▁Ig	-3588
▁Ra	-3589
test	-3590
▁Roy	-3591
▁awk	-3592
alajd	-3593
erial	-3594
▁Ings	-3595
▁Osho	-3596
▁none	-3597
▁Grbic	-3598
▁Lucas	-3599
▁chase	-3600
▁spots	-3601
▁August	-3602
▁Kalajd	-3603
▁safety	-3604
▁awkward	-3605
▁efforts	-3606
▁furious	-3607
▁pulling	-3608
▁attention	-3609
▁introduced	-3610
ci	-3611
kipp	-3612
uans	-3613
▁ref	-3614
▁tap	-3615
match	-3616
▁wasn	-3617
uansah	-3618
▁Skipp	-3619
▁often	-3620
▁absent	-3621
▁encour	-3622
▁Referee	-3623
▁Richards	-3624
▁interven	-3625
▁Kalajdzic	-3626
▁occasions	-3627
▁ultimately	-3628
▁interception	-3629
co	-3630
lim	-3631
ular	-3632
▁Jay	-3633
rabat	-3634
▁2020	-3635
▁Igor	-3636
▁knee	-3637
itious	-3638
▁sidel	-3639
▁Europe	-3640
▁aerial	-3641
▁surges	-3642
▁protest	-3643
▁reaches	-3644
▁STARTING	-3645
▁clinical	-3646
▁creating	-3647
▁promising	-3648
▁challenges	-3649
RO	-3650
dos	-3651
▁Wed	-3652
▁You	-3653
▁lif	-3654
unday	-3655
▁GOOO	-3656
▁Ghod	-3657
▁Josh	-3658
▁happ	-3659
▁less	-3660
▁room	-3661
▁rout	-3662
▁tees	-3663
nesday	-3664
▁Phill	-3665
▁Souza	-3666
▁Sunday	-3667
▁decent	-3668
▁forces	-3669
▁number	-3670
▁Amrabat	-3671
▁Ghoddos	-3672
▁concede	-3673
▁pressing	-3674
▁Wednesday	-3675
▁alongside	-3676
▁ambitious	-3677
▁BA	-3678
irst	-3679
part	-3680
▁4-0	-3681
▁ank	-3682
▁iss	-3683
▁Rowe	-3684
AAALLL	-3685
italis	-3686
▁works	-3687
▁Marcus	-3688
▁Osborn	-3689
▁course	-3690
▁forcing	-3691
▁patient	-3692
▁Phillips	-3693
▁victories	-3694
ave	-3695
cape	-3696
four	-3697
nded	-3698
▁Mav	-3699
panos	-3700
stant	-3701
▁Diop	-3702
▁LEAD	-3703
▁nerv	-3704
▁trip	-3705
▁Nunes	-3706
▁kicks	-3707
▁resum	-3708
▁years	-3709
▁escape	-3710
▁nowhere	-3711
▁encourag	-3712
IT	-3713
AIN	-3714
▁AG	-3715
▁el	-3716
lled	-3717
pens	-3718
pper	-3719
tega	-3720
▁Web	-3721
▁err	-3722
▁lim	-3723
▁sum	-3724
▁tru	-3725
▁Mang	-3726
▁fast	-3727
▁grow	-3728
▁poke	-3729
volley	-3730
▁Mavro	-3731
▁Mount	-3732
▁stops	-3733
▁wants	-3734
▁GOALLL	-3735
▁Ortega	-3736
▁lively	-3737
▁lofted	-3738
▁needed	-3739
▁pulled	-3740
amsgaard	-3741
▁Mangala	-3742
▁Webster	-3743
▁concern	-3744
▁Anderson	-3745
▁Mavropanos	-3746
hip	-3747
▁Vie	-3748
▁esc	-3749
▁par	-3750
arely	-3751
▁(3-4	-3752
▁Badi	-3753
▁Paul	-3754
▁Port	-3755
▁empt	-3756
▁quar	-3757
ashile	-3758
through	-3759
vention	-3760
▁Vieira	-3761
▁tracks	-3762
▁Woodrow	-3763
▁signing	-3764
▁turning	-3765
▁promoted	-3766
▁superbly	-3767
▁Damsgaard	-3768
▁capitalis	-3769
▁Badiashile	-3770
gin	-3771
ugo	-3772
year	-3773
▁Len	-3774
▁Fren	-3775
▁Hugo	-3776
▁blow	-3777
▁Nicol	-3778
▁ankle	-3779
▁fight	-3780
▁month	-3781
▁spins	-3782
▁intent	-3783
▁nearly	-3784
▁scores	-3785
▁Baldock	-3786
▁Martial	-3787
▁attacks	-3788
▁crashes	-3789
▁squares	-3790
▁bouncing	-3791
▁penalised	-3792
▁threatening	-3793
hys	-3794
ons	-3795
▁Om	-3796
glet	-3797
iego	-3798
▁Hen	-3799
▁Mou	-3800
ffect	-3801
ishes	-3802
venth	-3803
▁hasn	-3804
string	-3805
▁AGAIN	-3806
▁Diego	-3807
▁Moussa	-3808
▁happen	-3809
▁helped	-3810
▁Lenglet	-3811
▁Nicolas	-3812
▁display	-3813
▁exchang	-3814
▁suspens	-3815
▁breaking	-3816
▁narrowly	-3817
▁youngster	-3818
yn	-3819
ush	-3820
▁Alb	-3821
▁Har	-3822
gress	-3823
▁Mark	-3824
▁Nuno	-3825
▁call	-3826
▁prob	-3827
▁barely	-3828
▁fizzes	-3829
▁inches	-3830
▁kindly	-3831
▁GOOOOOO	-3832
▁seventh	-3833
▁offloads	-3834
▁hamstring	-3835
▁remaining	-3836
▁intervention	-3837
4.	-3838
ific	-3839
lain	-3840
▁5-0	-3841
▁pin	-3842
arily	-3843
▁body	-3844
▁surv	-3845
asting	-3846
inting	-3847
▁escap	-3848
▁anyway	-3849
▁pocket	-3850
▁dropped	-3851
▁complain	-3852
▁currently	-3853
▁disappointed	-3854
jor	-3855
▁Ty	-3856
view	-3857
▁Kou	-3858
▁dem	-3859
▁rif	-3860
coche	-3861
▁Sean	-3862
▁major	-3863
▁means	-3864
▁mount	-3865
▁shift	-3866
▁waves	-3867
▁Mohamed	-3868
▁clipped	-3869
▁leaders	-3870
▁ricoche	-3871
▁Vitality	-3872
▁concedes	-3873
▁suspension	-3874
ari	-3875
▁23	-3876
▁90	-3877
▁gr	-3878
▁ta	-3879
ller	-3880
tain	-3881
▁Vir	-3882
▁ang	-3883
▁bel	-3884
ption	-3885
▁Mont	-3886
▁Phil	-3887
▁Slim	-3888
▁Yarm	-3889
▁fash	-3890
▁gave	-3891
▁loan	-3892
▁situ	-3893
▁empty	-3894
▁scuff	-3895
▁spark	-3896
▁watch	-3897
▁square	-3898
▁Bentley	-3899
▁Montiel	-3900
▁Slimane	-3901
▁minimum	-3902
▁finished	-3903
▁slotting	-3904
yo	-3905
cis	-3906
jan	-3907
▁IS	-3908
gian	-3909
ioyo	-3910
▁Wor	-3911
resor	-3912
▁aver	-3913
▁leve	-3914
▁While	-3915
▁exact	-3916
▁punch	-3917
▁trips	-3918
▁weeks	-3919
▁Adarab	-3920
▁Tresor	-3921
▁incred	-3922
▁longer	-3923
▁simply	-3924
▁BLOCKED	-3925
▁charges	-3926
▁fashion	-3927
▁thought	-3928
▁dribbles	-3929
▁launches	-3930
▁maintain	-3931
▁initially	-3932
▁Adarabioyo	-3933
▁GOOOAAALLL	-3934
ann	-3935
fie	-3936
unku	-3937
▁0-1	-3938
▁nud	-3939
▁ten	-3940
onali	-3941
urier	-3942
▁fres	-3943
▁land	-3944
▁life	-3945
▁link	-3946
▁swap	-3947
ancing	-3948
▁Alfie	-3949
▁First	-3950
▁Henry	-3951
▁cards	-3952
▁cause	-3953
▁delic	-3954
▁shout	-3955
allowed	-3956
▁Aurier	-3957
▁Nkunku	-3958
▁Thiago	-3959
▁Tonali	-3960
▁become	-3961
▁diving	-3962
▁evades	-3963
▁punish	-3964
▁review	-3965
▁corners	-3966
▁meaning	-3967
▁routine	-3968
▁Christian	-3969
zo	-3970
ict	-3971
lly	-3972
omb	-3973
ret	-3974
urg	-3975
vey	-3976
▁Ib	-3977
▁du	-3978
ises	-3979
kong	-3980
yate	-3981
▁10-	-3982
▁Fof	-3983
▁led	-3984
konga	-3985
rahim	-3986
▁Brew	-3987
▁Luis	-3988
▁cush	-3989
▁Marco	-3990
▁South	-3991
▁chips	-3992
▁clock	-3993
▁leave	-3994
▁sight	-3995
▁Fofana	-3996
▁places	-3997
▁settle	-3998
▁Ibrahim	-3999
▁Kouyate	-4000
▁Lokonga	-4001
▁carries	-4002
▁longest	-4003
▁Brewster	-4004
▁arriving	-4005
▁backline	-4006
▁finishes	-4007
▁dominance	-4008
▁finishing	-4009
▁patiently	-4010
▁disallowed	-4011
oub	-4012
ric	-4013
▁Je	-4014
ceed	-4015
ciso	-4016
like	-4017
▁Del	-4018
▁cyn	-4019
▁key	-4020
▁sim	-4021
ickey	-4022
obbin	-4023
obody	-4024
oolly	-4025
▁2019	-4026
▁Serg	-4027
▁Unai	-4028
▁calm	-4029
▁leap	-4030
▁role	-4031
▁dealt	-4032
▁hooks	-4033
▁total	-4034
▁Dobbin	-4035
▁Enciso	-4036
▁Harvey	-4037
▁Hickey	-4038
▁called	-4039
▁William	-4040
▁outings	-4041
▁smashes	-4042
▁catching	-4043
▁opposite	-4044
▁delightful	-4045
▁Championship	-4046
pes	-4047
pur	-4048
uem	-4049
ums	-4050
▁pe	-4051
allo	-4052
▁MIS	-4053
▁(4-4	-4054
▁Call	-4055
▁Hots	-4056
▁nick	-4057
▁weak	-4058
▁wood	-4059
ustain	-4060
▁Danny	-4061
▁clums	-4062
▁outst	-4063
▁pleas	-4064
▁tough	-4065
▁Sergio	-4066
▁causes	-4067
▁Hotspur	-4068
▁whether	-4069
▁woodwork	-4070
▁positions	-4071
▁dominating	-4072
▁dispossessed	-4073
thm	-4074
arly	-4075
eyer	-4076
▁Per	-4077
▁rhy	-4078
hamad	-4079
ility	-4080
▁Beyer	-4081
▁Giles	-4082
▁named	-4083
▁tally	-4084
▁terri	-4085
▁Callum	-4086
▁bodies	-4087
▁checks	-4088
▁coolly	-4089
▁eighth	-4090
▁relief	-4091
▁rhythm	-4092
▁throws	-4093
▁overhit	-4094
▁quarter	-4095
▁stopped	-4096
▁European	-4097
▁incident	-4098
▁releases	-4099
▁potential	-4100
▁searching	-4101
▁stretches	-4102
▁alteration	-4103
▁disappointing	-4104
ba	-4105
bl	-4106
cl	-4107
cky	-4108
cro	-4109
▁If	-4110
ablo	-4111
athe	-4112
miti	-4113
nals	-4114
what	-4115
▁bla	-4116
▁pen	-4117
gging	-4118
▁Amex	-4119
▁LEVE	-4120
▁MAKE	-4121
▁bend	-4122
▁park	-4123
▁phys	-4124
▁recy	-4125
▁Pablo	-4126
▁quest	-4127
▁slots	-4128
▁Fornals	-4129
▁chasing	-4130
▁Chermiti	-4131
▁together	-4132
ws	-4133
ogo	-4134
the	-4135
▁22	-4136
▁50	-4137
chod	-4138
ifts	-4139
imos	-4140
raft	-4141
▁How	-4142
▁Vla	-4143
▁jum	-4144
▁pri	-4145
croix	-4146
▁Rams	-4147
▁prep	-4148
▁roof	-4149
▁shak	-4150
▁stun	-4151
▁Bobby	-4152
▁Diogo	-4153
▁drawn	-4154
▁thank	-4155
▁Schade	-4156
▁shifts	-4157
chodimos	-4158
▁Coleman	-4159
▁process	-4160
▁Delcroix	-4161
▁appeared	-4162
▁suffered	-4163
▁Vlachodimos	-4164
▁breakthrough	-4165
alo	-4166
▁IN	-4167
acar	-4168
dale	-4169
gain	-4170
gate	-4171
lyne	-4172
ndon	-4173
osha	-4174
vail	-4175
▁20-	-4176
▁Mik	-4177
▁Str	-4178
▁din	-4179
▁Boub	-4180
▁Jean	-4181
▁deem	-4182
▁drew	-4183
▁fier	-4184
▁leng	-4185
▁mind	-4186
ighted	-4187
pected	-4188
uesday	-4189
▁Clyne	-4190
▁Franc	-4191
▁boost	-4192
▁likes	-4193
▁nervy	-4194
▁swift	-4195
vincing	-4196
▁entire	-4197
▁reacts	-4198
▁punches	-4199
▁smother	-4200
▁sustain	-4201
▁Boubacar	-4202
▁Ramsdale	-4203
▁dominant	-4204
▁exchanges	-4205
▁succession	-4206
OT	-4207
▁'	-4208
TES	-4209
mun	-4210
▁AL	-4211
aser	-4212
ouci	-4213
▁Ass	-4214
▁Dak	-4215
▁Mep	-4216
▁sol	-4217
▁tas	-4218
three	-4219
▁Amad	-4220
▁arms	-4221
▁fell	-4222
▁star	-4223
▁uses	-4224
▁warm	-4225
akosha	-4226
rawing	-4227
ushing	-4228
▁LEVEL	-4229
▁gifts	-4230
winning	-4231
▁2023-2	-4232
▁Dakhil	-4233
▁Fraser	-4234
▁Mepham	-4235
▁asking	-4236
▁lashes	-4237
▁nicely	-4238
▁Larouci	-4239
▁Tuesday	-4240
▁numbers	-4241
▁pleased	-4242
▁serious	-4243
▁eventual	-4244
▁somewhat	-4245
▁Strakosha	-4246
▁ricochets	-4247
▁scrambling	-4248
▁involvement	-4249
ili	-4250
mus	-4251
▁21	-4252
▁PU	-4253
▁Sw	-4254
▁wo	-4255
cker	-4256
ding	-4257
llie	-4258
▁Ger	-4259
▁ext	-4260
▁lur	-4261
▁str	-4262
▁tun	-4263
atsen	-4264
ement	-4265
rafth	-4266
▁Hall	-4267
▁Issa	-4268
▁Some	-4269
▁grab	-4270
▁tuss	-4271
▁Great	-4272
▁Matip	-4273
▁Ollie	-4274
▁brace	-4275
▁error	-4276
drawing	-4277
▁Krafth	-4278
▁fierce	-4279
expected	-4280
▁Maatsen	-4281
▁skipper	-4282
▁drilling	-4283
▁collision	-4284
▁encounter	-4285
▁intercepted	-4286
1.	-4287
▁ok	-4288
UTES	-4289
akub	-4290
cent	-4291
▁Com	-4292
▁Sas	-4293
▁gift	-4294
hamada	-4295
pended	-4296
▁Conor	-4297
▁Jakub	-4298
▁hopes	-4299
▁fellow	-4300
▁nobody	-4301
▁powers	-4302
▁shirts	-4303
▁Ahamada	-4304
▁Roberts	-4305
▁Willock	-4306
▁GOOOOAAAA	-4307
▁everything	-4308
OP	-4309
rit	-4310
ases	-4311
ense	-4312
eret	-4313
▁Dah	-4314
▁Two	-4315
▁hur	-4316
▁say	-4317
anced	-4318
where	-4319
wists	-4320
▁Alej	-4321
▁Jose	-4322
▁Sasa	-4323
▁mass	-4324
▁prec	-4325
▁scoo	-4326
alance	-4327
ereton	-4328
▁Again	-4329
▁Berry	-4330
▁acres	-4331
▁broke	-4332
▁defic	-4333
▁energ	-4334
▁fired	-4335
▁joint	-4336
▁lucky	-4337
▁worse	-4338
▁Dahoud	-4339
▁nodded	-4340
▁rising	-4341
▁twists	-4342
▁GOALLLL	-4343
▁comment	-4344
▁proceed	-4345
▁threads	-4346
▁Brereton	-4347
▁equalise	-4348
▁needless	-4349
▁protests	-4350
▁surprise	-4351
▁suspended	-4352
▁subsequent	-4353
▁throughout	-4354
▁desperately	-4355
5.	-4356
ett	-4357
ico	-4358
ipe	-4359
five	-4360
mond	-4361
oder	-4362
▁AND	-4363
▁BAR	-4364
▁Ind	-4365
▁Mid	-4366
▁via	-4367
▁wal	-4368
amide	-4369
ative	-4370
loppy	-4371
▁MISS	-4372
▁STOP	-4373
▁okay	-4374
▁resc	-4375
▁stro	-4376
aniard	-4377
▁MAKES	-4378
▁Until	-4379
▁parry	-4380
amidele	-4381
▁Colomb	-4382
▁seemed	-4383
▁restore	-4384
▁tripped	-4385
▁Spaniard	-4386
▁combined	-4387
▁thumping	-4388
▁situation	-4389
par	-4390
zie	-4391
ibly	-4392
▁4-3	-4393
▁cha	-4394
▁div	-4395
▁ill	-4396
▁joy	-4397
▁dice	-4398
▁fizz	-4399
▁slip	-4400
atched	-4401
ritory	-4402
▁equal	-4403
▁incre	-4404
▁simil	-4405
▁tempo	-4406
wasting	-4407
▁German	-4408
▁stroke	-4409
▁gathers	-4410
▁attacker	-4411
▁dramatic	-4412
▁leveller	-4413
▁occasion	-4414
▁particul	-4415
▁reaching	-4416
▁indicated	-4417
▁seemingly	-4418
▁territory	-4419
adu	-4420
iuk	-4421
▁DO	-4422
▁HO	-4423
▁Iv	-4424
STIT	-4425
hour	-4426
ream	-4427
ryan	-4428
▁Not	-4429
▁Tav	-4430
▁mix	-4431
▁old	-4432
▁pal	-4433
lands	-4434
oliuk	-4435
▁Aust	-4436
▁case	-4437
▁doub	-4438
▁hero	-4439
▁know	-4440
▁seal	-4441
acking	-4442
▁Bryan	-4443
▁faith	-4444
▁Albion	-4445
▁dating	-4446
▁option	-4447
▁sloppy	-4448
STITUTES	-4449
▁Redmond	-4450
▁Tavares	-4451
▁appeals	-4452
▁darting	-4453
▁deficit	-4454
▁drilled	-4455
▁hopeful	-4456
▁improve	-4457
▁watches	-4458
▁continued	-4459
▁officials	-4460
▁SUBSTITUTES	-4461
4)	-4462
SI	-4463
ROM	-4464
cal	-4465
tty	-4466
uds	-4467
onny	-4468
than	-4469
▁100	-4470
▁Cam	-4471
▁ban	-4472
▁ins	-4473
ggest	-4474
uries	-4475
▁FROM	-4476
▁Mads	-4477
▁Part	-4478
▁Rico	-4479
▁fact	-4480
▁keen	-4481
▁slot	-4482
▁tang	-4483
▁text	-4484
▁upon	-4485
▁ways	-4486
arlton	-4487
around	-4488
bottom	-4489
ursday	-4490
▁Moder	-4491
▁alone	-4492
▁appla	-4493
▁fewer	-4494
▁fresh	-4495
▁heels	-4496
▁large	-4497
icester	-4498
velling	-4499
▁angles	-4500
▁divert	-4501
▁pretty	-4502
▁raised	-4503
▁spread	-4504
▁growing	-4505
▁lengthy	-4506
▁suggest	-4507
▁Thursday	-4508
▁dragging	-4509
▁whipping	-4510
▁Leicester	-4511
▁Yarmoliuk	-4512
▁sidelines	-4513
▁unleashes	-4514
▁continuing	-4515
▁offloading	-4516
▁potentially	-4517
▁substitutions	-4518
3.	-4519
AN	-4520
TS	-4521
des	-4522
que	-4523
umm	-4524
win	-4525
▁Be	-4526
akam	-4527
undo	-4528
▁Che	-4529
▁Dut	-4530
▁Fac	-4531
▁emb	-4532
antly	-4533
seven	-4534
urgen	-4535
▁1-0!	-4536
▁Radu	-4537
▁harm	-4538
▁wave	-4539
AAAAAA	-4540
akamba	-4541
itchie	-4542
▁earns	-4543
▁lofts	-4544
▁monit	-4545
▁route	-4546
▁swung	-4547
rushing	-4548
▁Jayden	-4549
▁Manuel	-4550
▁Morgan	-4551
▁dances	-4552
▁launch	-4553
▁loanee	-4554
▁slices	-4555
▁summit	-4556
▁Facundo	-4557
▁Nakamba	-4558
▁Ritchie	-4559
▁follows	-4560
▁staying	-4561
▁working	-4562
▁compared	-4563
▁progress	-4564
▁Frenchman	-4565
▁awkwardly	-4566
▁delivered	-4567
▁turnaround	-4568
▁proceedings	-4569
eka	-4570
ese	-4571
por	-4572
oice	-4573
pton	-4574
tect	-4575
▁4-2	-4576
arent	-4577
arton	-4578
▁Bern	-4579
▁Leon	-4580
▁dism	-4581
▁fanc	-4582
▁gold	-4583
▁sort	-4584
▁tact	-4585
alling	-4586
munity	-4587
uemeka	-4588
▁Chukw	-4589
▁Cress	-4590
▁Royal	-4591
▁Solom	-4592
▁allow	-4593
▁defin	-4594
▁faced	-4595
▁trigg	-4596
hampton	-4597
▁Indeed	-4598
▁Partey	-4599
▁afford	-4600
▁closer	-4601
▁confir	-4602
▁curled	-4603
▁depart	-4604
▁reward	-4605
▁tested	-4606
▁thumps	-4607
▁triple	-4608
▁Andreas	-4609
▁becomes	-4610
▁falling	-4611
▁monitor	-4612
▁protect	-4613
▁resumes	-4614
▁teasing	-4615
▁clearing	-4616
▁produced	-4617
▁recently	-4618
▁Cresswell	-4619
▁capitalise	-4620
▁commentary	-4621
▁complaints	-4622
▁intercepts	-4623
▁travelling	-4624
▁Chukwuemeka	-4625
▁outswinging	-4626
1)	-4627
2.	-4628
oz	-4629
ISE	-4630
sit	-4631
ult	-4632
▁(5	-4633
▁Er	-4634
▁SE	-4635
aker	-4636
ardo	-4637
inth	-4638
post	-4639
rees	-4640
ties	-4641
▁Dar	-4642
▁Fel	-4643
▁Jar	-4644
▁bad	-4645
▁ign	-4646
▁val	-4647
ignon	-4648
▁Gary	-4649
▁Lowe	-4650
▁haul	-4651
▁task	-4652
▁word	-4653
fortun	-4654
omfort	-4655
▁Kevin	-4656
▁Thank	-4657
▁belie	-4658
▁hesit	-4659
changed	-4660
▁Erling	-4661
▁Felipe	-4662
▁Franca	-4663
▁fairly	-4664
▁Solomon	-4665
▁Wharton	-4666
▁survive	-4667
▁trigger	-4668
▁wayward	-4669
▁Bernardo	-4670
▁assisted	-4671
▁managers	-4672
▁probably	-4673
▁Community	-4674
▁impressed	-4675
▁responded	-4676
▁approaching	-4677
sh	-4678
emy	-4679
ics	-4680
rod	-4681
▁24	-4682
▁Af	-4683
▁BI	-4684
goch	-4685
kayo	-4686
onna	-4687
ukwu	-4688
▁pay	-4689
▁use	-4690
istri	-4691
risto	-4692
under	-4693
▁(3-5	-4694
▁Ange	-4695
▁BACK	-4696
▁Jama	-4697
▁Kore	-4698
▁Omob	-4699
▁Pell	-4700
▁amid	-4701
▁blue	-4702
▁choo	-4703
-2-1):	-4704
▁Ethan	-4705
▁Olsen	-4706
▁Still	-4707
▁Ugoch	-4708
▁doubt	-4709
▁lunge	-4710
▁spect	-4711
▁trans	-4712
▁Bukayo	-4713
▁Chance	-4714
▁Jarrod	-4715
▁backhe	-4716
▁racing	-4717
▁scorer	-4718
▁visits	-4719
vailable	-4720
▁Belgian	-4721
▁average	-4722
▁bundles	-4723
▁knocked	-4724
▁provide	-4725
▁similar	-4726
▁Assignon	-4727
▁actually	-4728
▁footwork	-4729
▁Pellistri	-4730
▁Ugochukwu	-4731
▁penalties	-4732
▁harmlessly	-4733
▁registered	-4734
▁Omobamidele	-4735
bw	-4736
2),	-4737
fro	-4738
pid	-4739
six	-4740
▁Ba	-4741
clan	-4742
ffic	-4743
ming	-4744
rest	-4745
ruct	-4746
▁BIG	-4747
▁Kar	-4748
!!!!!	-4749
bwala	-4750
timed	-4751
▁Roth	-4752
▁feat	-4753
▁gain	-4754
▁halt	-4755
▁mess	-4756
▁ratt	-4757
▁reck	-4758
▁Fabio	-4759
▁Julio	-4760
▁issue	-4761
▁ninth	-4762
▁rapid	-4763
▁solid	-4764
▁think	-4765
▁waste	-4766
▁Amadou	-4767
▁Declan	-4768
▁Dendon	-4769
▁Thanks	-4770
▁denies	-4771
▁higher	-4772
▁midway	-4773
▁2023-24	-4774
▁Hecking	-4775
▁Ogbonna	-4776
▁Villans	-4777
▁begging	-4778
▁charged	-4779
▁cushion	-4780
▁doubled	-4781
▁leapfro	-4782
▁letting	-4783
▁lurking	-4784
▁Kambwala	-4785
▁Rothwell	-4786
▁trailing	-4787
▁Argentine	-4788
▁Dendoncker	-4789
▁GOOOOOAAAA	-4790
▁attempting	-4791
▁Heckingbottom	-4792
-9	-4793
6.	-4794
?!	-4795
GE	-4796
ARD	-4797
pec	-4798
tes	-4799
▁AN	-4800
▁Ze	-4801
anka	-4802
orts	-4803
osin	-4804
usin	-4805
▁Bay	-4806
▁Pau	-4807
▁Rog	-4808
▁ens	-4809
▁gra	-4810
▁unc	-4811
backs	-4812
▁Sant	-4813
▁cred	-4814
▁limp	-4815
▁pain	-4816
▁scra	-4817
▁sens	-4818
▁spec	-4819
inally	-4820
▁2021.	-4821
▁Munoz	-4822
▁Tosin	-4823
▁Zanka	-4824
▁coach	-4825
▁latch	-4826
▁prove	-4827
▁separ	-4828
▁signs	-4829
▁trium	-4830
▁Basham	-4831
▁Esteve	-4832
▁Rogers	-4833
▁deemed	-4834
▁effect	-4835
▁laying	-4836
▁losses	-4837
▁matter	-4838
▁shield	-4839
▁showed	-4840
▁tangle	-4841
▁floated	-4842
▁volleys	-4843
▁Santiago	-4844
▁division	-4845
▁produces	-4846
▁punished	-4847
▁striking	-4848
▁whistles	-4849
▁unchanged	-4850
0.	-4851
BI	-4852
mo	-4853
UAL	-4854
mos	-4855
rob	-4856
xel	-4857
mosp	-4858
uben	-4859
ugal	-4860
▁One	-4861
▁San	-4862
▁Tah	-4863
▁spo	-4864
ditch	-4865
itely	-4866
▁Axel	-4867
▁Cole	-4868
▁Hove	-4869
▁Sout	-4870
▁news	-4871
▁seek	-4872
▁wind	-4873
UALISE	-4874
▁Ruben	-4875
▁acrob	-4876
▁north	-4877
▁share	-4878
▁waits	-4879
▁Jurgen	-4880
▁Karius	-4881
▁Tahith	-4882
▁atmosp	-4883
▁caused	-4884
▁consol	-4885
▁teeing	-4886
▁tempor	-4887
▁tricky	-4888
pecially	-4889
▁compact	-4890
▁escapes	-4891
▁massive	-4892
▁secured	-4893
▁setting	-4894
▁spectac	-4895
▁thumped	-4896
▁winners	-4897
▁(3-5-2):	-4898
▁GOOOAAAA	-4899
▁Portugal	-4900
▁acrobatic	-4901
▁assistant	-4902
▁completed	-4903
▁recovered	-4904
▁sustained	-4905
▁(3-4-2-1):	-4906
▁atmosphere	-4907
▁controlled	-4908
▁Southampton	-4909
▁interesting	-4910
3),	-4911
ias	-4912
▁HU	-4913
▁ur	-4914
ager	-4915
eded	-4916
ewal	-4917
peri	-4918
raig	-4919
▁ARE	-4920
▁rel	-4921
▁uns	-4922
ornet	-4923
▁2024	-4924
▁Egan	-4925
▁Ivan	-4926
▁Math	-4927
change	-4928
christ	-4929
etting	-4930
▁Craig	-4931
▁Edson	-4932
▁Tomas	-4933
▁board	-4934
▁cheap	-4935
▁terms	-4936
▁Cornet	-4937
▁Julian	-4938
▁consid	-4939
▁hammer	-4940
▁intens	-4941
▁neatly	-4942
▁onside	-4943
▁slowly	-4944
▁partner	-4945
▁present	-4946
▁swiftly	-4947
▁thunder	-4948
▁blasting	-4949
▁delicate	-4950
▁directly	-4951
▁faithful	-4952
▁injuries	-4953
▁Gilchrist	-4954
▁cautioned	-4955
▁collected	-4956
▁entertain	-4957
▁onrushing	-4958
▁definitely	-4959
▁discomfort	-4960
▁especially	-4961
LA	-4962
ery	-4963
fin	-4964
hor	-4965
▁29	-4966
▁FI	-4967
▁Sh	-4968
eden	-4969
efan	-4970
form	-4971
guay	-4972
phon	-4973
▁Pep	-4974
▁Sim	-4975
▁Uru	-4976
eight	-4977
ewald	-4978
isive	-4979
▁Raul	-4980
▁Ried	-4981
▁shar	-4982
▁thri	-4983
▁whip	-4984
phonse	-4985
▁Mario	-4986
▁choos	-4987
▁hangs	-4988
▁joins	-4989
▁light	-4990
▁prior	-4991
▁stage	-4992
▁white	-4993
▁Stefan	-4994
▁blazes	-4995
▁contri	-4996
▁ending	-4997
▁rescue	-4998
▁thinks	-4999
▁unlike	-5000
▁Uruguay	-5001
▁closest	-5002
▁dragged	-5003
▁overlap	-5004
▁tackles	-5005
▁Alphonse	-5006
▁Midlands	-5007
▁levelled	-5008
▁reaction	-5009
▁reckless	-5010
▁required	-5011
▁returned	-5012
▁Riedewald	-5013
▁intensity	-5014
▁incredible	-5015
▁punishment	-5016
cy	-5017
gy	-5018
1).	-5019
avo	-5020
iny	-5021
loy	-5022
▁31	-5023
▁1-2	-5024
▁Cle	-5025
▁Cor	-5026
▁Gio	-5027
▁Hee	-5028
▁Kal	-5029
▁Wes	-5030
▁bid	-5031
▁ide	-5032
▁sal	-5033
▁ske	-5034
▁tor	-5035
▁wea	-5036
ading	-5037
ivity	-5038
▁Neal	-5039
▁Next	-5040
▁Scot	-5041
▁kill	-5042
▁thus	-5043
▁trud	-5044
▁Heung	-5045
▁Jonny	-5046
▁Moore	-5047
▁Willy	-5048
▁apply	-5049
▁arrow	-5050
▁closes	-5051
▁experi	-5052
▁penned	-5053
▁snatch	-5054
▁sweeps	-5055
▁tunnel	-5056
together	-5057
▁Gustavo	-5058
▁Leandro	-5059
▁Mathias	-5060
▁careful	-5061
▁cynical	-5062
▁decided	-5063
▁endured	-5064
▁bursting	-5065
▁checking	-5066
▁glancing	-5067
▁leapfrog	-5068
▁majority	-5069
▁matchday	-5070
▁overhits	-5071
▁terrible	-5072
▁visiting	-5073
▁overlapping	-5074
▁sensational	-5075
▁introduction	-5076
▁respectively	-5077
bd	-5078
ij	-5079
my	-5080
acy	-5081
ely	-5082
kha	-5083
lad	-5084
lex	-5085
pir	-5086
unt	-5087
etic	-5088
hley	-5089
ijah	-5090
mand	-5091
tech	-5092
turn	-5093
▁(19	-5094
▁Kai	-5095
▁adj	-5096
▁cir	-5097
▁job	-5098
▁wra	-5099
igure	-5100
stand	-5101
▁Bren	-5102
▁Giov	-5103
▁HUGE	-5104
▁sits	-5105
▁tips	-5106
forced	-5107
khailo	-5108
needed	-5109
▁Dejan	-5110
▁Gtech	-5111
▁Mason	-5112
▁Mikel	-5113
▁Simon	-5114
▁Three	-5115
netting	-5116
ristian	-5117
▁Almost	-5118
▁Ashley	-5119
▁Auston	-5120
▁Elijah	-5121
▁Kalvin	-5122
▁streng	-5123
▁stride	-5124
▁wouldn	-5125
▁Carlton	-5126
▁breathe	-5127
▁exactly	-5128
▁hanging	-5129
▁offered	-5130
▁pounces	-5131
▁upright	-5132
▁Mykhailo	-5133
▁backheel	-5134
▁brightly	-5135
▁unlikely	-5136
▁Alejandro	-5137
▁contribut	-5138
▁immediate	-5139
▁interested	-5140
▁intervenes	-5141
▁consolation	-5142
2)	-5143
9.	-5144
dr	-5145
HER	-5146
ICK	-5147
ama	-5148
▁Pl	-5149
▁Yo	-5150
BION	-5151
RIKE	-5152
eece	-5153
eron	-5154
ever	-5155
heem	-5156
inos	-5157
ired	-5158
itiz	-5159
wich	-5160
▁Day	-5161
▁Mub	-5162
▁beg	-5163
▁dam	-5164
aging	-5165
ierre	-5166
ounds	-5167
▁Cody	-5168
▁Drag	-5169
▁HOVE	-5170
▁clut	-5171
▁dest	-5172
▁inde	-5173
▁vers	-5174
▁Citiz	-5175
▁Pelly	-5176
▁Reece	-5177
▁Rodak	-5178
▁drama	-5179
▁dying	-5180
▁extra	-5181
▁lands	-5182
▁sorts	-5183
▁style	-5184
ference	-5185
▁ALBION	-5186
▁Alexis	-5187
▁Darwin	-5188
▁Mubama	-5189
▁Pierre	-5190
▁Raheem	-5191
▁STRIKE	-5192
▁career	-5193
▁figure	-5194
▁hardly	-5195
▁stayed	-5196
▁Cameron	-5197
▁Nations	-5198
▁Roberto	-5199
▁kicking	-5200
▁recycle	-5201
▁replays	-5202
▁surging	-5203
▁(4-4-2):	-5204
▁applause	-5205
▁breather	-5206
▁constant	-5207
▁flicking	-5208
▁knocking	-5209
▁squaring	-5210
▁unfortun	-5211
▁celebrate	-5212
▁stoppages	-5213
▁suffering	-5214
▁delivering	-5215
▁stretching	-5216
▁frustrating	-5217
▁particularly	-5218
▁GOOOOOOOOOOOO	-5219
Em	-5220
aye	-5221
edu	-5222
fit	-5223
ler	-5224
mas	-5225
nan	-5226
▁26	-5227
▁SO	-5228
ango	-5229
bing	-5230
down	-5231
iedo	-5232
iste	-5233
rica	-5234
ules	-5235
▁Ang	-5236
▁Mig	-5237
▁elb	-5238
Emile	-5239
arrad	-5240
ersey	-5241
ieran	-5242
ksand	-5243
lease	-5244
▁2-0!	-5245
▁2-1!	-5246
▁Andy	-5247
▁Anel	-5248
▁Bapt	-5249
▁Evan	-5250
▁LINE	-5251
▁Once	-5252
▁Play	-5253
▁Virg	-5254
▁When	-5255
▁Zeki	-5256
▁cool	-5257
▁dedu	-5258
▁dive	-5259
▁glor	-5260
▁rush	-5261
▁shad	-5262
iliano	-5263
uddock	-5264
▁Matty	-5265
▁Mauri	-5266
▁Youri	-5267
▁accur	-5268
▁frant	-5269
▁hover	-5270
▁sharp	-5271
▁spurn	-5272
▁staff	-5273
▁story	-5274
▁swing	-5275
iedozie	-5276
▁Africa	-5277
▁Brazil	-5278
▁Jarrad	-5279
▁Kieran	-5280
▁Miguel	-5281
▁aiming	-5282
▁height	-5283
▁ignore	-5284
▁Brennan	-5285
▁Dominik	-5286
▁chooses	-5287
▁dismiss	-5288
▁Baptiste	-5289
▁Chambers	-5290
▁Citizens	-5291
▁Cristian	-5292
▁Dragusin	-5293
▁Dutchman	-5294
▁Emiliano	-5295
▁Ibrahima	-5296
▁becoming	-5297
▁claiming	-5298
▁enforced	-5299
▁glorious	-5300
▁provided	-5301
▁requires	-5302
▁sideline	-5303
▁switched	-5304
▁weighted	-5305
▁Chiedozie	-5306
▁Colombian	-5307
▁temporarily	-5308
hr	-5309
ls	-5310
1),	-5311
ING	-5312
bed	-5313
cio	-5314
let	-5315
str	-5316
▁Dw	-5317
ased	-5318
bled	-5319
iple	-5320
▁25-	-5321
▁Abd	-5322
▁bay	-5323
▁gro	-5324
▁mus	-5325
▁scy	-5326
▁wip	-5327
ladim	-5328
udged	-5329
▁Enzo	-5330
▁Kurt	-5331
▁Noni	-5332
▁Ross	-5333
▁mult	-5334
▁spin	-5335
▁tell	-5336
▁your	-5337
oulaye	-5338
pieces	-5339
▁Angel	-5340
▁Bernd	-5341
▁Lukas	-5342
▁Rayan	-5343
▁moved	-5344
▁noise	-5345
▁numer	-5346
▁pause	-5347
▁snuff	-5348
▁truly	-5349
arkable	-5350
▁Andoni	-5351
▁Dwight	-5352
▁Justin	-5353
▁Korean	-5354
▁Moises	-5355
▁Nicolo	-5356
▁Virgil	-5357
▁Vladim	-5358
▁combin	-5359
▁golden	-5360
▁indeed	-5361
▁reflex	-5362
▁scream	-5363
▁spoils	-5364
▁tussle	-5365
▁wasted	-5366
▁Finally	-5367
▁Neither	-5368
▁absence	-5369
▁capital	-5370
▁content	-5371
▁frantic	-5372
▁infield	-5373
▁lacking	-5374
▁lifting	-5375
▁seasons	-5376
▁stadium	-5377
▁traffic	-5378
stantinos	-5379
▁Mauricio	-5380
▁Mohammed	-5381
▁entirely	-5382
▁managing	-5383
▁multiple	-5384
▁sweeping	-5385
▁throwing	-5386
▁trickles	-5387
▁Abdoulaye	-5388
▁switching	-5389
▁needlessly	-5390
▁respective	-5391
▁threatened	-5392
▁Konstantinos	-5393
▁celebrations	-5394
UST	-5395
asp	-5396
eco	-5397
ink	-5398
ipp	-5399
ugu	-5400
▁ty	-5401
eliz	-5402
gypt	-5403
iest	-5404
ippe	-5405
irou	-5406
othy	-5407
umul	-5408
▁0-2	-5409
▁5-1	-5410
▁GOA	-5411
▁McC	-5412
▁Ole	-5413
▁age	-5414
arted	-5415
ginia	-5416
gliel	-5417
ishly	-5418
▁Ezri	-5419
▁Neco	-5420
▁Pape	-5421
▁Well	-5422
▁door	-5423
▁marg	-5424
▁redu	-5425
▁salv	-5426
uguese	-5427
▁Egypt	-5428
▁Jason	-5429
▁Trent	-5430
▁Veliz	-5431
▁Yoane	-5432
▁brave	-5433
▁rules	-5434
▁steer	-5435
▁wrest	-5436
glielmo	-5437
retched	-5438
▁Angelo	-5439
▁Benson	-5440
▁Calvin	-5441
▁Diallo	-5442
▁Lukasz	-5443
▁clumsy	-5444
▁earned	-5445
▁shouts	-5446
▁wanted	-5447
▁Antonee	-5448
▁Michail	-5449
▁Timothy	-5450
▁accumul	-5451
▁balance	-5452
▁cannons	-5453
▁cleanly	-5454
▁release	-5455
▁strides	-5456
▁Virginia	-5457
▁Vladimir	-5458
▁apparent	-5459
▁destined	-5460
▁movement	-5461
▁Guglielmo	-5462
▁equalised	-5463
3)	-5464
3).	-5465
SON	-5466
oim	-5467
rul	-5468
▁Ek	-5469
▁SP	-5470
▁Ye	-5471
▁si	-5472
akig	-5473
alha	-5474
apha	-5475
arek	-5476
beit	-5477
ssef	-5478
used	-5479
▁Div	-5480
▁Han	-5481
▁Hol	-5482
▁Pas	-5483
▁Ser	-5484
▁bed	-5485
▁exc	-5486
▁fam	-5487
▁mag	-5488
▁mar	-5489
▁sat	-5490
▁sne	-5491
▁tie	-5492
arlie	-5493
aster	-5494
elled	-5495
fting	-5496
toine	-5497
urtis	-5498
▁Bart	-5499
▁Ital	-5500
▁JUST	-5501
▁Krul	-5502
▁Then	-5503
▁fill	-5504
▁spir	-5505
▁west	-5506
▁yard	-5507
akigbe	-5508
alhaes	-5509
ksandr	-5510
oimhin	-5511
▁Ekdal	-5512
▁Marek	-5513
▁Teden	-5514
▁Yehor	-5515
▁awful	-5516
▁clubs	-5517
▁dinks	-5518
▁elect	-5519
▁explo	-5520
▁fancy	-5521
▁sense	-5522
▁shock	-5523
▁steal	-5524
▁studs	-5525
fferson	-5526
rington	-5527
▁Curtis	-5528
▁Daniel	-5529
▁Mersey	-5530
▁Pascal	-5531
▁Sander	-5532
▁albeit	-5533
▁awards	-5534
▁chases	-5535
▁energy	-5536
▁lunges	-5537
▁steals	-5538
▁unself	-5539
▁worthy	-5540
▁Antoine	-5541
▁Charlie	-5542
▁Perhaps	-5543
▁Vincent	-5544
▁Youssef	-5545
▁briefly	-5546
▁commits	-5547
▁flagged	-5548
▁lashing	-5549
▁lunging	-5550
▁rushing	-5551
▁totally	-5552
▁triumph	-5553
▁Caoimhin	-5554
▁Olakigbe	-5555
▁clatters	-5556
▁clipping	-5557
▁downward	-5558
▁responds	-5559
▁tactical	-5560
▁volleyed	-5561
▁Argentina	-5562
▁Jefferson	-5563
▁Magalhaes	-5564
▁Oleksandr	-5565
▁confident	-5566
▁reception	-5567
▁Conference	-5568
▁Merseyside	-5569
▁Portuguese	-5570
▁encouraged	-5571
▁remarkable	-5572
▁entertaining	-5573
▁outstretched	-5574
0)	-5575
1,	-5576
3,	-5577
OW	-5578
oc	-5579
4),	-5580
uit	-5581
uth	-5582
zoh	-5583
▁DE	-5584
▁Ge	-5585
▁Na	-5586
▁SH	-5587
▁TH	-5588
Phil	-5589
SIDE	-5590
ican	-5591
lime	-5592
rall	-5593
▁Ras	-5594
▁awa	-5595
▁tal	-5596
▁war	-5597
achim	-5598
arell	-5599
erves	-5600
lucky	-5601
▁Dara	-5602
▁Dest	-5603
▁Dumm	-5604
▁Kyle	-5605
▁Ozoh	-5606
▁chip	-5607
▁diag	-5608
▁emph	-5609
▁prol	-5610
▁rate	-5611
▁skim	-5612
▁soil	-5613
▁stat	-5614
aphael	-5615
▁Reiss	-5616
▁cheer	-5617
▁flood	-5618
▁leaps	-5619
▁names	-5620
▁prods	-5621
▁smash	-5622
▁tried	-5623
▁Jamaal	-5624
▁Jarell	-5625
▁Matthe	-5626
▁Rasmus	-5627
▁Tyrick	-5628
▁Vitaly	-5629
▁ensure	-5630
▁facing	-5631
▁issues	-5632
▁lacked	-5633
▁rushed	-5634
▁scuffs	-5635
▁sounds	-5636
▁versus	-5637
Philippe	-5638
▁Destiny	-5639
▁Dummett	-5640
▁Joachim	-5641
▁Raphael	-5642
▁Worrall	-5643
▁battles	-5644
▁clatter	-5645
▁creates	-5646
▁glances	-5647
▁parried	-5648
▁produce	-5649
▁slipped	-5650
▁sublime	-5651
▁(3-4-3):	-5652
▁composed	-5653
▁diagonal	-5654
▁mountain	-5655
▁presence	-5656
▁question	-5657
▁slipping	-5658
▁spinning	-5659
▁struggle	-5660
▁stunning	-5661
▁troubles	-5662
▁Christmas	-5663
▁deduction	-5664
▁intervene	-5665
▁sidelined	-5666
▁Englishman	-5667
▁approaches	-5668
▁convincing	-5669
▁previously	-5670
▁outstanding	-5671
▁spectacular	-5672
▁subsequently	-5673
IA	-5674
ii	-5675
Sak	-5676
air	-5677
any	-5678
aru	-5679
chi	-5680
fic	-5681
▁Eb	-5682
ateo	-5683
ibal	-5684
loyd	-5685
pher	-5686
rect	-5687
roat	-5688
uley	-5689
▁(15	-5690
▁Idr	-5691
▁ONE	-5692
▁Ola	-5693
▁Rak	-5694
OTHER	-5695
Sakyi	-5696
alled	-5697
endar	-5698
janet	-5699
kicks	-5700
mouth	-5701
queez	-5702
sonne	-5703
▁2-2!	-5704
▁Anis	-5705
▁KICK	-5706
▁Naou	-5707
▁Vict	-5708
▁cree	-5709
▁emer	-5710
▁inad	-5711
▁laid	-5712
▁list	-5713
▁said	-5714
▁view	-5715
erechi	-5716
keeper	-5717
▁Billy	-5718
▁Cheik	-5719
▁Mateo	-5720
▁Santo	-5721
▁duels	-5722
▁limps	-5723
▁links	-5724
▁newly	-5725
▁plate	-5726
▁pluck	-5727
▁stood	-5728
▁trail	-5729
AAALLLL	-5730
▁Cauley	-5731
▁Divock	-5732
▁Kristo	-5733
▁Wataru	-5734
▁months	-5735
▁squeez	-5736
AAAAAAAA	-5737
▁ANOTHER	-5738
▁Clement	-5739
▁Holgate	-5740
▁Idrissa	-5741
▁Odsonne	-5742
▁Vitalii	-5743
▁belated	-5744
▁departs	-5745
▁derbies	-5746
▁earning	-5747
▁hammers	-5748
▁tighten	-5749
▁Eberechi	-5750
▁Naouirou	-5751
▁advances	-5752
▁calendar	-5753
▁clumsily	-5754
▁delaying	-5755
▁emphatic	-5756
▁extended	-5757
▁inadvert	-5758
▁pinpoint	-5759
▁received	-5760
▁strength	-5761
▁Nathaniel	-5762
▁direction	-5763
▁Kristoffer	-5764
▁recovering	-5765
▁unleashing	-5766
▁replacement	-5767
▁unfortunate	-5768
▁dispossesses	-5769
RA	-5770
OFF	-5771
car	-5772
cri	-5773
eds	-5774
egb	-5775
ger	-5776
hou	-5777
nor	-5778
run	-5779
▁40	-5780
▁SI	-5781
UBLE	-5782
aiwo	-5783
ayef	-5784
eful	-5785
eter	-5786
gged	-5787
icky	-5788
ints	-5789
ival	-5790
llia	-5791
oury	-5792
xing	-5793
▁0.1	-5794
▁3-3	-5795
▁Ari	-5796
▁Iro	-5797
▁Jer	-5798
▁dut	-5799
▁pie	-5800
▁sho	-5801
▁thw	-5802
▁tre	-5803
alked	-5804
asser	-5805
ffrey	-5806
indir	-5807
inger	-5808
irewa	-5809
maker	-5810
usion	-5811
utter	-5812
▁CARD	-5813
▁Malo	-5814
▁Over	-5815
▁PUTS	-5816
▁Yves	-5817
▁exce	-5818
▁heap	-5819
▁plus	-5820
▁risk	-5821
▁shap	-5822
▁2022.	-5823
▁Dango	-5824
▁Emile	-5825
▁Illia	-5826
▁Josko	-5827
▁Leeds	-5828
▁Nayef	-5829
▁Oscar	-5830
▁Saman	-5831
▁Taiwo	-5832
▁Tommy	-5833
▁World	-5834
▁guide	-5835
▁offer	-5836
▁scare	-5837
▁silen	-5838
▁south	-5839
▁world	-5840
▁2022-2	-5841
▁DOUBLE	-5842
▁Former	-5843
▁Iroegb	-5844
▁Jeremy	-5845
▁Though	-5846
▁Yasser	-5847
▁apiece	-5848
▁cancel	-5849
▁chests	-5850
▁damage	-5851
▁shakes	-5852
▁steers	-5853
▁tipped	-5854
▁urging	-5855
▁Chirewa	-5856
▁Jeffrey	-5857
▁OFFSIDE	-5858
▁chipped	-5859
▁dipping	-5860
▁spreads	-5861
▁stepped	-5862
▁Arijanet	-5863
▁Bayindir	-5864
▁Cheikhou	-5865
▁defeated	-5866
▁instruct	-5867
▁linesman	-5868
▁converted	-5869
▁indicates	-5870
UN	-5871
su	-5872
2).	-5873
Min	-5874
jax	-5875
rel	-5876
ros	-5877
tay	-5878
▁Go	-5879
▁Ir	-5880
▁Of	-5881
▁To	-5882
HEAD	-5883
cles	-5884
dden	-5885
elie	-5886
isic	-5887
osed	-5888
pass	-5889
rian	-5890
rift	-5891
roup	-5892
unam	-5893
▁Wal	-5894
▁Zar	-5895
▁cul	-5896
▁eng	-5897
▁fra	-5898
▁hor	-5899
▁inf	-5900
▁mil	-5901
▁thr	-5902
▁toe	-5903
cause	-5904
icked	-5905
▁Ajax	-5906
▁Ansu	-5907
▁Back	-5908
▁Dean	-5909
▁Jhon	-5910
▁cost	-5911
▁deck	-5912
▁deft	-5913
▁hurt	-5914
▁pers	-5915
▁teen	-5916
▁trap	-5917
-1-1):	-5918
OALLLL	-5919
coming	-5920
▁AHEAD	-5921
▁Altay	-5922
▁Kenny	-5923
▁Lloyd	-5924
▁Maxim	-5925
▁McCon	-5926
▁Milos	-5927
▁aside	-5928
▁aware	-5929
▁elbow	-5930
▁feels	-5931
▁stray	-5932
▁worry	-5933
forward	-5934
▁2020-2	-5935
▁Andros	-5936
▁Before	-5937
▁Marcos	-5938
▁adrift	-5939
▁credit	-5940
▁deeper	-5941
▁delays	-5942
▁poking	-5943
▁scoops	-5944
▁Perisic	-5945
▁Zaroury	-5946
▁because	-5947
▁crashed	-5948
▁parries	-5949
▁precise	-5950
▁scrappy	-5951
▁trudges	-5952
▁usually	-5953
▁walking	-5954
▁wanting	-5955
▁Matthews	-5956
▁afforded	-5957
▁blocking	-5958
▁forwards	-5959
▁physical	-5960
▁reigning	-5961
▁squander	-5962
▁stepping	-5963
▁strongly	-5964
▁transfer	-5965
▁assisting	-5966
▁clutching	-5967
▁concerned	-5968
▁questions	-5969
▁Iroegbunam	-5970
▁incredibly	-5971
▁successful	-5972
▁GOOOOOOOOOO	-5973
AK	-5974
EN	-5975
ES	-5976
UR	-5977
lls	-5978
wel	-5979
▁2.	-5980
▁Gh	-5981
ders	-5982
gest	-5983
hift	-5984
ioka	-5985
ivid	-5986
nine	-5987
orge	-5988
otic	-5989
▁0.3	-5990
▁Ian	-5991
▁Sub	-5992
▁agg	-5993
▁ann	-5994
▁gen	-5995
▁typ	-5996
belie	-5997
icner	-5998
obbie	-5999
▁1-1.	-6000
▁2016	-6001
▁Cork	-6002
▁Dier	-6003
▁Half	-6004
▁Hann	-6005
▁Hash	-6006
▁Levi	-6007
▁Lyle	-6008
▁Mike	-6009
▁PULL	-6010
▁Take	-6011
▁duel	-6012
▁pile	-6013
▁plan	-6014
▁purs	-6015
▁shut	-6016
▁soft	-6017
target	-6018
▁began	-6019
▁below	-6020
▁hauls	-6021
▁risks	-6022
▁skews	-6023
▁uncon	-6024
▁using	-6025
▁words	-6026
▁worth	-6027
UALISES	-6028
cleared	-6029
▁Andrew	-6030
▁Boxing	-6031
▁Connor	-6032
▁Elliot	-6033
▁Johann	-6034
▁Kobbie	-6035
▁LEVELS	-6036
▁Philip	-6037
▁Target	-6038
▁calmly	-6039
▁closed	-6040
▁expert	-6041
▁firmly	-6042
▁halted	-6043
▁joined	-6044
▁lifted	-6045
▁proper	-6046
▁relent	-6047
▁woeful	-6048
▁account	-6049
▁advance	-6050
▁arrived	-6051
▁avoided	-6052
▁chaotic	-6053
▁correct	-6054
▁limping	-6055
▁overall	-6056
▁product	-6057
▁proving	-6058
▁regular	-6059
▁sprints	-6060
▁Hannibal	-6061
▁Hashioka	-6062
▁entering	-6063
▁appealing	-6064
▁delighted	-6065
▁makeshift	-6066
▁playmaker	-6067
▁remainder	-6068
▁collecting	-6069
▁momentarily	-6070
▁encouragement	-6071
▁inadvertently	-6072
HAR	-6073
eat	-6074
onz	-6075
▁35	-6076
▁Gl	-6077
▁Ka	-6078
▁Uk	-6079
aded	-6080
alob	-6081
arsh	-6082
naut	-6083
▁0.5	-6084
▁196	-6085
▁Fri	-6086
▁Ony	-6087
▁Yet	-6088
▁bro	-6089
▁eye	-6090
▁fla	-6091
▁gri	-6092
▁ori	-6093
▁ton	-6094
▁tow	-6095
LLLLL	-6096
Toure	-6097
ervis	-6098
icing	-6099
otion	-6100
urely	-6101
▁Dane	-6102
▁Gonz	-6103
▁Tino	-6104
▁fing	-6105
▁ramp	-6106
▁sett	-6107
▁stum	-6108
▁trio	-6109
▁valu	-6110
-4-1):	-6111
Ricner	-6112
alobah	-6113
▁Ballo	-6114
▁Calum	-6115
▁Divin	-6116
▁Micky	-6117
▁Norwe	-6118
▁areas	-6119
▁hacks	-6120
▁lacks	-6121
▁stick	-6122
▁stuff	-6123
▁surge	-6124
▁whole	-6125
atively	-6126
▁Arnaut	-6127
▁French	-6128
▁Friday	-6129
▁George	-6130
▁Hannes	-6131
▁Maxwel	-6132
▁Pervis	-6133
▁adding	-6134
▁breath	-6135
▁climbs	-6136
▁embark	-6137
▁lineup	-6138
▁origin	-6139
▁packed	-6140
▁prefer	-6141
▁spells	-6142
▁spring	-6143
▁sudden	-6144
▁torrid	-6145
▁Forster	-6146
▁Giovani	-6147
▁Italian	-6148
▁Targett	-6149
▁chalked	-6150
▁fizzing	-6151
▁hosting	-6152
▁illness	-6153
▁instant	-6154
▁pursuit	-6155
▁rattled	-6156
▁tackled	-6157
▁testing	-6158
▁Chalobah	-6159
▁Scotland	-6160
▁accident	-6161
▁advanced	-6162
▁connects	-6163
▁crashing	-6164
▁defended	-6165
▁followed	-6166
▁overhead	-6167
▁recorded	-6168
▁signific	-6169
▁Uruguayan	-6170
▁backwards	-6171
▁cynically	-6172
▁preparing	-6173
▁(4-4-1-1):	-6174
▁Maximilian	-6175
▁Thankfully	-6176
▁controvers	-6177
▁goalkeeping	-6178
▁improvement	-6179
▁unconvincing	-6180
kel	-6181
usy	-6182
▁60	-6183
▁ve	-6184
akes	-6185
ariq	-6186
heet	-6187
high	-6188
hiro	-6189
hrer	-6190
ient	-6191
lose	-6192
neny	-6193
▁Mah	-6194
▁NET	-6195
▁RED	-6196
▁Sof	-6197
▁foc	-6198
▁gre	-6199
▁jin	-6200
▁mem	-6201
▁sky	-6202
asner	-6203
enced	-6204
final	-6205
foots	-6206
inian	-6207
mando	-6208
onday	-6209
third	-6210
▁Noth	-6211
▁Remi	-6212
▁SHOU	-6213
▁Ukra	-6214
▁disp	-6215
▁mara	-6216
▁sigh	-6217
▁tuck	-6218
heless	-6219
season	-6220
▁Amari	-6221
▁Close	-6222
▁Steve	-6223
▁Tariq	-6224
▁Trees	-6225
▁carve	-6226
▁gener	-6227
▁nudge	-6228
▁occup	-6229
▁palms	-6230
▁poked	-6231
▁reads	-6232
▁shore	-6233
▁sneak	-6234
▁sting	-6235
▁sweet	-6236
▁thigh	-6237
▁timed	-6238
ability	-6239
▁Elneny	-6240
▁Kehrer	-6241
▁Monday	-6242
▁Sofyan	-6243
▁Surely	-6244
▁Tricky	-6245
▁assess	-6246
▁avoids	-6247
▁felled	-6248
▁glance	-6249
▁guides	-6250
▁pounce	-6251
▁weaves	-6252
▁Armando	-6253
▁Glasner	-6254
▁Nothing	-6255
▁believe	-6256
▁bundled	-6257
▁claimed	-6258
▁company	-6259
▁counted	-6260
▁covered	-6261
▁heavily	-6262
▁needing	-6263
▁rifling	-6264
▁slotted	-6265
▁tonight	-6266
▁travels	-6267
▁Takehiro	-6268
▁exchange	-6269
▁resolute	-6270
▁suggests	-6271
▁valuable	-6272
▁thrilling	-6273
▁completing	-6274
▁scoresheet	-6275
▁GOOOOOOOAAAA	-6276
gs	-6277
rd	-6278
-20	-6279
Dav	-6280
aut	-6281
yna	-6282
▁ov	-6283
airo	-6284
arre	-6285
chan	-6286
ract	-6287
shot	-6288
urry	-6289
wise	-6290
wson	-6291
▁0.0	-6292
▁Out	-6293
▁Par	-6294
▁cho	-6295
▁cup	-6296
▁mer	-6297
▁pan	-6298
▁pur	-6299
clear	-6300
istic	-6301
lying	-6302
ostas	-6303
ushes	-6304
▁Down	-6305
▁Emil	-6306
▁Orel	-6307
▁Unal	-6308
▁adds	-6309
▁busy	-6310
▁else	-6311
▁flat	-6312
Davies	-6313
▁Could	-6314
▁Fleck	-6315
▁Jairo	-6316
▁Reyna	-6317
▁Short	-6318
▁asked	-6319
▁beaut	-6320
▁chaos	-6321
▁death	-6322
▁diver	-6323
▁knows	-6324
▁peels	-6325
▁shake	-6326
▁thump	-6327
asingly	-6328
▁Kostas	-6329
▁Pawson	-6330
▁Victor	-6331
▁circle	-6332
▁culmin	-6333
▁forget	-6334
▁gotten	-6335
▁outmus	-6336
▁proved	-6337
▁series	-6338
▁speeds	-6339
▁Tomkins	-6340
▁aggress	-6341
▁evening	-6342
▁feeding	-6343
▁landing	-6344
▁nodding	-6345
▁ovation	-6346
▁signals	-6347
▁special	-6348
▁warning	-6349
▁adjudged	-6350
▁anywhere	-6351
▁electric	-6352
▁offering	-6353
▁powering	-6354
▁relieved	-6355
▁restored	-6356
▁survival	-6357
▁Jorgensen	-6358
▁available	-6359
▁demanding	-6360
▁exception	-6361
▁preferred	-6362
▁troubling	-6363
▁underside	-6364
▁Norrington	-6365
▁constantly	-6366
▁competitive	-6367
▁considering	-6368
▁excellently	-6369
▁experienced	-6370
▁increasingly	-6371
▁instructions	-6372
6)	-6373
KA	-6374
LY	-6375
gr	-6376
ze	-6377
4).	-6378
OOD	-6379
RON	-6380
VEN	-6381
chn	-6382
hit	-6383
ilt	-6384
▁39	-6385
▁Rh	-6386
▁ap	-6387
▁ob	-6388
cend	-6389
elsh	-6390
entr	-6391
erve	-6392
iber	-6393
ites	-6394
moud	-6395
▁(10	-6396
▁(20	-6397
▁6-0	-6398
▁Don	-6399
▁Wow	-6400
▁aff	-6401
▁aud	-6402
▁ble	-6403
▁boy	-6404
▁dep	-6405
▁sle	-6406
▁una	-6407
stead	-6408
▁2009	-6409
▁Five	-6410
▁Huge	-6411
▁Nick	-6412
▁Sven	-6413
▁Swed	-6414
▁Wide	-6415
▁aims	-6416
▁calf	-6417
▁cond	-6418
▁cope	-6419
▁duty	-6420
▁isol	-6421
▁jump	-6422
▁mish	-6423
▁sums	-6424
▁tick	-6425
▁woes	-6426
istent	-6427
itions	-6428
losing	-6429
ooking	-6430
▁2022,	-6431
▁Ghana	-6432
▁Rhian	-6433
▁Welsh	-6434
▁breat	-6435
▁grate	-6436
▁laces	-6437
▁memor	-6438
▁skims	-6439
▁spott	-6440
▁techn	-6441
▁ticks	-6442
ulation	-6443
▁2021-2	-6444
▁Fortun	-6445
▁affair	-6446
▁arrive	-6447
▁flurry	-6448
▁glides	-6449
▁kicked	-6450
▁orders	-6451
▁placed	-6452
▁repeat	-6453
▁rooted	-6454
▁select	-6455
▁shapes	-6456
▁sheets	-6457
▁wildly	-6458
▁Gonzalo	-6459
▁Instead	-6460
▁Leander	-6461
▁Mahmoud	-6462
▁Norwich	-6463
▁Shortly	-6464
▁Travers	-6465
▁changed	-6466
▁dealing	-6467
▁denying	-6468
▁deserve	-6469
▁directs	-6470
▁feeling	-6471
▁fouling	-6472
▁gifting	-6473
▁punched	-6474
▁seeking	-6475
▁building	-6476
▁deciding	-6477
▁improved	-6478
▁shifting	-6479
▁Norwegian	-6480
▁absentees	-6481
▁centrally	-6482
▁completes	-6483
▁hammering	-6484
▁releasing	-6485
▁beforehand	-6486
▁impression	-6487
▁relatively	-6488
▁controlling	-6489
▁dangerously	-6490
▁unavailable	-6491
▁frustrations	-6492
▁counterattack	-6493
5).	-6494
ACK	-6495
aps	-6496
vre	-6497
zed	-6498
▁AT	-6499
▁Mb	-6500
▁ON	-6501
▁Up	-6502
▁ir	-6503
▁je	-6504
body	-6505
ency	-6506
eren	-6507
hold	-6508
ider	-6509
izes	-6510
oses	-6511
othe	-6512
ours	-6513
tesy	-6514
▁0.4	-6515
▁195	-6516
▁Das	-6517
▁Lor	-6518
▁Tod	-6519
▁Val	-6520
▁bob	-6521
▁ine	-6522
▁max	-6523
▁pet	-6524
▁ran	-6525
▁sen	-6526
enoit	-6527
inary	-6528
onstr	-6529
place	-6530
pting	-6531
ument	-6532
▁1-0.	-6533
▁BALL	-6534
▁Berg	-6535
▁Brom	-6536
▁Into	-6537
▁Tier	-6538
▁Time	-6539
▁WOOD	-6540
▁agon	-6541
▁barg	-6542
▁comm	-6543
▁inex	-6544
▁load	-6545
▁pred	-6546
▁ruth	-6547
▁subs	-6548
▁unch	-6549
▁zips	-6550
acious	-6551
ishing	-6552
▁Benie	-6553
▁bears	-6554
▁class	-6555
▁contr	-6556
▁fells	-6557
▁focus	-6558
▁harsh	-6559
▁night	-6560
▁piece	-6561
▁slams	-6562
▁survi	-6563
▁swive	-6564
▁walks	-6565
▁weren	-6566
athered	-6567
balance	-6568
othered	-6569
▁Benoit	-6570
▁Forson	-6571
▁Mikkel	-6572
▁Norway	-6573
▁broken	-6574
▁halves	-6575
▁passed	-6576
▁proves	-6577
▁senior	-6578
▁Dasilva	-6579
▁Tierney	-6580
▁biggest	-6581
▁blasted	-6582
▁cheaply	-6583
▁fingert	-6584
▁fitness	-6585
▁largely	-6586
▁luckily	-6587
▁powered	-6588
▁prolong	-6589
▁retreat	-6590
▁shadows	-6591
▁silence	-6592
ALLLLLLLL	-6593
ification	-6594
▁changing	-6595
▁concentr	-6596
▁courtesy	-6597
▁cushions	-6598
▁decisive	-6599
▁latching	-6600
▁marching	-6601
▁pointing	-6602
▁readying	-6603
▁snatched	-6604
▁stranded	-6605
▁youngest	-6606
▁delicious	-6607
▁everybody	-6608
▁goalbound	-6609
▁stretched	-6610
▁volleying	-6611
▁Fortunately	-6612
▁combination	-6613
▁defensively	-6614
▁midfielders	-6615
▁unselfishly	-6616
▁GOOOOAAAALLL	-6617
▁involvements	-6618
▁qualification	-6619
10	-6620
2,	-6621
Ch	-6622
RD	-6623
WO	-6624
ej	-6625
6),	-6626
6).	-6627
BLE	-6628
URS	-6629
bri	-6630
een	-6631
oly	-6632
oru	-6633
yst	-6634
▁32	-6635
▁36	-6636
▁BE	-6637
▁Ex	-6638
▁GA	-6639
▁Pe	-6640
▁SU	-6641
▁Tw	-6642
aged	-6643
amus	-6644
apan	-6645
gasp	-6646
plic	-6647
▁0.9	-6648
▁Ced	-6649
▁Mej	-6650
▁bag	-6651
▁bol	-6652
▁flu	-6653
going	-6654
iliar	-6655
illed	-6656
iwome	-6657
olyuk	-6658
▁2014	-6659
▁3-0!	-6660
▁Arbl	-6661
▁Fode	-6662
▁Said	-6663
▁Save	-6664
▁bree	-6665
▁nest	-6666
▁palm	-6667
▁rain	-6668
▁rash	-6669
▁safe	-6670
▁slam	-6671
▁taps	-6672
▁tier	-6673
▁used	-6674
assing	-6675
erving	-6676
handed	-6677
izarre	-6678
lusion	-6679
regate	-6680
▁2020.	-6681
▁Adama	-6682
▁Japan	-6683
▁Kaoru	-6684
▁SPURS	-6685
▁Today	-6686
▁absor	-6687
▁apart	-6688
▁bends	-6689
▁benef	-6690
▁coast	-6691
▁deter	-6692
▁eager	-6693
▁jumps	-6694
▁miles	-6695
▁shaky	-6696
▁tails	-6697
▁thing	-6698
Ruddock	-6699
cessary	-6700
ingerly	-6701
▁Cedric	-6702
▁Mejbri	-6703
▁Seamus	-6704
▁anyone	-6705
▁gaping	-6706
▁nudged	-6707
▁physio	-6708
▁rifles	-6709
▁rolled	-6710
▁upping	-6711
▁wicked	-6712
▁Chiwome	-6713
▁bounced	-6714
▁checked	-6715
▁helping	-6716
▁maximum	-6717
▁pinball	-6718
▁reacted	-6719
▁rightly	-6720
▁Egyptian	-6721
▁battling	-6722
▁controls	-6723
▁demonstr	-6724
▁expertly	-6725
▁foothold	-6726
▁gingerly	-6727
▁overturn	-6728
▁prevents	-6729
▁properly	-6730
▁towering	-6731
▁troubled	-6732
▁Arblaster	-6733
▁aggregate	-6734
▁beginning	-6735
▁cancelled	-6736
▁confirmed	-6737
▁dismissal	-6738
▁expecting	-6739
▁goalmouth	-6740
▁scrambles	-6741
▁smothered	-6742
▁committing	-6743
▁deliveries	-6744
▁GOOOOOOAAAA	-6745
▁accidentally	-6746
▁GOOOOOOAAAAAA	-6747
AS	-6748
AY	-6749
td	-6750
GHT	-6751
NDS	-6752
agu	-6753
mal	-6754
▁34	-6755
▁Es	-6756
▁HE	-6757
▁Ju	-6758
▁na	-6759
RONT	-6760
adei	-6761
band	-6762
chie	-6763
ened	-6764
ivot	-6765
nell	-6766
olog	-6767
pose	-6768
whel	-6769
▁1.1	-6770
▁4-4	-6771
▁6-1	-6772
▁Lis	-6773
▁OWN	-6774
▁Rep	-6775
▁Utd	-6776
▁duo	-6777
▁hum	-6778
▁sel	-6779
anted	-6780
blank	-6781
icate	-6782
ining	-6783
iring	-6784
oring	-6785
▁2012	-6786
▁Gill	-6787
▁Kick	-6788
▁Luca	-6789
▁boos	-6790
▁clip	-6791
▁cute	-6792
▁heel	-6793
▁mood	-6794
▁teed	-6795
believ	-6796
velous	-6797
▁Black	-6798
▁Every	-6799
▁FRONT	-6800
▁Loris	-6801
▁Omari	-6802
▁SAVES	-6803
▁achie	-6804
▁balls	-6805
▁blown	-6806
▁deals	-6807
▁fully	-6808
▁grabs	-6809
▁ideas	-6810
▁raced	-6811
▁rooms	-6812
▁scamp	-6813
▁shove	-6814
▁swept	-6815
▁talis	-6816
▁track	-6817
▁twist	-6818
▁Adrian	-6819
▁Hooper	-6820
▁Soares	-6821
▁Things	-6822
▁Yellow	-6823
▁arrows	-6824
▁ascend	-6825
▁breach	-6826
▁cheers	-6827
▁conver	-6828
▁discip	-6829
▁fought	-6830
▁gifted	-6831
▁handed	-6832
▁nerves	-6833
▁paused	-6834
▁resili	-6835
▁resume	-6836
▁teases	-6837
▁throat	-6838
▁thrown	-6839
▁Captain	-6840
▁Casadei	-6841
▁Substit	-6842
▁Washing	-6843
▁ability	-6844
▁carried	-6845
▁exposed	-6846
▁handled	-6847
▁limited	-6848
▁marking	-6849
▁matched	-6850
▁matters	-6851
▁ongoing	-6852
▁salvage	-6853
▁slender	-6854
▁slowing	-6855
▁stunned	-6856
▁Lisandro	-6857
▁chipping	-6858
▁combines	-6859
▁creative	-6860
▁debutant	-6861
▁determin	-6862
▁incisive	-6863
▁inexplic	-6864
▁isolated	-6865
▁precious	-6866
▁separate	-6867
▁stopping	-6868
▁stronger	-6869
▁talisman	-6870
▁withdraw	-6871
▁Yarmolyuk	-6872
▁audacious	-6873
▁campaigns	-6874
▁colliding	-6875
▁energetic	-6876
▁extending	-6877
▁numerical	-6878
▁prolonged	-6879
▁recording	-6880
▁threatens	-6881
▁Washington	-6882
▁altogether	-6883
▁deflecting	-6884
▁relentless	-6885
▁supporting	-6886
▁challenging	-6887
▁registering	-6888
▁concentration	-6889
5,	-6890
ns	-6891
AKE	-6892
ito	-6893
nds	-6894
set	-6895
sto	-6896
▁(6	-6897
▁33	-6898
▁42	-6899
▁UP	-6900
▁gh	-6901
▁vo	-6902
aite	-6903
asty	-6904
edin	-6905
lers	-6906
uing	-6907
▁1-3	-6908
▁1.0	-6909
▁Oli	-6910
▁Who	-6911
▁dug	-6912
▁fum	-6913
▁non	-6914
▁spl	-6915
▁tum	-6916
▁und	-6917
agues	-6918
aitey	-6919
guing	-6920
ystem	-6921
▁HAVE	-6922
▁claw	-6923
▁fren	-6924
▁hack	-6925
▁imag	-6926
▁misc	-6927
▁neck	-6928
▁pays	-6929
▁prof	-6930
▁scyt	-6931
▁tens	-6932
atural	-6933
edinma	-6934
handon	-6935
pirito	-6936
riving	-6937
▁Adams	-6938
▁SHOUT	-6939
▁Thilo	-6940
▁books	-6941
▁disru	-6942
▁foray	-6943
▁ghost	-6944
▁groin	-6945
▁influ	-6946
▁leans	-6947
▁pivot	-6948
▁skill	-6949
▁spill	-6950
▁stuck	-6951
▁utter	-6952
▁voice	-6953
▁Making	-6954
▁amount	-6955
▁camped	-6956
▁driven	-6957
▁easier	-6958
▁flings	-6959
▁hacked	-6960
▁hooked	-6961
▁lashed	-6962
▁margin	-6963
▁mistim	-6964
▁nudges	-6965
▁replay	-6966
▁resist	-6967
▁rocket	-6968
▁shared	-6969
▁signed	-6970
▁system	-6971
▁timely	-6972
▁2019-20	-6973
▁2022-23	-6974
▁Germany	-6975
▁Shandon	-6976
▁armband	-6977
▁arrival	-6978
▁bizarre	-6979
▁bobbles	-6980
▁boosted	-6981
▁crossed	-6982
▁delayed	-6983
▁flowing	-6984
▁glanced	-6985
▁latched	-6986
▁lofting	-6987
▁nervous	-6988
▁overrun	-6989
▁passage	-6990
▁prepare	-6991
▁quicker	-6992
▁shepher	-6993
▁springs	-6994
▁spurned	-6995
▁touched	-6996
▁wasting	-6997
▁Colombia	-6998
▁Espirito	-6999
▁Welshman	-7000
▁accuracy	-7001
▁activity	-7002
▁confirms	-7003
▁contrast	-7004
▁ineffect	-7005
▁preserve	-7006
▁provider	-7007
▁rebounds	-7008
▁rewarded	-7009
▁securing	-7010
▁signings	-7011
▁stumbles	-7012
▁terrific	-7013
▁thinking	-7014
▁McConnell	-7015
▁Onyedinma	-7016
▁frustrate	-7017
▁introduce	-7018
▁stretcher	-7019
▁culminates	-7020
▁strugglers	-7021
▁thunderous	-7022
▁encouraging	-7023
▁significant	-7024
▁substituted	-7025
Bo	-7026
PE	-7027
Pa	-7028
SS	-7029
je	-7030
-19	-7031
cho	-7032
eas	-7033
irm	-7034
mar	-7035
tic	-7036
▁PS	-7037
LLOW	-7038
Paul	-7039
anda	-7040
hens	-7041
rigg	-7042
zing	-7043
▁(13	-7044
▁ALM	-7045
▁BUT	-7046
▁Big	-7047
▁Bri	-7048
▁Fai	-7049
▁HIT	-7050
▁Mal	-7051
▁Taw	-7052
▁arg	-7053
▁bas	-7054
▁fle	-7055
▁kit	-7056
▁tro	-7057
▁why	-7058
ached	-7059
ademy	-7060
irect	-7061
rieve	-7062
teran	-7063
▁2-0.	-7064
▁2-1.	-7065
▁2006	-7066
▁3-1!	-7067
▁GAME	-7068
▁Here	-7069
▁Hill	-7070
▁WITH	-7071
▁duly	-7072
▁exit	-7073
▁flow	-7074
▁loud	-7075
▁musc	-7076
▁pops	-7077
▁says	-7078
▁solo	-7079
▁wary	-7080
chance	-7081
ection	-7082
ential	-7083
erable	-7084
itting	-7085
struck	-7086
urpris	-7087
▁2023.	-7088
▁2024.	-7089
▁Alejo	-7090
▁Ameen	-7091
▁Jamie	-7092
▁Mings	-7093
▁Sambi	-7094
▁Serge	-7095
▁Wales	-7096
▁boots	-7097
▁dream	-7098
▁fluff	-7099
▁greet	-7100
▁limit	-7101
▁minor	-7102
▁noses	-7103
▁order	-7104
▁organ	-7105
▁petul	-7106
▁risky	-7107
▁slice	-7108
▁tests	-7109
▁upend	-7110
▁usual	-7111
▁value	-7112
▁wrigg	-7113
ALLLLLL	-7114
hearted	-7115
isingly	-7116
▁Cheick	-7117
▁Danger	-7118
▁Deivid	-7119
▁Donley	-7120
▁Faivre	-7121
▁Joseph	-7122
▁Madley	-7123
▁alterc	-7124
▁chased	-7125
▁choice	-7126
▁decide	-7127
▁extrem	-7128
▁maraud	-7129
▁outfit	-7130
▁wastes	-7131
etheless	-7132
▁Goodbye	-7133
▁Tawanda	-7134
▁assured	-7135
▁embarks	-7136
▁exploit	-7137
▁hurried	-7138
▁ignores	-7139
▁pounced	-7140
▁prodded	-7141
▁purpose	-7142
▁regroup	-7143
▁sailing	-7144
▁settled	-7145
▁talking	-7146
▁unlucky	-7147
▁veteran	-7148
▁Mitrovic	-7149
▁accurate	-7150
▁covering	-7151
▁dominate	-7152
▁familiar	-7153
▁flashing	-7154
▁fortunes	-7155
▁recovery	-7156
▁released	-7157
▁smashing	-7158
▁training	-7159
▁unbeliev	-7160
▁Marvelous	-7161
▁Ukrainian	-7162
▁appearing	-7163
▁attackers	-7164
▁clattered	-7165
▁effective	-7166
▁instantly	-7167
▁involving	-7168
▁memorable	-7169
▁producing	-7170
▁seriously	-7171
▁underwhel	-7172
▁GOOAAALLLL	-7173
▁creativity	-7174
▁deservedly	-7175
▁spiralling	-7176
▁accumulated	-7177
▁celebration	-7178
▁inexplicably	-7179
▁surprisingly	-7180
.2	-7181
zy	-7182
5),	-7183
9).	-7184
MER	-7185
PER	-7186
REE	-7187
SSI	-7188
bre	-7189
cei	-7190
noc	-7191
ugg	-7192
yes	-7193
▁65	-7194
▁Dj	-7195
▁Oh	-7196
AALA	-7197
Chan	-7198
HARP	-7199
aken	-7200
apse	-7201
best	-7202
cond	-7203
fire	-7204
gium	-7205
imal	-7206
lust	-7207
noon	-7208
olly	-7209
oned	-7210
rous	-7211
uemo	-7212
upts	-7213
ures	-7214
▁CON	-7215
▁Fre	-7216
▁Kie	-7217
▁STA	-7218
▁TWO	-7219
▁ple	-7220
▁unt	-7221
▁unw	-7222
▁vul	-7223
acken	-7224
aguay	-7225
arded	-7226
ature	-7227
flict	-7228
henom	-7229
light	-7230
ordje	-7231
overs	-7232
press	-7233
strom	-7234
▁(11)	-7235
▁(14)	-7236
▁(4-1	-7237
▁0-0.	-7238
▁Eric	-7239
▁Hold	-7240
▁SAKA	-7241
▁bite	-7242
▁cage	-7243
▁crun	-7244
▁dict	-7245
▁eyes	-7246
▁gear	-7247
▁grew	-7248
▁hobb	-7249
▁knew	-7250
▁lash	-7251
▁loop	-7252
▁nips	-7253
▁note	-7254
▁pack	-7255
▁pacy	-7256
▁pose	-7257
▁prop	-7258
▁self	-7259
▁shru	-7260
▁slid	-7261
▁snap	-7262
▁vent	-7263
!!!!!!	-7264
AALAND	-7265
fought	-7266
lustre	-7267
ristol	-7268
▁Baker	-7269
▁Irons	-7270
▁Matos	-7271
▁SHARP	-7272
▁Solly	-7273
▁Those	-7274
▁antic	-7275
▁begin	-7276
▁colle	-7277
▁edged	-7278
▁grand	-7279
▁hurry	-7280
▁innoc	-7281
▁minds	-7282
▁nicks	-7283
▁optim	-7284
▁patch	-7285
▁plant	-7286
▁stead	-7287
▁wings	-7288
Boaitey	-7289
ibility	-7290
▁Albert	-7291
▁Mbuemo	-7292
▁Sandro	-7293
▁erupts	-7294
▁hauled	-7295
▁hearts	-7296
▁hovers	-7297
▁hugely	-7298
▁inject	-7299
▁levels	-7300
▁lining	-7301
▁manner	-7302
▁medics	-7303
▁misery	-7304
▁mishit	-7305
▁offers	-7306
▁parity	-7307
▁patter	-7308
▁person	-7309
▁phenom	-7310
▁plants	-7311
▁slowed	-7312
▁unlock	-7313
▁vulner	-7314
piration	-7315
▁2020-21	-7316
▁Belgium	-7317
▁Bristol	-7318
▁Djordje	-7319
▁HAALAND	-7320
▁Kieffer	-7321
▁Ruddock	-7322
▁academy	-7323
▁aimless	-7324
▁bending	-7325
▁bolster	-7326
▁dancing	-7327
▁minimal	-7328
▁natural	-7329
▁retains	-7330
▁smashed	-7331
▁sweetly	-7332
▁tracked	-7333
▁tussles	-7334
▁watched	-7335
▁worried	-7336
▁Paraguay	-7337
▁doubling	-7338
▁fraction	-7339
▁gathered	-7340
▁hesitate	-7341
▁increase	-7342
▁original	-7343
▁overlaps	-7344
▁patience	-7345
▁redirect	-7346
▁stroking	-7347
▁suddenly	-7348
▁surround	-7349
▁swinging	-7350
▁watching	-7351
▁Bergstrom	-7352
▁belatedly	-7353
▁breathing	-7354
▁correctly	-7355
▁extremely	-7356
▁fightback	-7357
▁levelling	-7358
▁screaming	-7359
▁separates	-7360
▁threading	-7361
urprisingly	-7362
▁apparently	-7363
▁encounters	-7364
▁experience	-7365
▁grandstand	-7366
▁lacklustre	-7367
▁particular	-7368
▁phenomenal	-7369
▁resistance	-7370
▁situations	-7371
▁squandered	-7372
▁altercation	-7373
▁contributed	-7374
▁ineffective	-7375
▁performances	-7376
▁unbelievable	-7377
▁controversial	-7378
▁straightforward	-7379
-6	-7380
0,	-7381
jo	-7382
me	-7383
tr	-7384
CON	-7385
NEZ	-7386
col	-7387
ids	-7388
iff	-7389
ike	-7390
jal	-7391
lic	-7392
ptu	-7393
yss	-7394
▁43	-7395
▁GI	-7396
ALAH	-7397
IGHT	-7398
also	-7399
arac	-7400
book	-7401
ject	-7402
orde	-7403
rope	-7404
▁1.2	-7405
▁Ces	-7406
▁DIA	-7407
▁Due	-7408
▁Inc	-7409
▁Off	-7410
▁Rem	-7411
▁ask	-7412
▁dig	-7413
▁maz	-7414
▁nip	-7415
▁tug	-7416
again	-7417
class	-7418
ender	-7419
inson	-7420
lines	-7421
never	-7422
pples	-7423
usted	-7424
ution	-7425
▁1994	-7426
▁50-5	-7427
▁Birm	-7428
▁Hjal	-7429
▁Hunt	-7430
▁Timo	-7431
▁Zack	-7432
▁base	-7433
▁grip	-7434
▁inch	-7435
▁lock	-7436
▁magn	-7437
▁ring	-7438
▁rock	-7439
▁sequ	-7440
▁serv	-7441
▁slum	-7442
▁sole	-7443
▁stor	-7444
▁trad	-7445
▁unus	-7446
▁wear	-7447
ALLLLL	-7448
LLLLLL	-7449
idence	-7450
luding	-7451
soever	-7452
tended	-7453
ubborn	-7454
uccess	-7455
ventry	-7456
ysseas	-7457
▁2021,	-7458
▁Alger	-7459
▁Bayer	-7460
▁Dorde	-7461
▁Nouri	-7462
▁SALAH	-7463
▁Swede	-7464
▁Tyler	-7465
▁backs	-7466
▁black	-7467
▁blood	-7468
▁cagey	-7469
▁crash	-7470
▁deput	-7471
▁faces	-7472
▁grown	-7473
▁intri	-7474
▁opted	-7475
▁panic	-7476
▁sacri	-7477
▁scene	-7478
▁steam	-7479
▁threw	-7480
▁upset	-7481
▁waved	-7482
▁worst	-7483
▁youth	-7484
ulative	-7485
▁Carney	-7486
▁Macken	-7487
▁STANDS	-7488
▁Valent	-7489
▁claret	-7490
▁costly	-7491
▁descri	-7492
▁dugout	-7493
▁edging	-7494
▁errors	-7495
▁impose	-7496
▁normal	-7497
▁occupy	-7498
▁pegged	-7499
▁rarely	-7500
▁realis	-7501
▁reduce	-7502
▁regard	-7503
▁rifled	-7504
▁rounds	-7505
▁sealed	-7506
▁serves	-7507
▁sprint	-7508
▁thwart	-7509
allenged	-7510
▁Brandon	-7511
▁Further	-7512
▁Hjalmar	-7513
▁Unlucky	-7514
▁anticip	-7515
▁bearing	-7516
▁bravely	-7517
▁convers	-7518
▁deliber	-7519
▁diverts	-7520
▁escaped	-7521
▁flashed	-7522
▁fortune	-7523
▁handing	-7524
▁happier	-7525
▁notable	-7526
▁obvious	-7527
▁offence	-7528
▁outcome	-7529
▁periods	-7530
▁presses	-7531
▁rapidly	-7532
▁respons	-7533
▁scooped	-7534
▁serving	-7535
▁smartly	-7536
▁strolls	-7537
▁swivels	-7538
▁tapping	-7539
▁utterly	-7540
▁weaving	-7541
attacking	-7542
▁Coventry	-7543
▁Odysseas	-7544
▁drifting	-7545
▁escaping	-7546
▁exciting	-7547
▁happened	-7548
▁intended	-7549
▁numerous	-7550
▁pouncing	-7551
▁provides	-7552
▁ruthless	-7553
▁swerving	-7554
▁teenager	-7555
▁thwarted	-7556
▁touching	-7557
▁Mackenzie	-7558
▁afternoon	-7559
▁formation	-7560
▁happening	-7561
▁innocence	-7562
▁miserable	-7563
▁otherwise	-7564
▁selection	-7565
▁tightrope	-7566
▁typically	-7567
▁Birmingham	-7568
▁aggressive	-7569
▁conclusion	-7570
▁determined	-7571
▁intriguing	-7572
▁meaningful	-7573
▁perfection	-7574
▁protesting	-7575
▁vulnerable	-7576
▁whatsoever	-7577
▁agonisingly	-7578
▁complaining	-7579
▁inspiration	-7580
.5	-7581
IE	-7582
-16	-7583
ANG	-7584
Ken	-7585
RES	-7586
TRI	-7587
cul	-7588
cum	-7589
mon	-7590
ona	-7591
▁FO	-7592
▁RO	-7593
ANKE	-7594
ROSS	-7595
aint	-7596
ancy	-7597
anni	-7598
atri	-7599
dles	-7600
fect	-7601
icio	-7602
oyed	-7603
play	-7604
scor	-7605
▁0.2	-7606
▁150	-7607
▁16.	-7608
▁193	-7609
▁HAT	-7610
▁Pro	-7611
▁SOL	-7612
▁alm	-7613
▁fal	-7614
▁fed	-7615
▁fre	-7616
▁nan	-7617
▁nil	-7618
▁rat	-7619
▁yes	-7620
Kenna	-7621
TRICK	-7622
acing	-7623
eling	-7624
ening	-7625
ettin	-7626
ighty	-7627
taken	-7628
using	-7629
▁2002	-7630
▁2013	-7631
▁2015	-7632
▁Beek	-7633
▁Derb	-7634
▁Four	-7635
▁Kane	-7636
▁Much	-7637
▁THAT	-7638
▁blat	-7639
▁dumm	-7640
▁gest	-7641
▁paid	-7642
▁shin	-7643
▁soak	-7644
▁sold	-7645
▁tast	-7646
▁tend	-7647
▁unha	-7648
▁wrap	-7649
arring	-7650
atriot	-7651
choice	-7652
enalty	-7653
ipient	-7654
isions	-7655
▁2019.	-7656
▁Dutch	-7657
▁Goals	-7658
▁Hodge	-7659
▁Milan	-7660
▁North	-7661
▁SUPER	-7662
▁brink	-7663
▁dread	-7664
▁glove	-7665
▁grasp	-7666
▁jeers	-7667
▁jinks	-7668
▁lower	-7669
▁marks	-7670
▁mouth	-7671
▁nasty	-7672
▁piled	-7673
▁posts	-7674
▁slopp	-7675
▁spraw	-7676
▁thick	-7677
▁tired	-7678
outinho	-7679
▁ALMOST	-7680
▁Bettin	-7681
▁Gilles	-7682
▁Moment	-7683
▁Wander	-7684
▁amidst	-7685
▁belief	-7686
▁debuts	-7687
▁embarr	-7688
▁emerge	-7689
▁famous	-7690
▁handle	-7691
▁living	-7692
▁muscle	-7693
▁outlet	-7694
▁parent	-7695
▁plucks	-7696
▁poised	-7697
▁shoves	-7698
▁shrugs	-7699
▁sights	-7700
▁sneaks	-7701
▁spills	-7702
▁treble	-7703
▁weight	-7704
▁window	-7705
tracking	-7706
weighted	-7707
▁Benicio	-7708
▁Forward	-7709
▁Holding	-7710
▁McKenna	-7711
▁SOLANKE	-7712
▁Somehow	-7713
▁address	-7714
▁battled	-7715
▁breezes	-7716
▁coaches	-7717
▁command	-7718
▁consist	-7719
▁desired	-7720
▁dribble	-7721
▁greater	-7722
▁heroics	-7723
▁jumping	-7724
▁knowing	-7725
▁linking	-7726
▁pattern	-7727
▁pressed	-7728
▁reduced	-7729
▁reflect	-7730
▁setback	-7731
▁shipped	-7732
▁strings	-7733
▁warming	-7734
▁2023-24.	-7735
▁Ghanaian	-7736
▁almighty	-7737
▁argument	-7738
▁attacked	-7739
▁bookings	-7740
▁captains	-7741
▁charging	-7742
▁contests	-7743
▁converts	-7744
▁creeping	-7745
▁deadline	-7746
▁eventful	-7747
▁evidence	-7748
▁generate	-7749
▁included	-7750
▁magnific	-7751
▁muscular	-7752
▁openings	-7753
▁overruns	-7754
▁quarters	-7755
▁quickest	-7756
▁recalled	-7757
▁sequence	-7758
▁shepherd	-7759
▁smothers	-7760
▁stubborn	-7761
▁thriller	-7762
▁thunders	-7763
▁tripping	-7764
▁whenever	-7765
▁Wanderers	-7766
▁averaging	-7767
▁cushioned	-7768
▁dismissed	-7769
▁dribbling	-7770
▁hesitates	-7771
▁launching	-7772
▁marauding	-7773
▁pitchside	-7774
▁promotion	-7775
▁providing	-7776
▁recipient	-7777
▁replicate	-7778
▁slightest	-7779
▁standings	-7780
▁wrongfoot	-7781
▁(4-1-4-1):	-7782
▁Bettinelli	-7783
▁ascendancy	-7784
▁commanding	-7785
▁compatriot	-7786
▁converting	-7787
▁crossfield	-7788
▁fingertips	-7789
▁intentions	-7790
▁overturned	-7791
▁transition	-7792
▁GOOOOOALLLL	-7793
▁speculative	-7794
▁unchallenged	-7795
▁underwhelming	-7796
▁GOOOOOAAAAALLL	-7797
5)	-7798
9)	-7799
IC	-7800
mi	-7801
ys	-7802
Har	-7803
IME	-7804
INE	-7805
ORK	-7806
PPE	-7807
baf	-7808
gid	-7809
idy	-7810
ify	-7811
iki	-7812
iro	-7813
non	-7814
ogs	-7815
ume	-7816
▁CO	-7817
▁GE	-7818
WORK	-7819
away	-7820
blig	-7821
cled	-7822
dued	-7823
iced	-7824
illy	-7825
ilst	-7826
iven	-7827
mind	-7828
ouch	-7829
pers	-7830
rone	-7831
urun	-7832
uses	-7833
uted	-7834
▁(11	-7835
▁19-	-7836
▁192	-7837
▁Kav	-7838
▁Les	-7839
▁Net	-7840
▁PAL	-7841
▁Ste	-7842
▁Sud	-7843
▁Sup	-7844
▁bul	-7845
▁era	-7846
▁fan	-7847
▁hon	-7848
▁mod	-7849
▁nav	-7850
▁rue	-7851
▁ven	-7852
▁ver	-7853
PPEAL	-7854
anagh	-7855
cumst	-7856
denly	-7857
eline	-7858
ences	-7859
erley	-7860
first	-7861
iburg	-7862
iness	-7863
neath	-7864
orian	-7865
orted	-7866
start	-7867
table	-7868
▁2011	-7869
▁Card	-7870
▁Femi	-7871
▁Fred	-7872
▁Hung	-7873
▁Last	-7874
▁NINE	-7875
▁None	-7876
▁Obaf	-7877
▁Rhys	-7878
▁SENT	-7879
▁STUN	-7880
▁Soon	-7881
▁Stra	-7882
▁felt	-7883
▁fool	-7884
▁mazy	-7885
▁told	-7886
▁unne	-7887
▁upgr	-7888
▁walk	-7889
▁zero	-7890
Harris	-7891
finals	-7892
pleted	-7893
terday	-7894
topher	-7895
▁2023,	-7896
▁Anass	-7897
▁Derby	-7898
▁Early	-7899
▁Event	-7900
▁Inter	-7901
▁Peart	-7902
▁THREE	-7903
▁Under	-7904
▁chops	-7905
▁deems	-7906
▁drift	-7907
▁evade	-7908
▁exits	-7909
▁float	-7910
▁guess	-7911
▁horri	-7912
▁ideal	-7913
▁initi	-7914
▁magic	-7915
▁maybe	-7916
▁meant	-7917
▁oblig	-7918
▁parts	-7919
▁probe	-7920
▁reply	-7921
▁screw	-7922
▁sizes	-7923
▁slick	-7924
▁small	-7925
▁sniff	-7926
▁	-7927
e	-7928
t	-7929
a	-7930
o	-7931
i	-7932
n	-7933
s	-7934
r	-7935
h	-7936
l	-7937
d	-7938
f	-7939
c	-7940
u	-7941
g	-7942
m	-7943
w	-7944
b	-7945
p	-7946
y	-7947
k	-7948
.	-7949
,	-7950
v	-7951
-	-7952
T	-7953
A	-7954
L	-7955
S	-7956
'	-7957
B	-7958
E	-7959
!	-7960
H	-7961
C	-7962
M	-7963
O	-7964
P	-7965
N	-7966
W	-7967
R	-7968
D	-7969
F	-7970
x	-7971
G	-7972
I	-7973
1	-7974
j	-7975
V	-7976
z	-7977
U	-7978
2	-7979
0	-7980
J	-7981
K	-7982
3	-7983
q	-7984
;	-7985
(	-7986
)	-7987
:	-7988
4	-7989
5	-7990
Y	-7991
’	-7992
9	-7993
Z	-7994
?	-7995
6	-7996
