{
  "<unk>": 0,
  "<s>": 1,
  "</s>": 2,
  "\u2581t": 3,
  "he": 4,
  "\u2581a": 5,
  "in": 6,
  "\u2581the": 7,
  "er": 8,
  "\u2581b": 9,
  "re": 10,
  "on": 11,
  "\u2581f": 12,
  "\u2581s": 13,
  "\u2581c": 14,
  "\u2581w": 15,
  "is": 16,
  "\u2581h": 17,
  "es": 18,
  "it": 19,
  "\u2581to": 20,
  "nd": 21,
  "al": 22,
  "\u2581o": 23,
  "or": 24,
  "ing": 25,
  "\u2581in": 26,
  "le": 27,
  "ar": 28,
  "st": 29,
  "\u2581p": 30,
  "en": 31,
  "ut": 32,
  "ro": 33,
  "an": 34,
  "ed": 35,
  "\u2581g": 36,
  "\u2581d": 37,
  "\u2581and": 38,
  "\u2581of": 39,
  "at": 40,
  "\u2581m": 41,
  "ck": 42,
  "ll": 43,
  "\u2581l": 44,
  "\u2581T": 45,
  "\u2581on": 46,
  "am": 47,
  "as": 48,
  "ou": 49,
  "\u2581for": 50,
  "\u2581th": 51,
  "ot": 52,
  "\u2581B": 53,
  "ri": 54,
  "\u2581be": 55,
  "gh": 56,
  "id": 57,
  "ay": 58,
  "ow": 59,
  "\u2581S": 60,
  "\u2581A": 61,
  "ir": 62,
  "ve": 63,
  "et": 64,
  "om": 65,
  "ce": 66,
  "ver": 67,
  "\u2581C": 68,
  "\u2581is": 69,
  "\u2581H": 70,
  "\u2581L": 71,
  "\u2581M": 72,
  "\u2581his": 73,
  "ith": 74,
  "\u2581go": 75,
  "\u2581but": 76,
  "ly": 77,
  "ad": 78,
  "\u2581st": 79,
  "\u2581with": 80,
  "ak": 81,
  "\u2581n": 82,
  "ss": 83,
  "im": 84,
  "\u2581he": 85,
  "ack": 86,
  "ght": 87,
  "\u2581P": 88,
  "\u2581re": 89,
  "\u2581it": 90,
  "ore": 91,
  "rom": 92,
  "\u2581W": 93,
  "ag": 94,
  "\u2581at": 95,
  "ch": 96,
  "\u2581from": 97,
  "ur": 98,
  "\u2581e": 99,
  "ft": 100,
  "all": 101,
  "ide": 102,
  "\u2581The": 103,
  "oo": 104,
  "to": 105,
  "ard": 106,
  "el": 107,
  "\u2581ha": 108,
  "\u2581se": 109,
  "\u2581F": 110,
  "ion": 111,
  "\u2581le": 112,
  "\u2581D": 113,
  "\u2581u": 114,
  "\u2581G": 115,
  "\u2581wh": 116,
  "\u2581as": 117,
  "\u2581are": 118,
  "\u2581into": 119,
  "\u2581po": 120,
  "ill": 121,
  "\u2581goal": 122,
  "\u2581sh": 123,
  "ent": 124,
  "ast": 125,
  "ol": 126,
  "\u2581ball": 127,
  "\u2581their": 128,
  "ick": 129,
  "\u2581have": 130,
  "\u2581E": 131,
  "se": 132,
  "ue": 133,
  "\u2581de": 134,
  "\u2581an": 135,
  "ra": 136,
  "\u2581out": 137,
  "un": 138,
  "right": 139,
  "\u2581N": 140,
  "\u2581R": 141,
  "il": 142,
  "ain": 143,
  "ross": 144,
  "\u2581back": 145,
  "\u2581J": 146,
  "\u2581ch": 147,
  "ner": 148,
  "for": 149,
  "pp": 150,
  "ke": 151,
  "\u2581by": 152,
  "\u2581com": 153,
  "own": 154,
  "\u2581bo": 155,
  "\u2581get": 156,
  "ter": 157,
  "\u2581pl": 158,
  "ook": 159,
  "ge": 160,
  "\u2581gam": 161,
  "\u2581V": 162,
  "ct": 163,
  "her": 164,
  "\u2581Le": 165,
  "\u2581O": 166,
  "ust": 167,
  "ier": 168,
  "\u2581box": 169,
  "ague": 170,
  "\u2581off": 171,
  "\u2581fir": 172,
  "\u2581I": 173,
  "ward": 174,
  "\u2581K": 175,
  "\u25811": 176,
  "\u2581He": 177,
  "\u2581has": 178,
  "\u2581down": 179,
  "ind": 180,
  "\u2581who": 181,
  "ul": 182,
  "fore": 183,
  "alf": 184,
  "\u2581before": 185,
  "\u2581first": 186,
  "ves": 187,
  "ace": 188,
  "art": 189,
  "ree": 190,
  "way": 191,
  "\u2581up": 192,
  "ime": 193,
  "rou": 194,
  "ell": 195,
  "ic": 196,
  "lo": 197,
  "\u2581right": 198,
  "\u2581def": 199,
  "son": 200,
  "\u2581cross": 201,
  "fter": 202,
  "\u2581cor": 203,
  "\u2581mak": 204,
  "\u2581U": 205,
  "\u2581half": 206,
  "\u2581left": 207,
  "\u2581corner": 208,
  "\u2581this": 209,
  "em": 210,
  "\u2581j": 211,
  "che": 212,
  "\u2581ag": 213,
  "\u2581play": 214,
  "\u2581League": 215,
  "\u2581r": 216,
  "and": 217,
  "LL": 218,
  "ome": 219,
  "\u2581over": 220,
  "\u2581con": 221,
  "urn": 222,
  "ost": 223,
  "\u2581chan": 224,
  "\u2581look": 225,
  "\u2581again": 226,
  "our": 227,
  "rem": 228,
  "ive": 229,
  "ond": 230,
  "\u2581side": 231,
  "remier": 232,
  "\u2581Premier": 233,
  "side": 234,
  "\u2581they": 235,
  "\u2581win": 236,
  "od": 237,
  "nt": 238,
  "ight": 239,
  "\u2581after": 240,
  "ham": 241,
  "\u2581game": 242,
  "\u2581that": 243,
  "\u2581away": 244,
  "!!": 245,
  "\u25812": 246,
  "ess": 247,
  "ine": 248,
  "\u2581just": 249,
  "kick": 250,
  "est": 251,
  "iver": 252,
  "ep": 253,
  "\u2581shot": 254,
  "ew": 255,
  "qu": 256,
  "enal": 257,
  "nder": 258,
  "ley": 259,
  "iel": 260,
  "\u2581last": 261,
  "\u2581Un": 262,
  "ford": 263,
  "ab": 264,
  "\u2581v": 265,
  "us": 266,
  "ate": 267,
  "ited": 268,
  "\u2581will": 269,
  "ee": 270,
  "ield": 271,
  "\u2581United": 272,
  "\u2581sc": 273,
  "\u2581head": 274,
  "\u2581al": 275,
  "ts": 276,
  "\u2581time": 277,
  "\u2581sp": 278,
  "ity": 279,
  "\u2581ne": 280,
  "ff": 281,
  "\u2581tak": 282,
  "\u2581y": 283,
  "OO": 284,
  "ass": 285,
  "th": 286,
  "\u2581(": 287,
  "oul": 288,
  "\u2581cle": 289,
  "wo": 290,
  "ott": 291,
  "\u2581mid": 292,
  "\u2581sec": 293,
  "la": 294,
  "\u2581It": 295,
  "wards": 296,
  "\u2581pass": 297,
  "\u2581him": 298,
  "\u2581min": 299,
  "\u2581su": 300,
  "\u2581whi": 301,
  "\u2581att": 302,
  "ong": 303,
  "\u2581was": 304,
  "\u2581one": 305,
  "out": 306,
  "\u2581second": 307,
  "vert": 308,
  "\u2581minut": 309,
  "\u2581post": 310,
  "rough": 311,
  "\u2581against": 312,
  "ps": 313,
  "\u2581all": 314,
  "um": 315,
  "pt": 316,
  "\u2581through": 317,
  "ces": 318,
  "\u2581Ar": 319,
  "\u2581can": 320,
  "\u2581way": 321,
  "oot": 322,
  "\u2581gets": 323,
  "\u2581fl": 324,
  "ie": 325,
  "ure": 326,
  "-0": 327,
  "\u2581free": 328,
  "ers": 329,
  "\u2581Th": 330,
  "hind": 331,
  "ang": 332,
  "\u2581been": 333,
  "\u2581behind": 334,
  "\u2581two": 335,
  "row": 336,
  "\u2581minutes": 337,
  "\u2581start": 338,
  "\u2581pre": 339,
  "ark": 340,
  "fort": 341,
  "-1": 342,
  "\u2581stri": 343,
  "\u2581bre": 344,
  "\u2581te": 345,
  "are": 346,
  "ced": 347,
  "\u2581towards": 348,
  "ving": 349,
  "field": 350,
  "\u2581so": 351,
  "\u2581cont": 352,
  "\u2581inside": 353,
  "\u2581fin": 354,
  "keep": 355,
  "\u2581Pal": 356,
  "\u2581far": 357,
  "os": 358,
  "ould": 359,
  "\u2581Wol": 360,
  "\u2581defe": 361,
  "\u2581Wolves": 362,
  "\u2581run": 363,
  "\u2581now": 364,
  "oun": 365,
  "\u2581sl": 366,
  "ough": 367,
  "\u2581find": 368,
  "ant": 369,
  "\u2581more": 370,
  "ist": 371,
  "ob": 372,
  "\u2581three": 373,
  "\u2581break": 374,
  "\u2581City": 375,
  "hel": 376,
  "\u2581Vill": 377,
  "\u2581home": 378,
  "ool": 379,
  "ssess": 380,
  "\u2581Ham": 381,
  "\u2581clear": 382,
  "AA": 383,
  "\u2581goes": 384,
  "ven": 385,
  "\u2581not": 386,
  "VE": 387,
  "other": 388,
  "\u2581Villa": 389,
  "pool": 390,
  "ason": 391,
  "iverpool": 392,
  "ig": 393,
  "ix": 394,
  "\u2581Liverpool": 395,
  "\u2581make": 396,
  "ble": 397,
  "\u2581well": 398,
  "ry": 399,
  "\u2581wide": 400,
  "ches": 401,
  "\u2581only": 402,
  "\u2581Burn": 403,
  "ru": 404,
  "sea": 405,
  "\u2581qu": 406,
  "\u2581end": 407,
  "\u2581team": 408,
  "helsea": 409,
  "\u2581Chelsea": 410,
  "ite": 411,
  "\u2581man": 412,
  "\u2581area": 413,
  "\u2581makes": 414,
  "\u2581ef": 415,
  "\u2581season": 416,
  "back": 417,
  "reat": 418,
  "\u2581score": 419,
  "\u2581host": 420,
  "ssession": 421,
  "ting": 422,
  "\u2581possession": 423,
  "senal": 424,
  "ation": 425,
  "\u2581Arsenal": 426,
  "rent": 427,
  "\u2581whe": 428,
  "\u2581forward": 429,
  "\u2581New": 430,
  "verton": 431,
  "\u2581Everton": 432,
  "\u2581do": 433,
  "ty": 434,
  "cast": 435,
  "\u2581games": 436,
  "ort": 437,
  "\u2581effort": 438,
  "one": 439,
  "pen": 440,
  "ition": 441,
  "\u2581four": 442,
  "castle": 443,
  "\u2581Newcastle": 444,
  "\u2581rep": 445,
  "\u2581cl": 446,
  "uch": 447,
  "mer": 448,
  "ally": 449,
  "uton": 450,
  "\u2581Luton": 451,
  "\u2581top": 452,
  "\u2581under": 453,
  "ash": 454,
  "\u2581Ful": 455,
  "\u2581Burnley": 456,
  "\u2581Fulham": 457,
  "\u2581had": 458,
  "\u2581poin": 459,
  "\u2581comes": 460,
  "orest": 461,
  "led": 462,
  "\u2581Forest": 463,
  "rentford": 464,
  "\u2581Brentford": 465,
  "\u258120": 466,
  "\u2581midfield": 467,
  "\u2581ac": 468,
  "\u2581Bright": 469,
  "\u2581Brighton": 470,
  "ence": 471,
  "ling": 472,
  "\u2581penal": 473,
  "\u2581Jo": 474,
  "\u2581open": 475,
  "owe": 476,
  "\u2581Al": 477,
  "\u2581another": 478,
  "\u2581goals": 479,
  "\u2581pro": 480,
  "ki": 481,
  "\u2581looks": 482,
  "\u2581mat": 483,
  "iss": 484,
  "\u2581lead": 485,
  "\u2581bet": 486,
  "AL": 487,
  "ous": 488,
  "\u2581hosts": 489,
  "age": 490,
  "\u2581sa": 491,
  "\u2581del": 492,
  "fer": 493,
  "lock": 494,
  "outh": 495,
  "\u2581West": 496,
  "\u2581Di": 497,
  "\u2581ed": 498,
  "\u2581Palace": 499,
  "\u2581un": 500,
  "\u2581fr": 501,
  "len": 502,
  "ire": 503,
  "\u2581attack": 504,
  "so": 505,
  "\u2581ad": 506,
  "\u2581there": 507,
  "\u2581here": 508,
  "\u2581cut": 509,
  "\u2581penalty": 510,
  "\u2581edge": 511,
  "ian": 512,
  "ins": 513,
  "\u2581ca": 514,
  "\u2581per": 515,
  "\u2581dri": 516,
  "ud": 517,
  "ull": 518,
  "\u2581then": 519,
  "pe": 520,
  "\u2581clo": 521,
  "ST": 522,
  "\u2581chance": 523,
  "\u2581comp": 524,
  "man": 525,
  "\u2581St": 526,
  "\u2581Mc": 527,
  "urs": 528,
  "ish": 529,
  "feree": 530,
  "\u2581Sp": 531,
  "HA": 532,
  "\u2581though": 533,
  "round": 534,
  "day": 535,
  "time": 536,
  "\u2581them": 537,
  "\u2581stra": 538,
  "oth": 539,
  "up": 540,
  "\u25813": 541,
  "eet": 542,
  "ince": 543,
  "ings": 544,
  "\u2581inter": 545,
  "lect": 546,
  "ies": 547,
  "ourn": 548,
  "ournem": 549,
  "\u2581tri": 550,
  "\u2581keep": 551,
  "ournemouth": 552,
  "\u2581straight": 553,
  "\u2581low": 554,
  "\u2581Bournemouth": 555,
  "!!!": 556,
  "\u2581vis": 557,
  "ach": 558,
  "\u2581ear": 559,
  "\u2581long": 560,
  "\u2581also": 561,
  "ne": 562,
  "\u2581ro": 563,
  "\u2581res": 564,
  "\u2581six": 565,
  "\u2581block": 566,
  "-2": 567,
  "\u2581referee": 568,
  "ank": 569,
  "\u2581send": 570,
  "\u2581visit": 571,
  "oll": 572,
  "\u2581Spurs": 573,
  "ha": 574,
  "\u2581across": 575,
  "itch": 576,
  "\u2581takes": 577,
  "\u2581ex": 578,
  "\u2581fa": 579,
  "\u2581press": 580,
  "arg": 581,
  "\u2581Ch": 582,
  "\u2581repla": 583,
  "owever": 584,
  "ison": 585,
  "ning": 586,
  "\u2581li": 587,
  "ove": 588,
  "\u2581when": 589,
  "\u2581put": 590,
  "\u2581en": 591,
  "\u2581De": 592,
  "we": 593,
  "\u2581since": 594,
  "ere": 595,
  "\u2581onto": 596,
  "\u2581points": 597,
  "\u2581book": 598,
  "\u2581app": 599,
  "\u2581too": 600,
  "owing": 601,
  "ord": 602,
  "\u2581There": 603,
  "\u2581past": 604,
  "\u2581which": 605,
  "wn": 606,
  "ster": 607,
  "\u2581header": 608,
  "\u2581gi": 609,
  "ors": 610,
  "\u2581wing": 611,
  "va": 612,
  "old": 613,
  "\u2581any": 614,
  "\u2581come": 615,
  "\u2581set": 616,
  "\u2581cent": 617,
  "\u2581That": 618,
  "HE": 619,
  "\u2581quick": 620,
  "\u2581some": 621,
  "\u2581close": 622,
  "imp": 623,
  "\u2581On": 624,
  "ides": 625,
  "\u2581They": 626,
  "ood": 627,
  "able": 628,
  "ah": 629,
  "\u2581visitors": 630,
  "io": 631,
  "\u2581turn": 632,
  "\u2581attem": 633,
  "\u2581-": 634,
  "\u2581space": 635,
  "\u2581sto": 636,
  "\u2581change": 637,
  "oment": 638,
  "\u2581deliver": 639,
  "\u2581strik": 640,
  "ez": 641,
  "allen": 642,
  "ther": 643,
  "\u2581moment": 644,
  "\u2581late": 645,
  "\u2581near": 646,
  "LLLL": 647,
  "\u2581defender": 648,
  "lu": 649,
  "ellow": 650,
  "ame": 651,
  "ont": 652,
  "\u2581final": 653,
  "hes": 654,
  "\u2581Fer": 655,
  "\u2581net": 656,
  "\u2581opp": 657,
  "\u2581five": 658,
  "\u2581defence": 659,
  "gg": 660,
  "\u2581beat": 661,
  "\u2581won": 662,
  "\u2581challen": 663,
  "ges": 664,
  "anche": 665,
  "TI": 666,
  "\u2581card": 667,
  "\u2581Ha": 668,
  "\u2581strike": 669,
  "\u2581lat": 670,
  "les": 671,
  "\u2581Z": 672,
  "\u2581does": 673,
  "line": 674,
  "\u2581no": 675,
  "ween": 676,
  "ance": 677,
  "be": 678,
  "ans": 679,
  "\u2581pick": 680,
  "\u2581between": 681,
  "AR": 682,
  "\u2581good": 683,
  "\u2581scored": 684,
  "\u2581sw": 685,
  "\u2581ab": 686,
  "\u2581inj": 687,
  "arget": 688,
  "\u2581An": 689,
  "\u2581could": 690,
  "\u2581However": 691,
  "\u2581take": 692,
  "\u2581place": 693,
  "ert": 694,
  "\u2581yellow": 695,
  "\u2581while": 696,
  "eto": 697,
  "sen": 698,
  "\u2581touch": 699,
  "\u2581cur": 700,
  "\u2581Mart": 701,
  "ird": 702,
  "\u2581contin": 703,
  "ear": 704,
  "\u2581wor": 705,
  "\u2581looking": 706,
  "dle": 707,
  "ON": 708,
  "\u2581middle": 709,
  "NC": 710,
  "over": 711,
  "oy": 712,
  "ana": 713,
  "\u2581rec": 714,
  "\u2581front": 715,
  "\u2581both": 716,
  "RE": 717,
  "-3": 718,
  "ock": 719,
  "ved": 720,
  "\u2581add": 721,
  "\u2581target": 722,
  "\u2581pressure": 723,
  "\u2581SA": 724,
  "\u2581own": 725,
  "anger": 726,
  "erb": 727,
  "\u2581third": 728,
  "\u2581pitch": 729,
  "ows": 730,
  "\u25811-0": 731,
  "..": 732,
  "ions": 733,
  "\u2581Rob": 734,
  "\u2581challenge": 735,
  "\u2581line": 736,
  "ful": 737,
  "\u2581di": 738,
  "ory": 739,
  "raw": 740,
  "ball": 741,
  "\u2581Ma": 742,
  "hing": 743,
  "\u2581danger": 744,
  "\u2581Y": 745,
  "\u2581SAVE": 746,
  "\u2581finds": 747,
  "\u258110": 748,
  "\u2581still": 749,
  "ub": 750,
  "OOOO": 751,
  "off": 752,
  "\u2581sub": 753,
  "\u2581league": 754,
  "ME": 755,
  "\u2581foot": 756,
  "\u2581ra": 757,
  "\u2581ret": 758,
  "ottom": 759,
  "\u2581Tra": 760,
  "\u2581going": 761,
  "\u2581we": 762,
  "iz": 763,
  "\u2581see": 764,
  "ange": 765,
  "\u2581Ed": 766,
  "\u2581ben": 767,
  "\u2581Will": 768,
  "\u2581vi": 769,
  "vent": 770,
  "\u2581today": 771,
  "\u2581k": 772,
  "\u2581kick": 773,
  "anchester": 774,
  "ber": 775,
  "very": 776,
  "\u2581sends": 777,
  "\u2581dis": 778,
  "\u2581Manchester": 779,
  "\u2581Fern": 780,
  "\u2581need": 781,
  "\u2581She": 782,
  "ounter": 783,
  "\u2581Fernand": 784,
  "\u2581goalkeep": 785,
  "\u2581Dou": 786,
  "\u2581early": 787,
  "att": 788,
  "\u2581Lu": 789,
  "\u2581match": 790,
  "ury": 791,
  "\u2581imp": 792,
  "ial": 793,
  "\u2581striker": 794,
  "\u2581Fod": 795,
  "\u2581dro": 796,
  "UB": 797,
  "lli": 798,
  "\u2581Wh": 799,
  "igh": 800,
  "\u2581Sheff": 801,
  "\u2581bottom": 802,
  "act": 803,
  "\u2581bench": 804,
  "otten": 805,
  "TE": 806,
  "\u2581deflect": 807,
  "\u2581than": 808,
  "\u2581pos": 809,
  "\u2581Sheffield": 810,
  "sel": 811,
  "ice": 812,
  "rugg": 813,
  ").": 814,
  "ious": 815,
  "\u2581injury": 816,
  "TIME": 817,
  "av": 818,
  "\u2581attempt": 819,
  "\u2581draw": 820,
  "):": 821,
  "head": 822,
  "\u2581goalkeeper": 823,
  "ment": 824,
  "\u2581having": 825,
  "\u2581hit": 826,
  "\u2581winger": 827,
  "\u2581SUB": 828,
  "ottenham": 829,
  "\u2581ass": 830,
  "\u2581being": 831,
  "\u2581Tottenham": 832,
  "\u2581lo": 833,
  "\u2581foll": 834,
  "ath": 835,
  "\u2581Joh": 836,
  "ga": 837,
  "\u2581opening": 838,
  "ris": 839,
  "\u2581around": 840,
  "ade": 841,
  "eta": 842,
  "\u2581counter": 843,
  "\u2581were": 844,
  "xt": 845,
  "\u2581manag": 846,
  "\u2581defeat": 847,
  "\u2581coming": 848,
  "\u2581midfielder": 849,
  "\u2581outside": 850,
  "og": 851,
  "\u2581shoot": 852,
  "ilva": 853,
  "\u2581foul": 854,
  "\u2581other": 855,
  "\u2581vict": 856,
  "hand": 857,
  "\u2581changes": 858,
  "SE": 859,
  "ola": 860,
  "omin": 861,
  "\u2581Gar": 862,
  "\u2581feet": 863,
  "\u2581John": 864,
  "ib": 865,
  "\u2581che": 866,
  "\u2581hand": 867,
  "\u2581VAR": 868,
  "\u2581bri": 869,
  "\u2581return": 870,
  "\u2581Br": 871,
  "ute": 872,
  "\u2581Silva": 873,
  "\u2581ahead": 874,
  "\u2581rece": 875,
  "de": 876,
  "\u2581Neto": 877,
  "\u2581finish": 878,
  "foot": 879,
  "\u2581loo": 880,
  "\u2581much": 881,
  "\u2581wins": 882,
  "\u2581work": 883,
  "\u2581We": 884,
  "\u2581ar": 885,
  "\u2581SUBS": 886,
  "\u25814": 887,
  "cing": 888,
  "ap": 889,
  "ign": 890,
  "\u2581cuts": 891,
  "\u2581offside": 892,
  "\u2581player": 893,
  "\u2581high": 894,
  "ards": 895,
  "pped": 896,
  "stit": 897,
  "\u2581Onana": 898,
  "ared": 899,
  "\u2581spot": 900,
  "ip": 901,
  "ees": 902,
  "\u2581lost": 903,
  "\u2581Ol": 904,
  "\u2581players": 905,
  "te": 906,
  "\u2581try": 907,
  "\u2581dec": 908,
  "gu": 909,
  "\u2581scor": 910,
  "\u2581men": 911,
  "\u2581tries": 912,
  "ingham": 913,
  "\u2581des": 914,
  "\u2581like": 915,
  "ye": 916,
  "\u2581Nun": 917,
  "\u2581Jam": 918,
  "\u2581Sal": 919,
  "gaard": 920,
  "\u2581continue": 921,
  "\u2581hold": 922,
  "ils": 923,
  "\u2581substit": 924,
  "ich": 925,
  "\u2581pus": 926,
  "ound": 927,
  "aka": 928,
  "ma": 929,
  "less": 930,
  "\u2581Re": 931,
  "NCE": 932,
  "vel": 933,
  "lent": 934,
  "\u2581Mad": 935,
  "\u2581once": 936,
  "VER": 937,
  "\u2581CHA": 938,
  "\u2581Park": 939,
  "adi": 940,
  "\u2581(4": 941,
  "fford": 942,
  "\u2581CHANCE": 943,
  "\u2581position": 944,
  "ips": 945,
  "po": 946,
  "\u2581delivery": 947,
  "\u2581blocked": 948,
  "ng": 949,
  "\u2581matches": 950,
  "\u2581bl": 951,
  "\u2581next": 952,
  "pping": 953,
  "\u2581miss": 954,
  "\u2581sees": 955,
  "\u2581throw": 956,
  "\u2581conced": 957,
  "\u2581kn": 958,
  "footed": 959,
  "alis": 960,
  "\u2581Wil": 961,
  "\u2581made": 962,
  "\u2581Ant": 963,
  "\u2581After": 964,
  "\u2581202": 965,
  "ane": 966,
  "\u2581yet": 967,
  "ko": 968,
  "ara": 969,
  "\u2581stand": 970,
  "ational": 971,
  "\u2581would": 972,
  "ho": 973,
  "\u2581br": 974,
  "Ne": 975,
  "\u2581wee": 976,
  "\u2581fire": 977,
  "Neil": 978,
  "\u2581Red": 979,
  "\u25810": 980,
  "AAAA": 981,
  "\u2581centre": 982,
  "\u2581victory": 983,
  "\u2581scoring": 984,
  "\u2581making": 985,
  "ction": 986,
  "\u2581quickly": 987,
  "uri": 988,
  "ortun": 989,
  "\u2581deep": 990,
  "\u2581flank": 991,
  "\u2581Ale": 992,
  "\u2581strugg": 993,
  "\u2581chances": 994,
  "ays": 995,
  "ates": 996,
  "ai": 997,
  "\u2581Rod": 998,
  "olley": 999,
  "amp": 1000,
  "\u2581James": 1001,
  "\u2581replaced": 1002,
  "eno": 1003,
  "\u2581short": 1004,
  "\u2581Trafford": 1005,
  "if": 1006,
  "\u2581rem": 1007,
  "arr": 1008,
  "\u2581Wat": 1009,
  "ades": 1010,
  "\u2581Emer": 1011,
  "\u2581save": 1012,
  "\u2581eight": 1013,
  "\u2581plays": 1014,
  "\u2581range": 1015,
  "\u2581appear": 1016,
  "\u2581Jack": 1017,
  "\u2581winning": 1018,
  "\u2581FU": 1019,
  "rong": 1020,
  "\u2581eas": 1021,
  "\u2581equ": 1022,
  "\u2581yards": 1023,
  "llo": 1024,
  "national": 1025,
  "\u2581opportun": 1026,
  "\u2581Mat": 1027,
  "),": 1028,
  "tle": 1029,
  "ated": 1030,
  "come": 1031,
  "\u2581seven": 1032,
  "\u2581Kam": 1033,
  "\u2581international": 1034,
  "cc": 1035,
  "TON": 1036,
  "wis": 1037,
  "\u2581Gu": 1038,
  "\u2581meet": 1039,
  "\u2581recei": 1040,
  "\u2581Am": 1041,
  "\u2581Mar": 1042,
  "edo": 1043,
  "use": 1044,
  "kins": 1045,
  "\u2581poor": 1046,
  "go": 1047,
  "ks": 1048,
  "ile": 1049,
  "\u2581compet": 1050,
  "read": 1051,
  "\u2581Sem": 1052,
  "ens": 1053,
  "\u2581live": 1054,
  "lliant": 1055,
  "\u2581Ben": 1056,
  "\u2581few": 1057,
  "\u2581roll": 1058,
  "\u2581move": 1059,
  "\u25812-0": 1060,
  "adium": 1061,
  "\u25812-1": 1062,
  "\u2581teams": 1063,
  "\u2581brilliant": 1064,
  "NI": 1065,
  "\u2581hel": 1066,
  "\u2581following": 1067,
  "\u2581Saka": 1068,
  "atter": 1069,
  "\u2581assist": 1070,
  "self": 1071,
  "\u2581cover": 1072,
  "per": 1073,
  "\u2581fans": 1074,
  "\u2581Rodri": 1075,
  "\u2581getting": 1076,
  "\u2581or": 1077,
  "most": 1078,
  "eny": 1079,
  "\u2581cou": 1080,
  "\u2581flick": 1081,
  "\u2581Watkins": 1082,
  "\u2581Alex": 1083,
  "\u2581threat": 1084,
  "arez": 1085,
  "ister": 1086,
  "varez": 1087,
  "\u2581resul": 1088,
  "\u2581This": 1089,
  "\u2581Fernandes": 1090,
  "\u2581Alvarez": 1091,
  "\u2581ho": 1092,
  "\u2581Son": 1093,
  "\u2581remain": 1094,
  "ress": 1095,
  "\u2581should": 1096,
  "\u2581Bl": 1097,
  "\u2581former": 1098,
  "ka": 1099,
  "\u2581dou": 1100,
  "\u2581better": 1101,
  "pts": 1102,
  "\u2581GO": 1103,
  "\u2581And": 1104,
  "\u2581inv": 1105,
  "\u2581most": 1106,
  "\u2581stop": 1107,
  "\u2581competition": 1108,
  "\u2581Pa": 1109,
  "ners": 1110,
  "\u2581throughball": 1111,
  "atch": 1112,
  "\u2581able": 1113,
  "\u2581Ad": 1114,
  "\u2581Ca": 1115,
  "\u2581Mag": 1116,
  "\u2581wa": 1117,
  "ffer": 1118,
  "\u2581pow": 1119,
  "\u2581contro": 1120,
  "\u2581Stadium": 1121,
  "\u2581stre": 1122,
  "ean": 1123,
  "ORE": 1124,
  "TED": 1125,
  "\u2581UNI": 1126,
  "\u2581Robin": 1127,
  "\u2581UNITED": 1128,
  "int": 1129,
  "\u2581volley": 1130,
  "\u2581Salah": 1131,
  "\u2581did": 1132,
  "\u2581pull": 1133,
  "bs": 1134,
  "ia": 1135,
  "\u2581los": 1136,
  "HAM": 1137,
  "hed": 1138,
  "min": 1139,
  "\u2581Dan": 1140,
  "\u2581check": 1141,
  "\u2581us": 1142,
  "\u2581Sch": 1143,
  "\u2581rest": 1144,
  "\u2581Blades": 1145,
  "\u2581equalis": 1146,
  "\u2581Nor": 1147,
  "ually": 1148,
  "ary": 1149,
  "fts": 1150,
  "\u2581himself": 1151,
  "inn": 1152,
  "\u2581Sa": 1153,
  "\u2581full": 1154,
  "\u2581Nunez": 1155,
  "LE": 1156,
  "\u2581looked": 1157,
  "med": 1158,
  "ple": 1159,
  "\u2581Ster": 1160,
  "\u2581Sterling": 1161,
  "\u2581lit": 1162,
  "\u2581given": 1163,
  "az": 1164,
  "\u258119": 1165,
  "oung": 1166,
  "aland": 1167,
  "\u2581boun": 1168,
  "\u2581little": 1169,
  "ira": 1170,
  "ski": 1171,
  "\u2581Wilson": 1172,
  "FF": 1173,
  "du": 1174,
  "ical": 1175,
  "\u2581where": 1176,
  "DE": 1177,
  "\u2581heads": 1178,
  "\u2581byline": 1179,
  "\u2581replaces": 1180,
  "ture": 1181,
  "ither": 1182,
  "\u2581crow": 1183,
  "pie": 1184,
  "urst": 1185,
  "\u2581Lewis": 1186,
  "\u2581Haaland": 1187,
  "ram": 1188,
  "yard": 1189,
  "\u2581bar": 1190,
  "\u2581col": 1191,
  "ixture": 1192,
  "\u2581sides": 1193,
  "\u2581sur": 1194,
  "\u2581Anton": 1195,
  "\u2581cleared": 1196,
  "\u2581Robinson": 1197,
  "ect": 1198,
  "\u2581bu": 1199,
  "ping": 1200,
  "\u2581crowd": 1201,
  "\u2581fixture": 1202,
  "unha": 1203,
  "\u2581Pick": 1204,
  "\u2581Toff": 1205,
  "\u2581Cunha": 1206,
  "\u2581Martin": 1207,
  "\u2581Ho": 1208,
  "\u2581sm": 1209,
  "\u2581wel": 1210,
  "\u2581tack": 1211,
  "\u2581level": 1212,
  "\u2581ent": 1213,
  "\u2581drives": 1214,
  "\u2581His": 1215,
  "\u2581Hoj": 1216,
  "ander": 1217,
  "\u2581loose": 1218,
  "...": 1219,
  "ordon": 1220,
  "\u2581Gordon": 1221,
  "\u2581almost": 1222,
  "\u2581flag": 1223,
  "\u2581enough": 1224,
  "\u2581Pickford": 1225,
  "\u2581Sol": 1226,
  "\u2581point": 1227,
  "\u2581clash": 1228,
  "\u2581welcome": 1229,
  "\u25811-1": 1230,
  "\u2581Ward": 1231,
  "\u2581Palmer": 1232,
  "ily": 1233,
  "ston": 1234,
  "\u2581event": 1235,
  "\u2581shots": 1236,
  "\u2581control": 1237,
  "\u2581without": 1238,
  "ught": 1239,
  "-1):": 1240,
  "arab": 1241,
  "pite": 1242,
  "ashes": 1243,
  "\u2581shown": 1244,
  "\u2581opportunity": 1245,
  "rist": 1246,
  "ondon": 1247,
  "\u2581starting": 1248,
  "ms": 1249,
  "leg": 1250,
  "\u2581TO": 1251,
  "\u2581if": 1252,
  "\u2581tra": 1253,
  "\u2581London": 1254,
  "\u2581slides": 1255,
  "\u2581El": 1256,
  "arl": 1257,
  "\u2581Van": 1258,
  "\u2581Diaz": 1259,
  "\u2581curl": 1260,
  "\u2581power": 1261,
  "\u2581collect": 1262,
  "NAL": 1263,
  "\u2581Bow": 1264,
  "\u2581Rich": 1265,
  "\u2581Aston": 1266,
  "\u2581Do": 1267,
  "\u2581Cal": 1268,
  "\u2581inc": 1269,
  "\u2581Bowen": 1270,
  "OU": 1271,
  "\u2581fe": 1272,
  "ken": 1273,
  "ision": 1274,
  "\u2581Foden": 1275,
  "\u2581latter": 1276,
  "mir": 1277,
  "\u2581WI": 1278,
  "\u2581Gun": 1279,
  "\u2581lin": 1280,
  "vious": 1281,
  "pect": 1282,
  "ac": 1283,
  "hite": 1284,
  "\u2581dangerous": 1285,
  "\u2581Fle": 1286,
  "\u2581face": 1287,
  "\u2581Mit": 1288,
  "\u2581started": 1289,
  "\u2581great": 1290,
  "\u2581double": 1291,
  "\u2581Gunners": 1292,
  "ams": 1293,
  "ately": 1294,
  "\u2581caught": 1295,
  "\u2581path": 1296,
  "\u2581very": 1297,
  "\u2581cann": 1298,
  "\u2581coverage": 1299,
  "LO": 1300,
  "res": 1301,
  "omes": 1302,
  "\u2581comfort": 1303,
  "\u2581cla": 1304,
  "\u2581about": 1305,
  "gle": 1306,
  "\u2581Cup": 1307,
  "\u2581Eng": 1308,
  "\u2581Kon": 1309,
  "\u2581int": 1310,
  "\u2581taking": 1311,
  "pan": 1312,
  "\u2581Po": 1313,
  "ibbs": 1314,
  "White": 1315,
  "\u2581Gibbs": 1316,
  "\u2581Bu": 1317,
  "acho": 1318,
  "\u2581Tri": 1319,
  "nacho": 1320,
  "\u2581comple": 1321,
  "\u2581Garnacho": 1322,
  "\u2581previous": 1323,
  "\u2581Engl": 1324,
  "\u2581What": 1325,
  "piece": 1326,
  "\u2581Rash": 1327,
  "\u2581taken": 1328,
  "\u2581Rashford": 1329,
  "ptain": 1330,
  "edro": 1331,
  "\u2581squ": 1332,
  "\u2581Pedro": 1333,
  "\u2581Jackson": 1334,
  "inez": 1335,
  "\u2581201": 1336,
  "\u2581adv": 1337,
  "\u2581Martinez": 1338,
  "\u2581As": 1339,
  "\u2581fires": 1340,
  "ital": 1341,
  "\u2581Jan": 1342,
  "ppier": 1343,
  "\u2581Johnson": 1344,
  "bar": 1345,
  "ild": 1346,
  "\u2581Madd": 1347,
  "\u2581crossbar": 1348,
  "ALF": 1349,
  "\u2581HALF": 1350,
  "\u2581action": 1351,
  "\u2581Maddison": 1352,
  "TY": 1353,
  "\u2581sit": 1354,
  "\u2581FULL": 1355,
  "\u2581creat": 1356,
  "elli": 1357,
  "\u2581every": 1358,
  "als": 1359,
  "wang": 1360,
  "\u2581attacking": 1361,
  "ppy": 1362,
  "\u2581lea": 1363,
  "\u2581Hwang": 1364,
  "\u2581added": 1365,
  "kken": 1366,
  "\u2581Hello": 1367,
  "\u2581Flekken": 1368,
  "sey": 1369,
  "\u2581In": 1370,
  "anke": 1371,
  "ilian": 1372,
  "inski": 1373,
  "\u2581booked": 1374,
  "\u2581Kaminski": 1375,
  "olo": 1376,
  "ries": 1377,
  "\u2581stopp": 1378,
  "\u2581Solanke": 1379,
  "\u2581Ro": 1380,
  "aten": 1381,
  "\u2581Mor": 1382,
  "\u2581Por": 1383,
  "\u2581headed": 1384,
  "\u2581played": 1385,
  "\u2581Is": 1386,
  "\u2581mark": 1387,
  "LLL": 1388,
  "ift": 1389,
  "oure": 1390,
  "\u2581Are": 1391,
  "\u2581Bra": 1392,
  "\u2581Leno": 1393,
  "\u2581playing": 1394,
  "ardi": 1395,
  "\u2581WIDE": 1396,
  "beaten": 1397,
  "\u2581Trippier": 1398,
  "\u2581seem": 1399,
  "\u2581tight": 1400,
  "\u2581fourth": 1401,
  "\u2581captain": 1402,
  "\u2581(1": 1403,
  "\u2581got": 1404,
  "\u2581camp": 1405,
  "\u2581unbeaten": 1406,
  "\u2581MA": 1407,
  "ario": 1408,
  "\u2581THE": 1409,
  "\u2581nothing": 1410,
  "\u2581Martinelli": 1411,
  "OR": 1412,
  "\u2581knock": 1413,
  "icario": 1414,
  "hy": 1415,
  "uck": 1416,
  "\u2581repl": 1417,
  "\u2581GOOOO": 1418,
  "\u2581Vicario": 1419,
  "ances": 1420,
  "\u2581treat": 1421,
  "\u2581cannot": 1422,
  "\u2581Mo": 1423,
  "\u2581Dav": 1424,
  "\u2581Pere": 1425,
  "\u2581couple": 1426,
  "\u2581tackle": 1427,
  "\u2581receives": 1428,
  "joy": 1429,
  "\u2581Ez": 1430,
  "\u2581Ode": 1431,
  "\u2581want": 1432,
  "\u2581Areola": 1433,
  "\u2581Odegaard": 1434,
  "\u2581ri": 1435,
  "\u2581table": 1436,
  "\u2581Porro": 1437,
  "\u2581enjoy": 1438,
  "\u2581picks": 1439,
  "\u2581domin": 1440,
  "\u2581Pereira": 1441,
  "rag": 1442,
  "\u2581Fr": 1443,
  "ailey": 1444,
  "\u2581claim": 1445,
  "\u2581club": 1446,
  "\u2581what": 1447,
  "\u2581invol": 1448,
  "\u2581Bailey": 1449,
  "ER": 1450,
  "ise": 1451,
  "\u2581am": 1452,
  "issa": 1453,
  "\u2581Town": 1454,
  "\u2581resp": 1455,
  "\u2581whips": 1456,
  "\u2581losing": 1457,
  "ug": 1458,
  "\u2581Ber": 1459,
  "\u2581Tur": 1460,
  "\u2581nod": 1461,
  "\u2581Braz": 1462,
  "\u2581equaliser": 1463,
  "\u258111": 1464,
  "lenty": 1465,
  "inging": 1466,
  "\u2581Foder": 1467,
  "\u2581Foderingham": 1468,
  "of": 1469,
  "Lew": 1470,
  "Lewin": 1471,
  "\u2581each": 1472,
  "\u2581Calvert": 1473,
  "\u2581moments": 1474,
  "\u2581Os": 1475,
  "\u2581Gomes": 1476,
  "\u2581All": 1477,
  "\u2581flo": 1478,
  "\u2581fall": 1479,
  "arabia": 1480,
  "\u2581Sarabia": 1481,
  "CK": 1482,
  "aby": 1483,
  "\u2581tou": 1484,
  "\u2581Diaby": 1485,
  "\u2581Nk": 1486,
  "ably": 1487,
  "anga": 1488,
  "iding": 1489,
  "\u2581step": 1490,
  "\u2581Elanga": 1491,
  "\u2581curling": 1492,
  "\u2581eventually": 1493,
  "ku": 1494,
  "iting": 1495,
  "\u2581Ander": 1496,
  "\u2581whist": 1497,
  "\u2581McNeil": 1498,
  "arry": 1499,
  "\u2581ter": 1500,
  "\u2581campa": 1501,
  "\u2581contest": 1502,
  "ey": 1503,
  "king": 1504,
  "usev": 1505,
  "ustr": 1506,
  "\u2581For": 1507,
  "\u2581Kul": 1508,
  "\u2581big": 1509,
  "\u2581Kulusev": 1510,
  "\u2581campaign": 1511,
  "\u258112": 1512,
  "\u2581Isak": 1513,
  "\u2581treatment": 1514,
  "ao": 1515,
  "\u2581Se": 1516,
  "\u2581GOO": 1517,
  "\u2581inst": 1518,
  "RN": 1519,
  "\u2581Bru": 1520,
  "\u2581plenty": 1521,
  "\u2581reg": 1522,
  "ating": 1523,
  "\u2581proble": 1524,
  "\u2581addition": 1525,
  "\u2581Kulusevski": 1526,
  "yi": 1527,
  "\u2581jo": 1528,
  "\u2581rus": 1529,
  "ready": 1530,
  "\u2581Joao": 1531,
  "\u2581really": 1532,
  "\u2581Douc": 1533,
  "\u2581nine": 1534,
  "\u2581supp": 1535,
  "\u258115": 1536,
  "ched": 1537,
  "ccess": 1538,
  "\u2581Alexander": 1539,
  "gb": 1540,
  "mers": 1541,
  "\u2581pun": 1542,
  "\u2581Bees": 1543,
  "\u2581Doucoure": 1544,
  "\u25815": 1545,
  "half": 1546,
  "\u25813-1": 1547,
  "\u2581Willian": 1548,
  "\u2581Gil": 1549,
  "\u2581Luiz": 1550,
  "\u2581Reds": 1551,
  "ouma": 1552,
  "vertz": 1553,
  "\u2581Christ": 1554,
  "\u2581Havertz": 1555,
  "\u2581stoppage": 1556,
  "NG": 1557,
  "els": 1558,
  "ose": 1559,
  "ted": 1560,
  "ather": 1561,
  "\u2581substitute": 1562,
  "\u2581McG": 1563,
  "\u2581burst": 1564,
  "\u2581Dought": 1565,
  "\u2581frustr": 1566,
  "\u2581clearance": 1567,
  "\u2581substitut": 1568,
  "\u2581mo": 1569,
  "iled": 1570,
  "\u2581Can": 1571,
  "\u2581Eze": 1572,
  "arlison": 1573,
  "\u2581Doughty": 1574,
  "\u2581already": 1575,
  "\u2581Richarlison": 1576,
  "bye": 1577,
  "atters": 1578,
  "ertain": 1579,
  "\u2581drops": 1580,
  "\u2581McGinn": 1581,
  "\u2581forced": 1582,
  "\u2581attempts": 1583,
  "\u2581strong": 1584,
  "\u2581additional": 1585,
  "elt": 1586,
  "rown": 1587,
  "\u2581came": 1588,
  "\u2581Wissa": 1589,
  "\u2581angle": 1590,
  "aw": 1591,
  "ef": 1592,
  "\u2581Ko": 1593,
  "\u2581SC": 1594,
  "inho": 1595,
  "\u2581Tom": 1596,
  "\u2581tim": 1597,
  "\u2581comb": 1598,
  "\u2581curls": 1599,
  "ouri": 1600,
  "\u2581stands": 1601,
  "\u2581Emerson": 1602,
  "\u2581recover": 1603,
  "\u2581Cher": 1604,
  "\u2581minute": 1605,
  "\u2581Morris": 1606,
  "\u2581success": 1607,
  "ues": 1608,
  "\u2581Bro": 1609,
  "\u2581Gall": 1610,
  "\u2581winner": 1611,
  "\u2581Toffees": 1612,
  "uge": 1613,
  "-2-3": 1614,
  "\u2581sup": 1615,
  "\u2581Wood": 1616,
  "\u2581turns": 1617,
  "\u2581defend": 1618,
  "\u2581leg": 1619,
  "agher": 1620,
  "\u2581Gallagher": 1621,
  "und": 1622,
  "\u2581Good": 1623,
  "\u2581Brazilian": 1624,
  "wh": 1625,
  "\u2581Sou": 1626,
  "\u2581drag": 1627,
  "ensive": 1628,
  "\u2581Another": 1629,
  "uez": 1630,
  "\u2581abs": 1631,
  "\u2581you": 1632,
  "\u2581superb": 1633,
  "\u2581struggling": 1634,
  "wor": 1635,
  "lund": 1636,
  "\u2581Hojlund": 1637,
  "\u2581Gab": 1638,
  "\u2581ris": 1639,
  "\u2581ste": 1640,
  "\u2581(4-2-3": 1641,
  "Ar": 1642,
  "ati": 1643,
  "obb": 1644,
  "\u2581Jes": 1645,
  "\u2581With": 1646,
  "\u2581SCORE": 1647,
  "\u2581gives": 1648,
  "\u2581races": 1649,
  "\u2581goodbye": 1650,
  "\u2581halfway": 1651,
  "riel": 1652,
  "udus": 1653,
  "\u2581Brown": 1654,
  "\u2581Kudus": 1655,
  "\u2581Gabriel": 1656,
  "\u2581(4-2-3-1):": 1657,
  "erg": 1658,
  "owed": 1659,
  "\u2581pace": 1660,
  "LLLLLLLL": 1661,
  "iv": 1662,
  "cel": 1663,
  "ied": 1664,
  "\u2581Fernandez": 1665,
  "\u2581deflected": 1666,
  "xG": 1667,
  "Arn": 1668,
  "but": 1669,
  "\u2581dire": 1670,
  "\u2581hits": 1671,
  "\u2581Gross": 1672,
  "fl": 1673,
  "gi": 1674,
  "Prow": 1675,
  "\u25813-0": 1676,
  "Prowse": 1677,
  "\u2581Semedo": 1678,
  "\u2581interce": 1679,
  "nes": 1680,
  "\u2581Ogb": 1681,
  "ivert": 1682,
  "\u2581whose": 1683,
  "\u2581defensive": 1684,
  "\u2581either": 1685,
  "\u2581decision": 1686,
  "\u2581ke": 1687,
  "\u2581tw": 1688,
  "mina": 1689,
  "\u2581opt": 1690,
  "\u2581Lemina": 1691,
  "\u2581Hammers": 1692,
  "\u2581impress": 1693,
  "bi": 1694,
  "owski": 1695,
  "\u2581Paqu": 1696,
  "\u2581Tark": 1697,
  "Arnold": 1698,
  "\u2581steps": 1699,
  "\u2581brings": 1700,
  "\u2581trying": 1701,
  "\u2581complete": 1702,
  "\u2581Tarkowski": 1703,
  "wa": 1704,
  "umo": 1705,
  "\u2581Mbe": 1706,
  "\u2581arri": 1707,
  "\u2581clos": 1708,
  "ations": 1709,
  "\u2581Mbeumo": 1710,
  "\u2581Paqueta": 1711,
  "\u2581finding": 1712,
  "anc": 1713,
  "oni": 1714,
  "\u2581Ray": 1715,
  "\u2581Guim": 1716,
  "\u2581Ay": 1717,
  "araes": 1718,
  "\u2581huge": 1719,
  "\u2581Jesus": 1720,
  "\u2581ground": 1721,
  "\u2581Guimaraes": 1722,
  "\u2581Nott": 1723,
  "antage": 1724,
  "\u2581whistle": 1725,
  "\u2581Nottingham": 1726,
  "alk": 1727,
  "lopp": 1728,
  "lues": 1729,
  "mber": 1730,
  "\u2581Muri": 1731,
  "\u2581puts": 1732,
  "\u2581Hatters": 1733,
  "\u2581may": 1734,
  "\u2581Ayew": 1735,
  "\u2581many": 1736,
  "\u2581SCORES": 1737,
  "RI": 1738,
  "well": 1739,
  "ensen": 1740,
  "\u2581Blues": 1741,
  "\u2581those": 1742,
  "\u2581booking": 1743,
  "ged": 1744,
  "\u2581new": 1745,
  "erson": 1746,
  "onent": 1747,
  "\u2581best": 1748,
  "attack": 1749,
  "\u2581build": 1750,
  "\u2581stret": 1751,
  "\u2581despite": 1752,
  "\u2581replace": 1753,
  "\u2581opponent": 1754,
  "left": 1755,
  "ones": 1756,
  "\u2581deal": 1757,
  "\u2581went": 1758,
  "\u2581advantage": 1759,
  "\u2581NO": 1760,
  "NCHE": 1761,
  "STER": 1762,
  "ging": 1763,
  "ured": 1764,
  "\u2581Car": 1765,
  "\u2581perf": 1766,
  "\u2581Tross": 1767,
  "\u2581quite": 1768,
  "\u2581times": 1769,
  "\u2581Trossard": 1770,
  "\u2581Ait": 1771,
  "\u2581spell": 1772,
  "\u2581failed": 1773,
  "\u2581Ederson": 1774,
  "ene": 1775,
  "\u2581Rice": 1776,
  "ino": 1777,
  "lai": 1778,
  "red": 1779,
  "zob": 1780,
  "\u2581Gue": 1781,
  "\u2581lot": 1782,
  "zobos": 1783,
  "\u2581happy": 1784,
  "\u2581Szobos": 1785,
  "ani": 1786,
  "zlai": 1787,
  "\u2581Mac": 1788,
  "\u2581Cash": 1789,
  "\u2581Almir": 1790,
  "\u2581record": 1791,
  "\u2581Allister": 1792,
  "\u2581defenders": 1793,
  "\u2581Szoboszlai": 1794,
  "cut": 1795,
  "ero": 1796,
  "los": 1797,
  "\u2581Marc": 1798,
  "\u2581MANCHE": 1799,
  "\u2581Almiron": 1800,
  "\u2581MANCHESTER": 1801,
  "ik": 1802,
  "ake": 1803,
  "iah": 1804,
  "\u2581give": 1805,
  "\u2581help": 1806,
  "\u2581perfor": 1807,
  "ntil": 1808,
  "wood": 1809,
  "\u2581Hag": 1810,
  "\u2581Mun": 1811,
  "etiah": 1812,
  "uring": 1813,
  "\u2581part": 1814,
  "\u2581Klopp": 1815,
  "\u2581Nketiah": 1816,
  "hin": 1817,
  "rav": 1818,
  "\u2581Jim": 1819,
  "\u2581Doku": 1820,
  "\u2581gone": 1821,
  "\u2581loss": 1822,
  "\u2581test": 1823,
  "\u2581clean": 1824,
  "\u2581opener": 1825,
  "\u2581Dub": 1826,
  "\u2581OFF": 1827,
  "oming": 1828,
  "\u2581week": 1829,
  "\u2581reach": 1830,
  "\u2581twice": 1831,
  "\u2581z": 1832,
  "\u2581cr": 1833,
  "ravka": 1834,
  "\u2581Cham": 1835,
  "atches": 1836,
  "\u2581sliding": 1837,
  "\u2581involved": 1838,
  "\u2581LI": 1839,
  "yond": 1840,
  "\u2581luck": 1841,
  "\u2581same": 1842,
  "\u2581least": 1843,
  "\u2581beyond": 1844,
  "ota": 1845,
  "akpo": 1846,
  "aron": 1847,
  "hill": 1848,
  "kend": 1849,
  "ulls": 1850,
  "\u2581Gust": 1851,
  "\u2581Harr": 1852,
  "\u2581Seag": 1853,
  "\u2581Aaron": 1854,
  "\u2581Gakpo": 1855,
  "\u2581Hamer": 1856,
  "\u2581Willi": 1857,
  "\u2581doesn": 1858,
  "\u2581weekend": 1859,
  "\u2581Dubravka": 1860,
  "\u2581Seagulls": 1861,
  "two": 1862,
  "\u2581Sc": 1863,
  "pies": 1864,
  "\u2581Bel": 1865,
  "\u2581bit": 1866,
  "\u2581Jota": 1867,
  "\u2581Magpies": 1868,
  "\u2581perfect": 1869,
  "tt": 1870,
  "wobi": 1871,
  "\u2581Cry": 1872,
  "Nouri": 1873,
  "\u2581push": 1874,
  "\u2581soon": 1875,
  "urther": 1876,
  "\u2581Iwobi": 1877,
  "\u2581Garner": 1878,
  "\u2581direct": 1879,
  "\u2581passes": 1880,
  "\u2581Harrison": 1881,
  "ayo": 1882,
  "ius": 1883,
  "\u2581im": 1884,
  "stal": 1885,
  "upay": 1886,
  "\u2581Beto": 1887,
  "flight": 1888,
  "selves": 1889,
  "\u2581Maupay": 1890,
  "\u2581differ": 1891,
  "\u2581Crystal": 1892,
  "-4": 1893,
  "vin": 1894,
  "\u2581My": 1895,
  "\u2581tr": 1896,
  "ided": 1897,
  "\u2581found": 1898,
  "\u2581allowing": 1899,
  "\u2581themselves": 1900,
  "jk": 1901,
  "vo": 1902,
  "\u2581Dy": 1903,
  "\u2581Daw": 1904,
  "\u2581Dijk": 1905,
  "\u2581conf": 1906,
  "\u2581Emery": 1907,
  "\u2581lines": 1908,
  "\u2581Dawson": 1909,
  "\u2581things": 1910,
  "\u2581Anfield": 1911,
  "\u2581Andersen": 1912,
  "ase": 1913,
  "ead": 1914,
  "\u2581HA": 1915,
  "enez": 1916,
  "\u2581fine": 1917,
  "\u2581Dyche": 1918,
  "\u2581Schar": 1919,
  "\u2581Jensen": 1920,
  "\u2581Mateta": 1921,
  "\u2581Jimenez": 1922,
  "\u2581performan": 1923,
  "lor": 1924,
  "alot": 1925,
  "oney": 1926,
  "\u2581stay": 1927,
  "\u2581Dalot": 1928,
  "\u2581falls": 1929,
  "\u2581rolls": 1930,
  "\u2581England": 1931,
  "\u2581certain": 1932,
  "\u2581threaten": 1933,
  "\u2581earl": 1934,
  "\u2581sure": 1935,
  "\u2581slight": 1936,
  "\u2581touches": 1937,
  "rov": 1938,
  "ount": 1939,
  "ching": 1940,
  "thing": 1941,
  "\u2581Both": 1942,
  "\u2581form": 1943,
  "rought": 1944,
  "\u2581Traore": 1945,
  "\u2581delivers": 1946,
  "ryk": 1947,
  "\u2581(3": 1948,
  "enyo": 1949,
  "\u2581Eag": 1950,
  "\u2581Mud": 1951,
  "\u2581Rom": 1952,
  "\u2581den": 1953,
  "\u2581GOAL": 1954,
  "\u2581Joel": 1955,
  "\u2581prom": 1956,
  "\u2581drill": 1957,
  "\u2581Mudryk": 1958,
  "\u2581Semenyo": 1959,
  "ala": 1960,
  "\u2581ST": 1961,
  "\u2581Bark": 1962,
  "\u2581Cott": 1963,
  "\u2581fails": 1964,
  "\u2581Barkley": 1965,
  "mit": 1966,
  "\u2581Od": 1967,
  "\u2581la": 1968,
  "\u2581xG": 1969,
  "ALLL": 1970,
  "\u2581Lar": 1971,
  "\u2581Vin": 1972,
  "\u2581red": 1973,
  "ently": 1974,
  "\u2581deny": 1975,
  "\u2581read": 1976,
  "\u258125": 1977,
  "TING": 1978,
  "omez": 1979,
  "\u2581appe": 1980,
  "\u2581trou": 1981,
  "\u2581Gomez": 1982,
  "\u2581Eagles": 1983,
  "\u2581Cherries": 1984,
  "OL": 1985,
  "mate": 1986,
  "bound": 1987,
  "raven": 1988,
  "\u2581Carlos": 1989,
  "\u2581Ogbene": 1990,
  "eb": 1991,
  "hod": 1992,
  "zic": 1993,
  "\u25810.": 1994,
  "\u2581aim": 1995,
  "\u2581fly": 1996,
  "\u2581seen": 1997,
  "\u2581further": 1998,
  "hon": 1999,
  "icul": 2000,
  "igne": 2001,
  "\u2581Raya": 2002,
  "\u2581Digne": 2003,
  "\u2581debut": 2004,
  "cellent": 2005,
  "\u2581Robert": 2006,
  "\u2581intercept": 2007,
  "emi": 2008,
  "\u2581Ud": 2009,
  "ised": 2010,
  "\u2581Ten": 2011,
  "guson": 2012,
  "though": 2013,
  "\u2581alter": 2014,
  "\u2581crosses": 2015,
  "\u2581earlier": 2016,
  "\u2581however": 2017,
  "iod": 2018,
  "\u258113": 2019,
  "\u2581Ta": 2020,
  "ages": 2021,
  "ouni": 2022,
  "rawn": 2023,
  "\u2581Klu": 2024,
  "\u2581caus": 2025,
  "\u2581love": 2026,
  "\u2581period": 2027,
  "\u2581Ferguson": 2028,
  "\u2581touchline": 2029,
  "\u2581brilliantly": 2030,
  "ec": 2031,
  "eek": 2032,
  "rew": 2033,
  "unk": 2034,
  "ouard": 2035,
  "\u2581result": 2036,
  "\u2581Edouard": 2037,
  "\u2581Kluivert": 2038,
  "\u2581es": 2039,
  "ogie": 2040,
  "\u2581Amd": 2041,
  "\u2581McA": 2042,
  "isson": 2043,
  "\u2581mean": 2044,
  "\u2581Toney": 2045,
  "\u2581Udogie": 2046,
  "\u2581Alisson": 2047,
  "\u2581performance": 2048,
  "\u25816": 2049,
  "tee": 2050,
  "anks": 2051,
  "omas": 2052,
  "\u2581But": 2053,
  "rovic": 2054,
  "\u2581even": 2055,
  "\u2581took": 2056,
  "\u2581catch": 2057,
  "\u2581flies": 2058,
  "\u2581wrong": 2059,
  "\u2581young": 2060,
  "\u2581McAtee": 2061,
  "\u2581Thomas": 2062,
  "\u2581Amdouni": 2063,
  "\u2581brought": 2064,
  "\u2581collects": 2065,
  "\u2581excellent": 2066,
  "arm": 2067,
  "nier": 2068,
  "leman": 2069,
  "while": 2070,
  "\u2581Taver": 2071,
  "\u2581shoots": 2072,
  "\u2581restart": 2073,
  "\u2581Tavernier": 2074,
  "ney": 2075,
  "\u2581NE": 2076,
  "cher": 2077,
  "\u2581Col": 2078,
  "\u2581Fab": 2079,
  "\u2581ski": 2080,
  "\u2581must": 2081,
  "\u2581Young": 2082,
  "erbi": 2083,
  "\u2581Kil": 2084,
  "\u2581Zerbi": 2085,
  "\u2581releg": 2086,
  "\u2581Having": 2087,
  "\u2581certainly": 2088,
  "oma": 2089,
  "uro": 2090,
  "chett": 2091,
  "\u2581drop": 2092,
  "\u2581saved": 2093,
  "chettino": 2094,
  "\u2581Antonio": 2095,
  "\u2581managed": 2096,
  "\u2581sending": 2097,
  "\u2581Pochettino": 2098,
  "\u2581hope": 2099,
  "\u2581Mitoma": 2100,
  "\u2581Palhin": 2101,
  "\u2581beaten": 2102,
  "\u2581instead": 2103,
  "\u2581manages": 2104,
  "\u2581problems": 2105,
  "-3):": 2106,
  "haps": 2107,
  "ipped": 2108,
  "\u2581Dunk": 2109,
  "\u2581Euro": 2110,
  "\u2581done": 2111,
  "\u2581Palhinha": 2112,
  "\u2581conceding": 2113,
  "NT": 2114,
  "aff": 2115,
  "ALLLL": 2116,
  "\u2581OVER": 2117,
  "\u2581sent": 2118,
  "ILL": 2119,
  "iling": 2120,
  "\u2581Elli": 2121,
  "\u2581join": 2122,
  "\u2581runs": 2123,
  "ething": 2124,
  "ardiola": 2125,
  "\u2581seconds": 2126,
  "\u2581Guardiola": 2127,
  "\u2581pa": 2128,
  "here": 2129,
  "\u2581Gre": 2130,
  "\u2581arm": 2131,
  "pions": 2132,
  "\u2581above": 2133,
  "\u2581Kilman": 2134,
  "\u2581Romero": 2135,
  "\u2581bounces": 2136,
  "\u2581conceded": 2137,
  "\u2581Champions": 2138,
  "eed": 2139,
  "\u2581PE": 2140,
  "lare": 2141,
  "medi": 2142,
  "\u2581Pet": 2143,
  "\u2581AR": 2144,
  "\u2581day": 2145,
  "\u2581sign": 2146,
  "\u2581immedi": 2147,
  "\u2581rushes": 2148,
  "\u2581strikes": 2149,
  "\u2581powerful": 2150,
  "\u2581relegation": 2151,
  "LOSE": 2152,
  "\u2581CHE": 2153,
  "range": 2154,
  "\u2581Walk": 2155,
  "\u2581simp": 2156,
  "\u2581CLOSE": 2157,
  "\u2581White": 2158,
  "\u2581Sm": 2159,
  "ially": 2160,
  "waite": 2161,
  "\u2581Bran": 2162,
  "\u2581conc": 2163,
  "\u2581drive": 2164,
  "\u2581oppos": 2165,
  "\u2581clears": 2166,
  "omething": 2167,
  "\u2581Goodison": 2168,
  "VES": 2169,
  "\u2581Ke": 2170,
  "week": 2171,
  "\u2581cal": 2172,
  "\u2581let": 2173,
  "NALTY": 2174,
  "alish": 2175,
  "\u2581Gusto": 2176,
  "thwaite": 2177,
  "\u2581during": 2178,
  "\u2581giving": 2179,
  "\u2581PENALTY": 2180,
  "\u2581finally": 2181,
  "\u2581heading": 2182,
  "\u2581respond": 2183,
  "\u2581Grealish": 2184,
  "\u2581Branthwaite": 2185,
  "do": 2186,
  "cek": 2187,
  "bles": 2188,
  "ible": 2189,
  "icks": 2190,
  "\u2581WOL": 2191,
  "\u2581Sarr": 2192,
  "\u2581Clare": 2193,
  "\u2581beats": 2194,
  "\u2581Soucek": 2195,
  "\u2581WOLVES": 2196,
  "\u2581Walker": 2197,
  "\u2581lovely": 2198,
  "\u2581Petrovic": 2199,
  "\u2581something": 2200,
  "ux": 2201,
  "fal": 2202,
  "ilo": 2203,
  "kes": 2204,
  "arge": 2205,
  "\u2581Cou": 2206,
  "\u2581Kab": 2207,
  "\u2581McT": 2208,
  "SENAL": 2209,
  "\u2581Heck": 2210,
  "ominay": 2211,
  "\u2581Coufal": 2212,
  "\u2581easily": 2213,
  "\u2581switch": 2214,
  "\u2581ARSENAL": 2215,
  "\u2581Clarets": 2216,
  "\u2581rolling": 2217,
  "\u2581winless": 2218,
  "\u2581Christie": 2219,
  "\u2581McTominay": 2220,
  "cor": 2221,
  "leas": 2222,
  "\u2581Bal": 2223,
  "\u2581show": 2224,
  "anchez": 2225,
  "\u2581Kabore": 2226,
  "\u2581Sanchez": 2227,
  "\u2581midweek": 2228,
  "\u2581competitions": 2229,
  "der": 2230,
  "uff": 2231,
  "\u2581em": 2232,
  "\u2581Cas": 2233,
  "\u2581Wel": 2234,
  "\u2581Caic": 2235,
  "\u2581expect": 2236,
  "\u2581keeping": 2237,
  "\u2581shooting": 2238,
  "GH": 2239,
  "\u2581gl": 2240,
  "\u25810-0": 2241,
  "\u2581num": 2242,
  "onder": 2243,
  "\u2581heav": 2244,
  "\u2581Smith": 2245,
  "\u2581pulls": 2246,
  "\u2581Caicedo": 2247,
  "\u2581struggled": 2248,
  "\u2581Lo": 2249,
  "\u2581Dev": 2250,
  "\u2581Mol": 2251,
  "\u2581med": 2252,
  "ineux": 2253,
  "\u2581Bent": 2254,
  "\u2581mist": 2255,
  "\u2581zone": 2256,
  "\u2581Turner": 2257,
  "\u2581Molineux": 2258,
  "\u2581deflects": 2259,
  "\u2581comfortable": 2260,
  "sa": 2261,
  "sw": 2262,
  "LSE": 2263,
  "OOL": 2264,
  "ILLA": 2265,
  "LSEA": 2266,
  "POOL": 2267,
  "\u2581200": 2268,
  "\u2581init": 2269,
  "\u2581shir": 2270,
  "\u2581such": 2271,
  "\u2581LIVER": 2272,
  "\u2581Muniz": 2273,
  "\u2581VILLA": 2274,
  "\u2581blast": 2275,
  "\u2581conse": 2276,
  "\u2581scram": 2277,
  "\u2581Devils": 2278,
  "\u2581CHELSEA": 2279,
  "\u2581LIVERPOOL": 2280,
  "ca": 2281,
  "ld": 2282,
  "pl": 2283,
  "Burn": 2284,
  "beck": 2285,
  "\u2581Hud": 2286,
  "\u2581Tay": 2287,
  "\u2581Bill": 2288,
  "\u2581ends": 2289,
  "\u2581thum": 2290,
  "cutive": 2291,
  "\u2581hands": 2292,
  "\u2581until": 2293,
  "\u2581Taylor": 2294,
  "\u2581Welbeck": 2295,
  "\u2581goalwards": 2296,
  "AST": 2297,
  "eele": 2298,
  "ists": 2299,
  "mark": 2300,
  "\u2581Tot": 2301,
  "\u2581avo": 2302,
  "\u2581cru": 2303,
  "icius": 2304,
  "\u2581real": 2305,
  "\u2581Chong": 2306,
  "\u2581Steele": 2307,
  "\u2581seeing": 2308,
  "\u2581Vinicius": 2309,
  "\u2581consecutive": 2310,
  "TH": 2311,
  "deb": 2312,
  "yan": 2313,
  "rodu": 2314,
  "teta": 2315,
  "\u2581Ram": 2316,
  "\u2581occ": 2317,
  "Burnie": 2318,
  "\u2581Arteta": 2319,
  "\u2581McBurnie": 2320,
  "uk": 2321,
  "urp": 2322,
  "\u2581lack": 2323,
  "\u2581produ": 2324,
  "\u2581react": 2325,
  "\u2581swings": 2326,
  "\u2581contact": 2327,
  "\u2581rebound": 2328,
  "\u2581comfortably": 2329,
  "WC": 2330,
  "Odo": 2331,
  "\u258116": 2332,
  "Odoi": 2333,
  "ters": 2334,
  "uire": 2335,
  "ASTLE": 2336,
  "\u2581(4-3": 2337,
  "\u2581Coll": 2338,
  "\u2581NEWC": 2339,
  "\u2581dart": 2340,
  "\u2581sear": 2341,
  "\u2581Chris": 2342,
  "\u2581Archer": 2343,
  "\u2581Hudson": 2344,
  "\u2581wonder": 2345,
  "\u2581Maguire": 2346,
  "\u2581created": 2347,
  "\u2581introdu": 2348,
  "\u2581NEWCASTLE": 2349,
  "\u2581LU": 2350,
  "\u25812-2": 2351,
  "\u2581air": 2352,
  "kolen": 2353,
  "\u2581year": 2354,
  "\u2581might": 2355,
  "kolenko": 2356,
  "\u2581Ramsey": 2357,
  "\u2581starts": 2358,
  "\u2581Norgaard": 2359,
  "\u2581Mykolenko": 2360,
  "\u2581Robertson": 2361,
  "EST": 2362,
  "\u2581saw": 2363,
  "\u2581Adeb": 2364,
  "\u2581keeps": 2365,
  "\u2581later": 2366,
  "\u2581latest": 2367,
  "load": 2368,
  "oyes": 2369,
  "ring": 2370,
  "\u2581Howe": 2371,
  "\u2581Toti": 2372,
  "\u2581Moyes": 2373,
  "\u2581ready": 2374,
  "\u2581misses": 2375,
  "\u2581Adebayo": 2376,
  "\u2581returns": 2377,
  "\u2581running": 2378,
  "rah": 2379,
  "yne": 2380,
  "!!!!": 2381,
  "\u2581batt": 2382,
  "\u2581pati": 2383,
  "\u2581sets": 2384,
  "\u2581Frank": 2385,
  "ex": 2386,
  "She": 2387,
  "hil": 2388,
  "\u2581Aw": 2389,
  "\u2581Old": 2390,
  "icial": 2391,
  "oniyi": 2392,
  "\u2581EVER": 2393,
  "ashing": 2394,
  "\u2581Antony": 2395,
  "\u2581bright": 2396,
  "\u2581denied": 2397,
  "\u2581Awoniyi": 2398,
  "\u2581EVERTON": 2399,
  "\u2581beating": 2400,
  "gl": 2401,
  "ny": 2402,
  "ina": 2403,
  "Shea": 2404,
  "ares": 2405,
  "\u2581Est": 2406,
  "\u2581HAM": 2407,
  "\u2581how": 2408,
  "ompan": 2409,
  "oster": 2410,
  "\u2581fort": 2411,
  "\u2581hard": 2412,
  "\u2581Bruyne": 2413,
  "\u2581Davies": 2414,
  "\u2581desper": 2415,
  "\u2581Elliott": 2416,
  "rid": 2417,
  "\u2581BU": 2418,
  "LOCK": 2419,
  "ogle": 2420,
  "\u2581cre": 2421,
  "stone": 2422,
  "ompany": 2423,
  "\u2581Bogle": 2424,
  "\u2581Foster": 2425,
  "\u2581Janelt": 2426,
  "\u2581Collins": 2427,
  "\u2581Kompany": 2428,
  "\u2581combine": 2429,
  "\u2581Johnstone": 2430,
  "\u2581defending": 2431,
  "no": 2432,
  "lev": 2433,
  "ren": 2434,
  "\u2581BRI": 2435,
  "\u2581Dis": 2436,
  "\u2581Ken": 2437,
  "ongst": 2438,
  "\u2581WEST": 2439,
  "\u2581BLOCK": 2440,
  "\u2581shows": 2441,
  "\u2581vital": 2442,
  "\u2581bursts": 2443,
  "\u2581leading": 2444,
  "\u2581(4-3-3):": 2445,
  "\u2581official": 2446,
  "ORD": 2447,
  "ned": 2448,
  "\u2581More": 2449,
  "\u2581Verb": 2450,
  "\u2581ease": 2451,
  "\u2581Konsa": 2452,
  "\u2581March": 2453,
  "\u2581clips": 2454,
  "\u2581hoping": 2455,
  "\u2581unable": 2456,
  "\u2581perhaps": 2457,
  "asi": 2458,
  "its": 2459,
  "rab": 2460,
  "ifth": 2461,
  "\u25813-2": 2462,
  "\u2581Bas": 2463,
  "\u2581she": 2464,
  "athan": 2465,
  "ingra": 2466,
  "irney": 2467,
  "\u2581neat": 2468,
  "\u2581LUTON": 2469,
  "\u2581Scott": 2470,
  "\u2581Disasi": 2471,
  "\u2581defeats": 2472,
  "WN": 2473,
  "rey": 2474,
  "\u2581LE": 2475,
  "arde": 2476,
  "chen": 2477,
  "\u2581Man": 2478,
  "ingly": 2479,
  "otter": 2480,
  "ruggen": 2481,
  "\u2581Olise": 2482,
  "\u2581award": 2483,
  "\u2581withd": 2484,
  "\u2581Nathan": 2485,
  "\u2581Oliver": 2486,
  "\u2581Adingra": 2487,
  "\u2581Cairney": 2488,
  "\u2581manager": 2489,
  "\u2581Williams": 2490,
  "\u2581Verbruggen": 2491,
  "HAT": 2492,
  "\u2581sn": 2493,
  "\u2581Zin": 2494,
  "obert": 2495,
  "chenko": 2496,
  "legarde": 2497,
  "\u2581impact": 2498,
  "swinging": 2499,
  "\u2581Odobert": 2500,
  "\u2581offload": 2501,
  "\u2581underway": 2502,
  "\u2581Zinchenko": 2503,
  "\u2581Bellegarde": 2504,
  "\u2581deflection": 2505,
  "\u2581impressive": 2506,
  "ja": 2507,
  "\u258114": 2508,
  "\u2581Ake": 2509,
  "\u2581isn": 2510,
  "\u2581feed": 2511,
  "\u2581draws": 2512,
  "\u2581fifth": 2513,
  "\u2581picked": 2514,
  "lie": 2515,
  "\u2581aw": 2516,
  "\u2581BRE": 2517,
  "\u2581acc": 2518,
  "emiro": 2519,
  "ooper": 2520,
  "Potter": 2521,
  "marked": 2522,
  "\u2581drags": 2523,
  "\u2581create": 2524,
  "\u2581surely": 2525,
  "\u2581assists": 2526,
  "\u2581medical": 2527,
  "\u2581Casemiro": 2528,
  "\u2581appearances": 2529,
  "app": 2530,
  "\u2581Ev": 2531,
  "FORD": 2532,
  "LHAM": 2533,
  "\u2581Vit": 2534,
  "\u2581hig": 2535,
  "urphy": 2536,
  "\u2581FULHAM": 2537,
  "\u2581Konate": 2538,
  "\u2581Longst": 2539,
  "\u2581Murphy": 2540,
  "\u2581clever": 2541,
  "\u2581Murillo": 2542,
  "\u2581support": 2543,
  "\u2581trouble": 2544,
  "\u2581Longstaff": 2545,
  "EL": 2546,
  "ALA": 2547,
  "LEY": 2548,
  "end": 2549,
  "ots": 2550,
  "\u2581Bar": 2551,
  "\u2581Tim": 2552,
  "\u2581Zani": 2553,
  "erslev": 2554,
  "nderson": 2555,
  "\u2581Vitinho": 2556,
  "\u2581Zaniolo": 2557,
  "\u2581cutback": 2558,
  "\u2581Roerslev": 2559,
  "\u2581goalscor": 2560,
  "\u2581meetings": 2561,
  "\u2581unmarked": 2562,
  "\u2581Henderson": 2563,
  "CE": 2564,
  "nel": 2565,
  "GHTON": 2566,
  "olute": 2567,
  "\u2581Biss": 2568,
  "\u2581Cast": 2569,
  "\u2581dist": 2570,
  "\u2581Bueno": 2571,
  "\u2581allows": 2572,
  "\u2581catches": 2573,
  "\u2581remains": 2574,
  "\u2581BRIGHTON": 2575,
  "\u2581Bissouma": 2576,
  "Re": 2577,
  "cle": 2578,
  "ova": 2579,
  "\u258130": 2580,
  "leos": 2581,
  "\u2581Eri": 2582,
  "\u2581Mil": 2583,
  "\u2581ham": 2584,
  "\u2581tame": 2585,
  "leosho": 2586,
  "ordova": 2587,
  "possess": 2588,
  "\u2581firing": 2589,
  "\u2581fortun": 2590,
  "ITY": 2591,
  "TTE": 2592,
  "Reid": 2593,
  "\u2581Ler": 2594,
  "\u2581met": 2595,
  "OREST": 2596,
  "\u2581CITY": 2597,
  "\u2581Matt": 2598,
  "\u2581FOREST": 2599,
  "\u2581Larsen": 2600,
  "\u2581confid": 2601,
  "\u2581disapp": 2602,
  "\u2581Koleosho": 2603,
  "\u2581dispossess": 2604,
  "\u2581immediately": 2605,
  "KE": 2606,
  "orn": 2607,
  "pla": 2608,
  "val": 2609,
  "atic": 2610,
  "\u2581enc": 2611,
  "\u2581ser": 2612,
  "\u2581Ryan": 2613,
  "\u2581laun": 2614,
  "\u2581Lerma": 2615,
  "\u2581haven": 2616,
  "\u2581lifts": 2617,
  "\u2581Fabian": 2618,
  "\u2581Mitche": 2619,
  "\u2581breaks": 2620,
  "\u2581outing": 2621,
  "\u2581stages": 2622,
  "\u2581appears": 2623,
  "EM": 2624,
  "bling": 2625,
  "\u2581Broo": 2626,
  "\u2581diff": 2627,
  "\u2581hist": 2628,
  "\u2581qual": 2629,
  "cember": 2630,
  "\u2581David": 2631,
  "\u2581Yates": 2632,
  "\u2581heavy": 2633,
  "\u2581disappo": 2634,
  "\u2581options": 2635,
  "\u2581Mitchell": 2636,
  "\u2581anything": 2637,
  "\u2581replacing": 2638,
  "gan": 2639,
  "lud": 2640,
  "agne": 2641,
  "atur": 2642,
  "uary": 2643,
  "\u2581our": 2644,
  "\u2581sus": 2645,
  "amall": 2646,
  "\u2581Bobb": 2647,
  "\u2581Dias": 2648,
  "\u2581Lane": 2649,
  "alless": 2650,
  "\u2581Andre": 2651,
  "\u2581appro": 2652,
  "\u2581Brooks": 2653,
  "\u2581Bramall": 2654,
  "\u2581Edwards": 2655,
  "\u2581mistake": 2656,
  "\u2581December": 2657,
  "\u2581difficul": 2658,
  "\u2581successive": 2659,
  "\u2581Ne": 2660,
  "rick": 2661,
  "will": 2662,
  "\u2581199": 2663,
  "\u2581doing": 2664,
  "\u2581waiting": 2665,
  "\u2581Castagne": 2666,
  "\u2581goalless": 2667,
  "\u2581resulting": 2668,
  "\u2581Bo": 2669,
  "\u2581BURN": 2670,
  "\u2581WHAT": 2671,
  "NTFORD": 2672,
  "\u2581Vital": 2673,
  "\u2581avoid": 2674,
  "\u2581slips": 2675,
  "\u2581flicks": 2676,
  "\u2581Colwill": 2677,
  "\u2581January": 2678,
  "\u2581prevent": 2679,
  "\u2581momentum": 2680,
  "\u2581BRENTFORD": 2681,
  "EMOU": 2682,
  "OURN": 2683,
  "\u2581dead": 2684,
  "EMOUTH": 2685,
  "\u2581BOURN": 2686,
  "\u2581keeper": 2687,
  "\u2581attempted": 2688,
  "\u2581difficult": 2689,
  "\u2581BOURNEMOUTH": 2690,
  "zes": 2691,
  "\u2581Co": 2692,
  "icha": 2693,
  "\u2581bod": 2694,
  "\u25812023": 2695,
  "\u2581wall": 2696,
  "\u2581Micha": 2697,
  "\u2581enter": 2698,
  "\u2581seems": 2699,
  "\u2581BURNLEY": 2700,
  "\u2581Billing": 2701,
  "\u2581Cordova": 2702,
  "NHAM": 2703,
  "elly": 2704,
  "\u2581End": 2705,
  "ished": 2706,
  "\u2581Adam": 2707,
  "\u2581Pope": 2708,
  "\u2581hook": 2709,
  "\u2581Berge": 2710,
  "\u2581TOTTE": 2711,
  "\u2581along": 2712,
  "\u2581holds": 2713,
  "\u2581occas": 2714,
  "\u2581rises": 2715,
  "\u2581marker": 2716,
  "\u2581TOTTENHAM": 2717,
  "\u2581wonderful": 2718,
  "ji": 2719,
  "\u2581Mi": 2720,
  "fted": 2721,
  "tend": 2722,
  "\u2581GOOD": 2723,
  "\u2581lose": 2724,
  "\u2581brief": 2725,
  "IN": 2726,
  "kan": 2727,
  "tim": 2728,
  "STON": 2729,
  "ueke": 2730,
  "\u2581Tie": 2731,
  "\u2581cap": 2732,
  "\u2581car": 2733,
  "aches": 2734,
  "kanji": 2735,
  "\u2581cruc": 2736,
  "\u2581derb": 2737,
  "lemans": 2738,
  "\u2581ASTON": 2739,
  "\u2581Akanji": 2740,
  "\u2581Madueke": 2741,
  "\u2581drawing": 2742,
  "\u2581pushing": 2743,
  "\u2581Tielemans": 2744,
  "\u2581continues": 2745,
  "ELD": 2746,
  "IELD": 2747,
  "hony": 2748,
  "lupp": 2749,
  "onan": 2750,
  "otte": 2751,
  "\u2581NOT": 2752,
  "OAAAA": 2753,
  "\u2581Just": 2754,
  "\u2581race": 2755,
  "placed": 2756,
  "\u2581Hecke": 2757,
  "\u2581Jones": 2758,
  "\u2581Buonan": 2759,
  "\u2581blocks": 2760,
  "\u2581sticks": 2761,
  "\u2581Anthony": 2762,
  "\u2581Schlupp": 2763,
  "\u2581history": 2764,
  "\u2581Brownhill": 2765,
  "\u2581withdrawn": 2766,
  "\u2581Buonanotte": 2767,
  "ssa": 2768,
  "\u2581(2": 2769,
  "\u2581Luk": 2770,
  "\u2581glo": 2771,
  "ALACE": 2772,
  "\u2581Road": 2773,
  "\u2581term": 2774,
  "\u2581speed": 2775,
  "\u2581PALACE": 2776,
  "\u2581turned": 2777,
  "\u2581Norwood": 2778,
  "\u2581cutting": 2779,
  "FL": 2780,
  "HEFF": 2781,
  "\u2581EFL": 2782,
  "inton": 2783,
  "ising": 2784,
  "\u2581Erik": 2785,
  "\u2581care": 2786,
  "\u2581slow": 2787,
  "\u2581SAVED": 2788,
  "\u2581SHEFF": 2789,
  "\u2581centr": 2790,
  "\u2581stays": 2791,
  "\u2581Cooper": 2792,
  "\u2581travel": 2793,
  "\u2581distance": 2794,
  "\u2581Joelinton": 2795,
  "\u2581SHEFFIELD": 2796,
  "hi": 2797,
  "iba": 2798,
  "\u258145": 2799,
  "oyle": 2800,
  "\u2581sing": 2801,
  "\u2581Doyle": 2802,
  "\u2581Zouma": 2803,
  "\u2581bring": 2804,
  "\u2581count": 2805,
  "\u2581Saliba": 2806,
  "\u2581streak": 2807,
  "\u2581English": 2808,
  "\u2581joining": 2809,
  "\u2581receiving": 2810,
  "uc": 2811,
  "vi": 2812,
  "ung": 2813,
  "wing": 2814,
  "\u2581Con": 2815,
  "\u2581Hug": 2816,
  "\u2581fou": 2817,
  "itive": 2818,
  "worth": 2819,
  "\u2581kept": 2820,
  "\u2581prov": 2821,
  "\u2581road": 2822,
  "\u2581swit": 2823,
  "\u2581slide": 2824,
  "\u2581Doming": 2825,
  "\u2581missed": 2826,
  "\u2581netted": 2827,
  "\u2581crucial": 2828,
  "\u2581dropping": 2829,
  "\u2581Dominguez": 2830,
  "\u2581goalscorer": 2831,
  "\u2581Wer": 2832,
  "\u2581mon": 2833,
  "lling": 2834,
  "\u2581Chil": 2835,
  "\u2581clim": 2836,
  "\u2581alive": 2837,
  "\u2581charg": 2838,
  "\u2581Hughes": 2839,
  "\u2581Werner": 2840,
  "\u2581charge": 2841,
  "\u2581moving": 2842,
  "\u2581putting": 2843,
  "\u2581Chilwell": 2844,
  "org": 2845,
  "ril": 2846,
  "guil": 2847,
  "ined": 2848,
  "\u2581Now": 2849,
  "\u2581fiz": 2850,
  "\u2581Jorg": 2851,
  "\u2581sheet": 2852,
  "\u2581compos": 2853,
  "\u2581recent": 2854,
  "\u2581single": 2855,
  "\u2581thanks": 2856,
  "\u2581holding": 2857,
  "get": 2858,
  "\u2581FA": 2859,
  "acks": 2860,
  "glas": 2861,
  "goal": 2862,
  "mund": 2863,
  "work": 2864,
  "\u2581FOR": 2865,
  "\u2581Moor": 2866,
  "\u2581Turf": 2867,
  "\u2581cons": 2868,
  "\u2581Gueye": 2869,
  "\u2581Kenil": 2870,
  "\u2581these": 2871,
  "\u2581Douglas": 2872,
  "\u2581Kenilworth": 2873,
  "bj": 2874,
  "ody": 2875,
  "\u2581Gv": 2876,
  "ento": 2877,
  "heus": 2878,
  "\u2581Liv": 2879,
  "\u2581pot": 2880,
  "\u2581Endo": 2881,
  "\u2581lays": 2882,
  "ardiol": 2883,
  "\u2581Bruun": 2884,
  "\u2581never": 2885,
  "ramento": 2886,
  "\u2581Matheus": 2887,
  "\u2581enjoyed": 2888,
  "\u2581Gvardiol": 2889,
  "\u2581Livramento": 2890,
  "\u2581completely": 2891,
  "\u2581co": 2892,
  "\u2581Bot": 2893,
  "\u2581Des": 2894,
  "\u2581Nel": 2895,
  "asing": 2896,
  "chang": 2897,
  "\u2581nods": 2898,
  "\u2581Domin": 2899,
  "\u2581Satur": 2900,
  "\u2581heart": 2901,
  "\u2581smart": 2902,
  "\u2581Botman": 2903,
  "\u2581Moreno": 2904,
  "\u2581Nelson": 2905,
  "\u2581showing": 2906,
  "\u2581Saturday": 2907,
  "\u25819": 2908,
  "ats": 2909,
  "uel": 2910,
  "\u2581IT": 2911,
  "yeka": 2912,
  "\u2581hal": 2913,
  "agers": 2914,
  "aring": 2915,
  "bjerg": 2916,
  "\u25812022": 2917,
  "\u2581Reed": 2918,
  "\u2581TOWN": 2919,
  "\u2581delay": 2920,
  "\u2581floor": 2921,
  "\u2581needs": 2922,
  "TINGHAM": 2923,
  "\u2581Danilo": 2924,
  "\u2581Onyeka": 2925,
  "\u2581Wilder": 2926,
  "\u2581drills": 2927,
  "\u2581handball": 2928,
  "\u2581NOTTINGHAM": 2929,
  "AT": 2930,
  "RY": 2931,
  "ton": 2932,
  "\u2581Cl": 2933,
  "ruck": 2934,
  "\u2581Max": 2935,
  "\u2581Ven": 2936,
  "\u2581row": 2937,
  "\u2581van": 2938,
  "ordan": 2939,
  "\u2581Aina": 2940,
  "\u2581Pinn": 2941,
  "\u2581ever": 2942,
  "\u2581Broja": 2943,
  "\u2581saves": 2944,
  "\u2581Jordan": 2945,
  "\u2581Reguil": 2946,
  "\u2581likely": 2947,
  "\u2581potent": 2948,
  "\u2581respon": 2949,
  "\u2581Pinnock": 2950,
  "\u2581driving": 2951,
  "\u2581Hojbjerg": 2952,
  "\u2581absolute": 2953,
  "\u2581slightly": 2954,
  "\u2581Tr": 2955,
  "acob": 2956,
  "engi": 2957,
  "guez": 2958,
  "hest": 2959,
  "mour": 2960,
  "\u2581Var": 2961,
  "\u25812021": 2962,
  "\u2581Kova": 2963,
  "\u2581Jacob": 2964,
  "\u2581Mengi": 2965,
  "\u2581deser": 2966,
  "\u2581rever": 2967,
  "\u2581Barnes": 2968,
  "\u2581Varane": 2969,
  "\u2581rather": 2970,
  "\u2581suppor": 2971,
  "\u2581Despite": 2972,
  "\u2581Gilmour": 2973,
  "\u2581interval": 2974,
  "iw": 2975,
  "na": 2976,
  "cic": 2977,
  "ior": 2978,
  "ridge": 2979,
  "\u2581Main": 2980,
  "\u2581coll": 2981,
  "hodzic": 2982,
  "\u2581Harry": 2983,
  "\u2581Trust": 2984,
  "\u2581extend": 2985,
  "\u2581Kovacic": 2986,
  "\u2581picking": 2987,
  "\u2581Reguilon": 2988,
  "\u2581opponents": 2989,
  "lla": 2990,
  "\u2581Ah": 2991,
  "elle": 2992,
  "\u2581Cuc": 2993,
  "\u2581Gud": 2994,
  "\u2581Tor": 2995,
  "\u2581saf": 2996,
  "herty": 2997,
  "\u2581Emir": 2998,
  "\u2581Foll": 2999,
  "\u2581Post": 3000,
  "\u2581Ahmed": 3001,
  "\u2581Kelle": 3002,
  "\u2581round": 3003,
  "\u2581Bridge": 3004,
  "\u2581Cucure": 3005,
  "\u2581Mainoo": 3006,
  "\u2581Patter": 3007,
  "\u2581Torres": 3008,
  "\u2581Trusty": 3009,
  "\u2581concer": 3010,
  "\u2581Doherty": 3011,
  "\u2581Emirates": 3012,
  "\u2581Kelleher": 3013,
  "\u2581Following": 3014,
  "\u2581Patterson": 3015,
  "\u2581appearance": 3016,
  "\u2581Ahmedhodzic": 3017,
  "ago": 3018,
  "\u2581ev": 3019,
  "inan": 3020,
  "\u2581due": 3021,
  "arrow": 3022,
  "\u2581Only": 3023,
  "\u2581wast": 3024,
  "inning": 3025,
  "upinan": 3026,
  "\u2581force": 3027,
  "\u2581shirt": 3028,
  "\u2581gloves": 3029,
  "\u2581Gudmund": 3030,
  "\u2581Toffolo": 3031,
  "\u2581enjoying": 3032,
  "\u2581football": 3033,
  "\u2581Cucurella": 3034,
  "\u2581Estupinan": 3035,
  "\u2581Rodriguez": 3036,
  "ED": 3037,
  "elof": 3038,
  "pril": 3039,
  "send": 3040,
  "\u2581Joe": 3041,
  "\u2581ind": 3042,
  "\u2581lun": 3043,
  "\u2581Lind": 3044,
  "\u2581legs": 3045,
  "amford": 3046,
  "ention": 3047,
  "\u2581Clark": 3048,
  "\u2581bounce": 3049,
  "\u2581suffer": 3050,
  "\u2581delight": 3051,
  "\u2581Lindelof": 3052,
  "\u2581Townsend": 3053,
  "\u2581Cottagers": 3054,
  "IS": 3055,
  "br": 3056,
  "ele": 3057,
  "lou": 3058,
  "\u2581er": 3059,
  "ecog": 3060,
  "\u25814-1": 3061,
  "\u2581Mee": 3062,
  "\u2581ago": 3063,
  "berch": 3064,
  "\u2581fray": 3065,
  "\u2581fouls": 3066,
  "ecoglou": 3067,
  "\u2581Graven": 3068,
  "\u2581narrow": 3069,
  "\u2581Stamford": 3070,
  "\u2581difference": 3071,
  "\u2581Gravenberch": 3072,
  "\u2581Postecoglou": 3073,
  "how": 3074,
  "jum": 3075,
  "RYST": 3076,
  "ully": 3077,
  "\u2581GRE": 3078,
  "\u2581act": 3079,
  "\u2581tem": 3080,
  "\u2581tit": 3081,
  "\u2581tur": 3082,
  "adley": 3083,
  "andro": 3084,
  "\u2581feel": 3085,
  "\u2581thin": 3086,
  "RYSTAL": 3087,
  "\u2581Evans": 3088,
  "\u2581includ": 3089,
  "\u2581leaves": 3090,
  "\u2581Bradley": 3091,
  "\u2581CRYSTAL": 3092,
  "\u2581injured": 3093,
  "\u2581leaving": 3094,
  "AD": 3095,
  "cto": 3096,
  "ept": 3097,
  "dock": 3098,
  "enes": 3099,
  "iago": 3100,
  "\u2581Hod": 3101,
  "\u2581its": 3102,
  "ities": 3103,
  "\u2581Lall": 3104,
  "ctober": 3105,
  "ipping": 3106,
  "\u2581opens": 3107,
  "\u2581Lallana": 3108,
  "erv": 3109,
  "ices": 3110,
  "rigi": 3111,
  "\u2581Jos": 3112,
  "\u2581Nic": 3113,
  "mates": 3114,
  "\u2581diss": 3115,
  "lessly": 3116,
  "\u2581GREAT": 3117,
  "\u2581Origi": 3118,
  "\u2581ended": 3119,
  "\u2581impro": 3120,
  "\u2581squad": 3121,
  "\u2581Bassey": 3122,
  "\u2581netting": 3123,
  "\u2581reverse": 3124,
  "pa": 3125,
  "OST": 3126,
  "ete": 3127,
  "\u2581gu": 3128,
  "juma": 3129,
  "oted": 3130,
  "roke": 3131,
  "\u2581Cul": 3132,
  "ember": 3133,
  "\u2581caut": 3134,
  "\u2581hang": 3135,
  "igning": 3136,
  "\u2581April": 3137,
  "\u2581carry": 3138,
  "\u2581dives": 3139,
  "\u2581sails": 3140,
  "\u2581sixth": 3141,
  "\u2581couldn": 3142,
  "\u2581follow": 3143,
  "\u2581fouled": 3144,
  "\u2581Danjuma": 3145,
  "\u2581October": 3146,
  "\u2581opposition": 3147,
  "ND": 3148,
  "kez": 3149,
  "odf": 3150,
  "\u2581So": 3151,
  "ants": 3152,
  "\u2581Ker": 3153,
  "\u2581bra": 3154,
  "ering": 3155,
  "\u2581Boly": 3156,
  "\u2581Godf": 3157,
  "\u2581Miley": 3158,
  "\u2581among": 3159,
  "\u2581Cullen": 3160,
  "\u2581Kerkez": 3161,
  "\u2581claims": 3162,
  "\u2581regain": 3163,
  "\u2581Godfrey": 3164,
  "\u2581central": 3165,
  "\u2581dissent": 3166,
  "\u2581standing": 3167,
  "\u2581Fabianski": 3168,
  "\u2581meanwhile": 3169,
  "\u2581perfectly": 3170,
  "sson": 3171,
  "elebr": 3172,
  "\u2581pokes": 3173,
  "\u2581title": 3174,
  "\u2581trick": 3175,
  "\u2581simple": 3176,
  "\u2581arrives": 3177,
  "\u2581decides": 3178,
  "\u2581quality": 3179,
  "\u2581fortunate": 3180,
  "iet": 3181,
  "jer": 3182,
  "\u2581Ajer": 3183,
  "\u2581poss": 3184,
  "ortant": 3185,
  "\u2581Moham": 3186,
  "\u2581blows": 3187,
  "\u2581loses": 3188,
  "\u2581celebr": 3189,
  "\u2581flicked": 3190,
  "\u2581approach": 3191,
  "\u2581crossing": 3192,
  "\u2581response": 3193,
  "\u2581GOOOOOOOO": 3194,
  "\u2581Gudmundsson": 3195,
  "zu": 3196,
  "\u2581At": 3197,
  "onal": 3198,
  "vers": 3199,
  "enesi": 3200,
  "ively": 3201,
  "panzu": 3202,
  "\u2581earn": 3203,
  "\u2581held": 3204,
  "\u2581pres": 3205,
  "\u2581Guehi": 3206,
  "\u2581darts": 3207,
  "\u2581Mpanzu": 3208,
  "\u2581Senesi": 3209,
  "\u2581awarded": 3210,
  "\u2581highest": 3211,
  "\u2581meeting": 3212,
  "\u2581expected": 3213,
  "\u2581substitutes": 3214,
  "elh": 3215,
  "iak": 3216,
  "\u2581En": 3217,
  "ident": 3218,
  "\u2581Selh": 3219,
  "\u2581Tete": 3220,
  "\u2581drib": 3221,
  "\u2581name": 3222,
  "\u2581surp": 3223,
  "\u2581derby": 3224,
  "\u2581relie": 3225,
  "\u2581Ground": 3226,
  "\u2581Milner": 3227,
  "\u2581struck": 3228,
  "\u2581Michael": 3229,
  "\u2581continu": 3230,
  "\u2581Selhurst": 3231,
  "asu": 3232,
  "den": 3233,
  "\u2581Agu": 3234,
  "\u2581mis": 3235,
  "ancur": 3236,
  "\u2581Cook": 3237,
  "\u2581From": 3238,
  "\u2581clin": 3239,
  "\u2581cour": 3240,
  "\u2581pair": 3241,
  "\u2581turf": 3242,
  "\u2581Since": 3243,
  "\u2581overh": 3244,
  "\u2581quiet": 3245,
  "\u2581sever": 3246,
  "\u2581skips": 3247,
  "\u2581releas": 3248,
  "\u2581within": 3249,
  "\u2581missing": 3250,
  "\u2581upfield": 3251,
  "\u2581Jorginho": 3252,
  "\u2581Bentancur": 3253,
  "\u2581different": 3254,
  "\u2581confidence": 3255,
  "\u2581alterations": 3256,
  "\u2581opportunities": 3257,
  "NE": 3258,
  "iy": 3259,
  "ula": 3260,
  "urt": 3261,
  "uled": 3262,
  "\u2581Ira": 3263,
  "\u2581Sin": 3264,
  "\u2581tip": 3265,
  "\u2581tot": 3266,
  "\u2581Brun": 3267,
  "gether": 3268,
  "\u2581Keane": 3269,
  "isterra": 3270,
  "\u2581Europa": 3271,
  "\u2581Iraola": 3272,
  "\u2581floats": 3273,
  "\u2581inviting": 3274,
  "\u2581positive": 3275,
  "\u2581desperate": 3276,
  "\u2581Sinisterra": 3277,
  "\u2581substitution": 3278,
  "bers": 3279,
  "land": 3280,
  "uran": 3281,
  "\u25811-1!": 3282,
  "\u2581Niak": 3283,
  "\u2581aren": 3284,
  "\u2581firm": 3285,
  "\u2581lets": 3286,
  "\u2581Osula": 3287,
  "\u2581pushes": 3288,
  "\u2581latches": 3289,
  "\u2581interest": 3290,
  "\u2581absolutely": 3291,
  "\u2581ma": 3292,
  "\u2581me": 3293,
  "\u2581sk": 3294,
  "ebru": 3295,
  "elso": 3296,
  "\u2581Bur": 3297,
  "\u2581gap": 3298,
  "ashed": 3299,
  "trick": 3300,
  "\u2581didn": 3301,
  "\u2581requ": 3302,
  "\u2581Bruno": 3303,
  "\u2581Celso": 3304,
  "\u2581moves": 3305,
  "ebruary": 3306,
  "\u2581Kamara": 3307,
  "\u2581manage": 3308,
  "\u2581thread": 3309,
  "\u2581neither": 3310,
  "\u2581everyone": 3311,
  "\u2581frustrated": 3312,
  "\u2581inswinging": 3313,
  "oud": 3314,
  "ped": 3315,
  "sim": 3316,
  "yle": 3317,
  "ampt": 3318,
  "gson": 3319,
  "ikas": 3320,
  "weep": 3321,
  "\u2581fav": 3322,
  "\u2581fit": 3323,
  "\u2581Sels": 3324,
  "\u2581Tsim": 3325,
  "\u2581boot": 3326,
  "amptey": 3327,
  "\u2581Duran": 3328,
  "\u2581Kelly": 3329,
  "\u2581enters": 3330,
  "\u2581secure": 3331,
  "\u2581Hodgson": 3332,
  "\u2581Lamptey": 3333,
  "\u2581crowded": 3334,
  "\u2581flashes": 3335,
  "\u2581passing": 3336,
  "\u2581somehow": 3337,
  "\u2581Although": 3338,
  "\u2581Tsimikas": 3339,
  "\u2581recovers": 3340,
  "\u25811.": 3341,
  "\u2581Em": 3342,
  "\u2581bec": 3343,
  "\u2581pla": 3344,
  "astic": 3345,
  "\u2581Sang": 3346,
  "\u2581rare": 3347,
  "\u2581sweep": 3348,
  "\u2581pushed": 3349,
  "\u2581Sangare": 3350,
  "\u2581several": 3351,
  "\u2581although": 3352,
  "\u2581register": 3353,
  "\u2581scoreline": 3354,
  "\u2581frustration": 3355,
  "arn": 3356,
  "cas": 3357,
  "haw": 3358,
  "\u2581No": 3359,
  "born": 3360,
  "\u2581Wan": 3361,
  "\u2581hat": 3362,
  "rahma": 3363,
  "\u2581Shaw": 3364,
  "\u2581fail": 3365,
  "\u2581kind": 3366,
  "\u2581main": 3367,
  "\u2581nice": 3368,
  "\u2581alert": 3369,
  "\u2581climb": 3370,
  "\u2581conne": 3371,
  "\u2581field": 3372,
  "\u2581loops": 3373,
  "ampions": 3374,
  "ovember": 3375,
  "\u2581Stones": 3376,
  "\u2581battle": 3377,
  "\u2581opened": 3378,
  "\u2581overla": 3379,
  "\u2581looping": 3380,
  "\u2581Benrahma": 3381,
  "\u2581bringing": 3382,
  "erd": 3383,
  "ked": 3384,
  "ukw": 3385,
  "Biss": 3386,
  "\u2581Kiw": 3387,
  "\u2581lay": 3388,
  "\u2581nam": 3389,
  "fully": 3390,
  "iyasu": 3391,
  "\u2581POST": 3392,
  "\u2581bund": 3393,
  "\u2581fair": 3394,
  "\u2581hour": 3395,
  "\u2581opts": 3396,
  "\u2581poun": 3397,
  "\u2581wait": 3398,
  "anding": 3399,
  "\u2581feeds": 3400,
  "\u2581slott": 3401,
  "Bissaka": 3402,
  "\u2581Aguerd": 3403,
  "\u2581problem": 3404,
  "\u2581receive": 3405,
  "\u2581stretch": 3406,
  "\u2581February": 3407,
  "\u2581Tomiyasu": 3408,
  "\u2581champions": 3409,
  "\u2581dominated": 3410,
  "\u2581important": 3411,
  "-5": 3412,
  "die": 3413,
  "ual": 3414,
  "-2):": 3415,
  "gent": 3416,
  "uatt": 3417,
  "\u2581Zab": 3418,
  "\u2581days": 3419,
  "\u2581wild": 3420,
  "\u2581Rober": 3421,
  "\u2581meets": 3422,
  "uattara": 3423,
  "\u2581flying": 3424,
  "\u2581search": 3425,
  "\u2581Eriksen": 3426,
  "\u2581surpris": 3427,
  "\u2581scramble": 3428,
  "\u2581composure": 3429,
  "\u2581returning": 3430,
  "\u2581supporters": 3431,
  "dal": 3432,
  "cket": 3433,
  "ines": 3434,
  "ness": 3435,
  "\u2581Sam": 3436,
  "\u2581nor": 3437,
  "arnyi": 3438,
  "\u2581easy": 3439,
  "\u2581lift": 3440,
  "\u2581helps": 3441,
  "\u2581appeal": 3442,
  "\u2581causing": 3443,
  "\u2581Zabarnyi": 3444,
  "\u2581comeback": 3445,
  "\u2581possible": 3446,
  "\u2581switches": 3447,
  "op": 3448,
  "thy": 3449,
  "yer": 3450,
  "\u2581Or": 3451,
  "cess": 3452,
  "hate": 3453,
  "vals": 3454,
  "ways": 3455,
  "\u2581tee": 3456,
  "\u2581Ream": 3457,
  "\u2581prod": 3458,
  "minute": 3459,
  "\u2581Burke": 3460,
  "\u2581Eddie": 3461,
  "\u2581Kiwior": 3462,
  "\u2581drifts": 3463,
  "\u2581gather": 3464,
  "antastic": 3465,
  "\u2581Cottage": 3466,
  "\u2581allowed": 3467,
  "\u2581clearly": 3468,
  "\u2581failing": 3469,
  "\u2581sitting": 3470,
  "\u2581Niakhate": 3471,
  "\u2581November": 3472,
  "li": 3473,
  "ph": 3474,
  "game": 3475,
  "imum": 3476,
  "ying": 3477,
  "\u2581amb": 3478,
  "\u2581sha": 3479,
  "aking": 3480,
  "inted": 3481,
  "point": 3482,
  "\u2581Velt": 3483,
  "\u2581dram": 3484,
  "\u2581Lukic": 3485,
  "\u2581chest": 3486,
  "\u2581displ": 3487,
  "\u2581Craven": 3488,
  "\u2581victor": 3489,
  "eptember": 3490,
  "\u2581Veltman": 3491,
  "\u2581caution": 3492,
  "\u2581channel": 3493,
  "\u2581initial": 3494,
  "\u2581Ouattara": 3495,
  "\u2581deadlock": 3496,
  "\u2581fixtures": 3497,
  "ih": 3498,
  "asce": 3499,
  "ered": 3500,
  "ihad": 3501,
  "lles": 3502,
  "ltim": 3503,
  "\u2581pul": 3504,
  "ought": 3505,
  "\u2581Bell": 3506,
  "ically": 3507,
  "\u2581Lasce": 3508,
  "\u2581Muric": 3509,
  "\u2581Their": 3510,
  "\u2581indic": 3511,
  "\u2581Aarons": 3512,
  "\u2581blasts": 3513,
  "\u2581commit": 3514,
  "\u2581flight": 3515,
  "\u2581convert": 3516,
  "\u2581require": 3517,
  "\u2581results": 3518,
  "\u2581shoulder": 3519,
  "\u2581Lascelles": 3520,
  "\u2581September": 3521,
  "\u2581including": 3522,
  "eba": 3523,
  "\u2581Et": 3524,
  "\u2581Jul": 3525,
  "acked": 3526,
  "\u2581Hins": 3527,
  "\u2581Lock": 3528,
  "\u2581Luke": 3529,
  "\u2581Mean": 3530,
  "\u2581shape": 3531,
  "helwood": 3532,
  "\u2581Baleba": 3533,
  "\u2581Etihad": 3534,
  "\u2581always": 3535,
  "\u2581retain": 3536,
  "\u2581rivals": 3537,
  "\u2581Rodrigo": 3538,
  "\u2581current": 3539,
  "\u2581shortly": 3540,
  "\u2581whipped": 3541,
  "\u2581fantastic": 3542,
  "\u2581Hinshelwood": 3543,
  "eve": 3544,
  "hen": 3545,
  "\u2581Gr": 3546,
  "ried": 3547,
  "sequ": 3548,
  "\u2581boo": 3549,
  "\u2581exp": 3550,
  "\u2581spr": 3551,
  "\u2581Fati": 3552,
  "\u2581unle": 3553,
  "\u2581leads": 3554,
  "\u2581knocks": 3555,
  "\u2581Lockyer": 3556,
  "\u2581closing": 3557,
  "\u2581connect": 3558,
  "\u2581respect": 3559,
  "\u2581subsequ": 3560,
  "ltimately": 3561,
  "\u2581Meanwhile": 3562,
  "ars": 3563,
  "ten": 3564,
  "uss": 3565,
  "\u2581May": 3566,
  "\u2581don": 3567,
  "chman": 3568,
  "forts": 3569,
  "sided": 3570,
  "ugust": 3571,
  "\u2581STAR": 3572,
  "\u2581boss": 3573,
  "\u2581disc": 3574,
  "urious": 3575,
  "vement": 3576,
  "\u2581ruled": 3577,
  "\u2581Argent": 3578,
  "\u2581favour": 3579,
  "\u2581worked": 3580,
  "\u2581Dominic": 3581,
  "\u2581hitting": 3582,
  "\u2581deserved": 3583,
  "LLLLLLLLLLLLLLLL": 3584,
  "jd": 3585,
  "za": 3586,
  "bic": 3587,
  "ded": 3588,
  "ety": 3589,
  "ngs": 3590,
  "\u2581Ig": 3591,
  "\u2581Ra": 3592,
  "test": 3593,
  "\u2581Roy": 3594,
  "\u2581awk": 3595,
  "alajd": 3596,
  "erial": 3597,
  "\u2581Ings": 3598,
  "\u2581Osho": 3599,
  "\u2581none": 3600,
  "\u2581Grbic": 3601,
  "\u2581Lucas": 3602,
  "\u2581chase": 3603,
  "\u2581spots": 3604,
  "\u2581August": 3605,
  "\u2581Kalajd": 3606,
  "\u2581safety": 3607,
  "\u2581awkward": 3608,
  "\u2581efforts": 3609,
  "\u2581furious": 3610,
  "\u2581pulling": 3611,
  "\u2581attention": 3612,
  "\u2581introduced": 3613,
  "ci": 3614,
  "kipp": 3615,
  "uans": 3616,
  "\u2581ref": 3617,
  "\u2581tap": 3618,
  "match": 3619,
  "\u2581wasn": 3620,
  "uansah": 3621,
  "\u2581Skipp": 3622,
  "\u2581often": 3623,
  "\u2581absent": 3624,
  "\u2581encour": 3625,
  "\u2581Referee": 3626,
  "\u2581Richards": 3627,
  "\u2581interven": 3628,
  "\u2581Kalajdzic": 3629,
  "\u2581occasions": 3630,
  "\u2581ultimately": 3631,
  "\u2581interception": 3632,
  "co": 3633,
  "lim": 3634,
  "ular": 3635,
  "\u2581Jay": 3636,
  "rabat": 3637,
  "\u25812020": 3638,
  "\u2581Igor": 3639,
  "\u2581knee": 3640,
  "itious": 3641,
  "\u2581sidel": 3642,
  "\u2581Europe": 3643,
  "\u2581aerial": 3644,
  "\u2581surges": 3645,
  "\u2581protest": 3646,
  "\u2581reaches": 3647,
  "\u2581STARTING": 3648,
  "\u2581clinical": 3649,
  "\u2581creating": 3650,
  "\u2581promising": 3651,
  "\u2581challenges": 3652,
  "RO": 3653,
  "dos": 3654,
  "\u2581Wed": 3655,
  "\u2581You": 3656,
  "\u2581lif": 3657,
  "unday": 3658,
  "\u2581GOOO": 3659,
  "\u2581Ghod": 3660,
  "\u2581Josh": 3661,
  "\u2581happ": 3662,
  "\u2581less": 3663,
  "\u2581room": 3664,
  "\u2581rout": 3665,
  "\u2581tees": 3666,
  "nesday": 3667,
  "\u2581Phill": 3668,
  "\u2581Souza": 3669,
  "\u2581Sunday": 3670,
  "\u2581decent": 3671,
  "\u2581forces": 3672,
  "\u2581number": 3673,
  "\u2581Amrabat": 3674,
  "\u2581Ghoddos": 3675,
  "\u2581concede": 3676,
  "\u2581pressing": 3677,
  "\u2581Wednesday": 3678,
  "\u2581alongside": 3679,
  "\u2581ambitious": 3680,
  "\u2581BA": 3681,
  "irst": 3682,
  "part": 3683,
  "\u25814-0": 3684,
  "\u2581ank": 3685,
  "\u2581iss": 3686,
  "\u2581Rowe": 3687,
  "AAALLL": 3688,
  "italis": 3689,
  "\u2581works": 3690,
  "\u2581Marcus": 3691,
  "\u2581Osborn": 3692,
  "\u2581course": 3693,
  "\u2581forcing": 3694,
  "\u2581patient": 3695,
  "\u2581Phillips": 3696,
  "\u2581victories": 3697,
  "ave": 3698,
  "cape": 3699,
  "four": 3700,
  "nded": 3701,
  "\u2581Mav": 3702,
  "panos": 3703,
  "stant": 3704,
  "\u2581Diop": 3705,
  "\u2581LEAD": 3706,
  "\u2581nerv": 3707,
  "\u2581trip": 3708,
  "\u2581Nunes": 3709,
  "\u2581kicks": 3710,
  "\u2581resum": 3711,
  "\u2581years": 3712,
  "\u2581escape": 3713,
  "\u2581nowhere": 3714,
  "\u2581encourag": 3715,
  "IT": 3716,
  "AIN": 3717,
  "\u2581AG": 3718,
  "\u2581el": 3719,
  "lled": 3720,
  "pens": 3721,
  "pper": 3722,
  "tega": 3723,
  "\u2581Web": 3724,
  "\u2581err": 3725,
  "\u2581lim": 3726,
  "\u2581sum": 3727,
  "\u2581tru": 3728,
  "\u2581Mang": 3729,
  "\u2581fast": 3730,
  "\u2581grow": 3731,
  "\u2581poke": 3732,
  "volley": 3733,
  "\u2581Mavro": 3734,
  "\u2581Mount": 3735,
  "\u2581stops": 3736,
  "\u2581wants": 3737,
  "\u2581GOALLL": 3738,
  "\u2581Ortega": 3739,
  "\u2581lively": 3740,
  "\u2581lofted": 3741,
  "\u2581needed": 3742,
  "\u2581pulled": 3743,
  "amsgaard": 3744,
  "\u2581Mangala": 3745,
  "\u2581Webster": 3746,
  "\u2581concern": 3747,
  "\u2581Anderson": 3748,
  "\u2581Mavropanos": 3749,
  "hip": 3750,
  "\u2581Vie": 3751,
  "\u2581esc": 3752,
  "\u2581par": 3753,
  "arely": 3754,
  "\u2581(3-4": 3755,
  "\u2581Badi": 3756,
  "\u2581Paul": 3757,
  "\u2581Port": 3758,
  "\u2581empt": 3759,
  "\u2581quar": 3760,
  "ashile": 3761,
  "through": 3762,
  "vention": 3763,
  "\u2581Vieira": 3764,
  "\u2581tracks": 3765,
  "\u2581Woodrow": 3766,
  "\u2581signing": 3767,
  "\u2581turning": 3768,
  "\u2581promoted": 3769,
  "\u2581superbly": 3770,
  "\u2581Damsgaard": 3771,
  "\u2581capitalis": 3772,
  "\u2581Badiashile": 3773,
  "gin": 3774,
  "ugo": 3775,
  "year": 3776,
  "\u2581Len": 3777,
  "\u2581Fren": 3778,
  "\u2581Hugo": 3779,
  "\u2581blow": 3780,
  "\u2581Nicol": 3781,
  "\u2581ankle": 3782,
  "\u2581fight": 3783,
  "\u2581month": 3784,
  "\u2581spins": 3785,
  "\u2581intent": 3786,
  "\u2581nearly": 3787,
  "\u2581scores": 3788,
  "\u2581Baldock": 3789,
  "\u2581Martial": 3790,
  "\u2581attacks": 3791,
  "\u2581crashes": 3792,
  "\u2581squares": 3793,
  "\u2581bouncing": 3794,
  "\u2581penalised": 3795,
  "\u2581threatening": 3796,
  "hys": 3797,
  "ons": 3798,
  "\u2581Om": 3799,
  "glet": 3800,
  "iego": 3801,
  "\u2581Hen": 3802,
  "\u2581Mou": 3803,
  "ffect": 3804,
  "ishes": 3805,
  "venth": 3806,
  "\u2581hasn": 3807,
  "string": 3808,
  "\u2581AGAIN": 3809,
  "\u2581Diego": 3810,
  "\u2581Moussa": 3811,
  "\u2581happen": 3812,
  "\u2581helped": 3813,
  "\u2581Lenglet": 3814,
  "\u2581Nicolas": 3815,
  "\u2581display": 3816,
  "\u2581exchang": 3817,
  "\u2581suspens": 3818,
  "\u2581breaking": 3819,
  "\u2581narrowly": 3820,
  "\u2581youngster": 3821,
  "yn": 3822,
  "ush": 3823,
  "\u2581Alb": 3824,
  "\u2581Har": 3825,
  "gress": 3826,
  "\u2581Mark": 3827,
  "\u2581Nuno": 3828,
  "\u2581call": 3829,
  "\u2581prob": 3830,
  "\u2581barely": 3831,
  "\u2581fizzes": 3832,
  "\u2581inches": 3833,
  "\u2581kindly": 3834,
  "\u2581GOOOOOO": 3835,
  "\u2581seventh": 3836,
  "\u2581offloads": 3837,
  "\u2581hamstring": 3838,
  "\u2581remaining": 3839,
  "\u2581intervention": 3840,
  "4.": 3841,
  "ific": 3842,
  "lain": 3843,
  "\u25815-0": 3844,
  "\u2581pin": 3845,
  "arily": 3846,
  "\u2581body": 3847,
  "\u2581surv": 3848,
  "asting": 3849,
  "inting": 3850,
  "\u2581escap": 3851,
  "\u2581anyway": 3852,
  "\u2581pocket": 3853,
  "\u2581dropped": 3854,
  "\u2581complain": 3855,
  "\u2581currently": 3856,
  "\u2581disappointed": 3857,
  "jor": 3858,
  "\u2581Ty": 3859,
  "view": 3860,
  "\u2581Kou": 3861,
  "\u2581dem": 3862,
  "\u2581rif": 3863,
  "coche": 3864,
  "\u2581Sean": 3865,
  "\u2581major": 3866,
  "\u2581means": 3867,
  "\u2581mount": 3868,
  "\u2581shift": 3869,
  "\u2581waves": 3870,
  "\u2581Mohamed": 3871,
  "\u2581clipped": 3872,
  "\u2581leaders": 3873,
  "\u2581ricoche": 3874,
  "\u2581Vitality": 3875,
  "\u2581concedes": 3876,
  "\u2581suspension": 3877,
  "ari": 3878,
  "\u258123": 3879,
  "\u258190": 3880,
  "\u2581gr": 3881,
  "\u2581ta": 3882,
  "ller": 3883,
  "tain": 3884,
  "\u2581Vir": 3885,
  "\u2581ang": 3886,
  "\u2581bel": 3887,
  "ption": 3888,
  "\u2581Mont": 3889,
  "\u2581Phil": 3890,
  "\u2581Slim": 3891,
  "\u2581Yarm": 3892,
  "\u2581fash": 3893,
  "\u2581gave": 3894,
  "\u2581loan": 3895,
  "\u2581situ": 3896,
  "\u2581empty": 3897,
  "\u2581scuff": 3898,
  "\u2581spark": 3899,
  "\u2581watch": 3900,
  "\u2581square": 3901,
  "\u2581Bentley": 3902,
  "\u2581Montiel": 3903,
  "\u2581Slimane": 3904,
  "\u2581minimum": 3905,
  "\u2581finished": 3906,
  "\u2581slotting": 3907,
  "yo": 3908,
  "cis": 3909,
  "jan": 3910,
  "\u2581IS": 3911,
  "gian": 3912,
  "ioyo": 3913,
  "\u2581Wor": 3914,
  "resor": 3915,
  "\u2581aver": 3916,
  "\u2581leve": 3917,
  "\u2581While": 3918,
  "\u2581exact": 3919,
  "\u2581punch": 3920,
  "\u2581trips": 3921,
  "\u2581weeks": 3922,
  "\u2581Adarab": 3923,
  "\u2581Tresor": 3924,
  "\u2581incred": 3925,
  "\u2581longer": 3926,
  "\u2581simply": 3927,
  "\u2581BLOCKED": 3928,
  "\u2581charges": 3929,
  "\u2581fashion": 3930,
  "\u2581thought": 3931,
  "\u2581dribbles": 3932,
  "\u2581launches": 3933,
  "\u2581maintain": 3934,
  "\u2581initially": 3935,
  "\u2581Adarabioyo": 3936,
  "\u2581GOOOAAALLL": 3937,
  "ann": 3938,
  "fie": 3939,
  "unku": 3940,
  "\u25810-1": 3941,
  "\u2581nud": 3942,
  "\u2581ten": 3943,
  "onali": 3944,
  "urier": 3945,
  "\u2581fres": 3946,
  "\u2581land": 3947,
  "\u2581life": 3948,
  "\u2581link": 3949,
  "\u2581swap": 3950,
  "ancing": 3951,
  "\u2581Alfie": 3952,
  "\u2581First": 3953,
  "\u2581Henry": 3954,
  "\u2581cards": 3955,
  "\u2581cause": 3956,
  "\u2581delic": 3957,
  "\u2581shout": 3958,
  "allowed": 3959,
  "\u2581Aurier": 3960,
  "\u2581Nkunku": 3961,
  "\u2581Thiago": 3962,
  "\u2581Tonali": 3963,
  "\u2581become": 3964,
  "\u2581diving": 3965,
  "\u2581evades": 3966,
  "\u2581punish": 3967,
  "\u2581review": 3968,
  "\u2581corners": 3969,
  "\u2581meaning": 3970,
  "\u2581routine": 3971,
  "\u2581Christian": 3972,
  "zo": 3973,
  "ict": 3974,
  "lly": 3975,
  "omb": 3976,
  "ret": 3977,
  "urg": 3978,
  "vey": 3979,
  "\u2581Ib": 3980,
  "\u2581du": 3981,
  "ises": 3982,
  "kong": 3983,
  "yate": 3984,
  "\u258110-": 3985,
  "\u2581Fof": 3986,
  "\u2581led": 3987,
  "konga": 3988,
  "rahim": 3989,
  "\u2581Brew": 3990,
  "\u2581Luis": 3991,
  "\u2581cush": 3992,
  "\u2581Marco": 3993,
  "\u2581South": 3994,
  "\u2581chips": 3995,
  "\u2581clock": 3996,
  "\u2581leave": 3997,
  "\u2581sight": 3998,
  "\u2581Fofana": 3999,
  "\u2581places": 4000,
  "\u2581settle": 4001,
  "\u2581Ibrahim": 4002,
  "\u2581Kouyate": 4003,
  "\u2581Lokonga": 4004,
  "\u2581carries": 4005,
  "\u2581longest": 4006,
  "\u2581Brewster": 4007,
  "\u2581arriving": 4008,
  "\u2581backline": 4009,
  "\u2581finishes": 4010,
  "\u2581dominance": 4011,
  "\u2581finishing": 4012,
  "\u2581patiently": 4013,
  "\u2581disallowed": 4014,
  "oub": 4015,
  "ric": 4016,
  "\u2581Je": 4017,
  "ceed": 4018,
  "ciso": 4019,
  "like": 4020,
  "\u2581Del": 4021,
  "\u2581cyn": 4022,
  "\u2581key": 4023,
  "\u2581sim": 4024,
  "ickey": 4025,
  "obbin": 4026,
  "obody": 4027,
  "oolly": 4028,
  "\u25812019": 4029,
  "\u2581Serg": 4030,
  "\u2581Unai": 4031,
  "\u2581calm": 4032,
  "\u2581leap": 4033,
  "\u2581role": 4034,
  "\u2581dealt": 4035,
  "\u2581hooks": 4036,
  "\u2581total": 4037,
  "\u2581Dobbin": 4038,
  "\u2581Enciso": 4039,
  "\u2581Harvey": 4040,
  "\u2581Hickey": 4041,
  "\u2581called": 4042,
  "\u2581William": 4043,
  "\u2581outings": 4044,
  "\u2581smashes": 4045,
  "\u2581catching": 4046,
  "\u2581opposite": 4047,
  "\u2581delightful": 4048,
  "\u2581Championship": 4049,
  "pes": 4050,
  "pur": 4051,
  "uem": 4052,
  "ums": 4053,
  "\u2581pe": 4054,
  "allo": 4055,
  "\u2581MIS": 4056,
  "\u2581(4-4": 4057,
  "\u2581Call": 4058,
  "\u2581Hots": 4059,
  "\u2581nick": 4060,
  "\u2581weak": 4061,
  "\u2581wood": 4062,
  "ustain": 4063,
  "\u2581Danny": 4064,
  "\u2581clums": 4065,
  "\u2581outst": 4066,
  "\u2581pleas": 4067,
  "\u2581tough": 4068,
  "\u2581Sergio": 4069,
  "\u2581causes": 4070,
  "\u2581Hotspur": 4071,
  "\u2581whether": 4072,
  "\u2581woodwork": 4073,
  "\u2581positions": 4074,
  "\u2581dominating": 4075,
  "\u2581dispossessed": 4076,
  "thm": 4077,
  "arly": 4078,
  "eyer": 4079,
  "\u2581Per": 4080,
  "\u2581rhy": 4081,
  "hamad": 4082,
  "ility": 4083,
  "\u2581Beyer": 4084,
  "\u2581Giles": 4085,
  "\u2581named": 4086,
  "\u2581tally": 4087,
  "\u2581terri": 4088,
  "\u2581Callum": 4089,
  "\u2581bodies": 4090,
  "\u2581checks": 4091,
  "\u2581coolly": 4092,
  "\u2581eighth": 4093,
  "\u2581relief": 4094,
  "\u2581rhythm": 4095,
  "\u2581throws": 4096,
  "\u2581overhit": 4097,
  "\u2581quarter": 4098,
  "\u2581stopped": 4099,
  "\u2581European": 4100,
  "\u2581incident": 4101,
  "\u2581releases": 4102,
  "\u2581potential": 4103,
  "\u2581searching": 4104,
  "\u2581stretches": 4105,
  "\u2581alteration": 4106,
  "\u2581disappointing": 4107,
  "ba": 4108,
  "bl": 4109,
  "cl": 4110,
  "cky": 4111,
  "cro": 4112,
  "\u2581If": 4113,
  "ablo": 4114,
  "athe": 4115,
  "miti": 4116,
  "nals": 4117,
  "what": 4118,
  "\u2581bla": 4119,
  "\u2581pen": 4120,
  "gging": 4121,
  "\u2581Amex": 4122,
  "\u2581LEVE": 4123,
  "\u2581MAKE": 4124,
  "\u2581bend": 4125,
  "\u2581park": 4126,
  "\u2581phys": 4127,
  "\u2581recy": 4128,
  "\u2581Pablo": 4129,
  "\u2581quest": 4130,
  "\u2581slots": 4131,
  "\u2581Fornals": 4132,
  "\u2581chasing": 4133,
  "\u2581Chermiti": 4134,
  "\u2581together": 4135,
  "ws": 4136,
  "ogo": 4137,
  "the": 4138,
  "\u258122": 4139,
  "\u258150": 4140,
  "chod": 4141,
  "ifts": 4142,
  "imos": 4143,
  "raft": 4144,
  "\u2581How": 4145,
  "\u2581Vla": 4146,
  "\u2581jum": 4147,
  "\u2581pri": 4148,
  "croix": 4149,
  "\u2581Rams": 4150,
  "\u2581prep": 4151,
  "\u2581roof": 4152,
  "\u2581shak": 4153,
  "\u2581stun": 4154,
  "\u2581Bobby": 4155,
  "\u2581Diogo": 4156,
  "\u2581drawn": 4157,
  "\u2581thank": 4158,
  "\u2581Schade": 4159,
  "\u2581shifts": 4160,
  "chodimos": 4161,
  "\u2581Coleman": 4162,
  "\u2581process": 4163,
  "\u2581Delcroix": 4164,
  "\u2581appeared": 4165,
  "\u2581suffered": 4166,
  "\u2581Vlachodimos": 4167,
  "\u2581breakthrough": 4168,
  "alo": 4169,
  "\u2581IN": 4170,
  "acar": 4171,
  "dale": 4172,
  "gain": 4173,
  "gate": 4174,
  "lyne": 4175,
  "ndon": 4176,
  "osha": 4177,
  "vail": 4178,
  "\u258120-": 4179,
  "\u2581Mik": 4180,
  "\u2581Str": 4181,
  "\u2581din": 4182,
  "\u2581Boub": 4183,
  "\u2581Jean": 4184,
  "\u2581deem": 4185,
  "\u2581drew": 4186,
  "\u2581fier": 4187,
  "\u2581leng": 4188,
  "\u2581mind": 4189,
  "ighted": 4190,
  "pected": 4191,
  "uesday": 4192,
  "\u2581Clyne": 4193,
  "\u2581Franc": 4194,
  "\u2581boost": 4195,
  "\u2581likes": 4196,
  "\u2581nervy": 4197,
  "\u2581swift": 4198,
  "vincing": 4199,
  "\u2581entire": 4200,
  "\u2581reacts": 4201,
  "\u2581punches": 4202,
  "\u2581smother": 4203,
  "\u2581sustain": 4204,
  "\u2581Boubacar": 4205,
  "\u2581Ramsdale": 4206,
  "\u2581dominant": 4207,
  "\u2581exchanges": 4208,
  "\u2581succession": 4209,
  "OT": 4210,
  "\u2581'": 4211,
  "TES": 4212,
  "mun": 4213,
  "\u2581AL": 4214,
  "aser": 4215,
  "ouci": 4216,
  "\u2581Ass": 4217,
  "\u2581Dak": 4218,
  "\u2581Mep": 4219,
  "\u2581sol": 4220,
  "\u2581tas": 4221,
  "three": 4222,
  "\u2581Amad": 4223,
  "\u2581arms": 4224,
  "\u2581fell": 4225,
  "\u2581star": 4226,
  "\u2581uses": 4227,
  "\u2581warm": 4228,
  "akosha": 4229,
  "rawing": 4230,
  "ushing": 4231,
  "\u2581LEVEL": 4232,
  "\u2581gifts": 4233,
  "winning": 4234,
  "\u25812023-2": 4235,
  "\u2581Dakhil": 4236,
  "\u2581Fraser": 4237,
  "\u2581Mepham": 4238,
  "\u2581asking": 4239,
  "\u2581lashes": 4240,
  "\u2581nicely": 4241,
  "\u2581Larouci": 4242,
  "\u2581Tuesday": 4243,
  "\u2581numbers": 4244,
  "\u2581pleased": 4245,
  "\u2581serious": 4246,
  "\u2581eventual": 4247,
  "\u2581somewhat": 4248,
  "\u2581Strakosha": 4249,
  "\u2581ricochets": 4250,
  "\u2581scrambling": 4251,
  "\u2581involvement": 4252,
  "ili": 4253,
  "mus": 4254,
  "\u258121": 4255,
  "\u2581PU": 4256,
  "\u2581Sw": 4257,
  "\u2581wo": 4258,
  "cker": 4259,
  "ding": 4260,
  "llie": 4261,
  "\u2581Ger": 4262,
  "\u2581ext": 4263,
  "\u2581lur": 4264,
  "\u2581str": 4265,
  "\u2581tun": 4266,
  "atsen": 4267,
  "ement": 4268,
  "rafth": 4269,
  "\u2581Hall": 4270,
  "\u2581Issa": 4271,
  "\u2581Some": 4272,
  "\u2581grab": 4273,
  "\u2581tuss": 4274,
  "\u2581Great": 4275,
  "\u2581Matip": 4276,
  "\u2581Ollie": 4277,
  "\u2581brace": 4278,
  "\u2581error": 4279,
  "drawing": 4280,
  "\u2581Krafth": 4281,
  "\u2581fierce": 4282,
  "expected": 4283,
  "\u2581Maatsen": 4284,
  "\u2581skipper": 4285,
  "\u2581drilling": 4286,
  "\u2581collision": 4287,
  "\u2581encounter": 4288,
  "\u2581intercepted": 4289,
  "1.": 4290,
  "\u2581ok": 4291,
  "UTES": 4292,
  "akub": 4293,
  "cent": 4294,
  "\u2581Com": 4295,
  "\u2581Sas": 4296,
  "\u2581gift": 4297,
  "hamada": 4298,
  "pended": 4299,
  "\u2581Conor": 4300,
  "\u2581Jakub": 4301,
  "\u2581hopes": 4302,
  "\u2581fellow": 4303,
  "\u2581nobody": 4304,
  "\u2581powers": 4305,
  "\u2581shirts": 4306,
  "\u2581Ahamada": 4307,
  "\u2581Roberts": 4308,
  "\u2581Willock": 4309,
  "\u2581GOOOOAAAA": 4310,
  "\u2581everything": 4311,
  "OP": 4312,
  "rit": 4313,
  "ases": 4314,
  "ense": 4315,
  "eret": 4316,
  "\u2581Dah": 4317,
  "\u2581Two": 4318,
  "\u2581hur": 4319,
  "\u2581say": 4320,
  "anced": 4321,
  "where": 4322,
  "wists": 4323,
  "\u2581Alej": 4324,
  "\u2581Jose": 4325,
  "\u2581Sasa": 4326,
  "\u2581mass": 4327,
  "\u2581prec": 4328,
  "\u2581scoo": 4329,
  "alance": 4330,
  "ereton": 4331,
  "\u2581Again": 4332,
  "\u2581Berry": 4333,
  "\u2581acres": 4334,
  "\u2581broke": 4335,
  "\u2581defic": 4336,
  "\u2581energ": 4337,
  "\u2581fired": 4338,
  "\u2581joint": 4339,
  "\u2581lucky": 4340,
  "\u2581worse": 4341,
  "\u2581Dahoud": 4342,
  "\u2581nodded": 4343,
  "\u2581rising": 4344,
  "\u2581twists": 4345,
  "\u2581GOALLLL": 4346,
  "\u2581comment": 4347,
  "\u2581proceed": 4348,
  "\u2581threads": 4349,
  "\u2581Brereton": 4350,
  "\u2581equalise": 4351,
  "\u2581needless": 4352,
  "\u2581protests": 4353,
  "\u2581surprise": 4354,
  "\u2581suspended": 4355,
  "\u2581subsequent": 4356,
  "\u2581throughout": 4357,
  "\u2581desperately": 4358,
  "5.": 4359,
  "ett": 4360,
  "ico": 4361,
  "ipe": 4362,
  "five": 4363,
  "mond": 4364,
  "oder": 4365,
  "\u2581AND": 4366,
  "\u2581BAR": 4367,
  "\u2581Ind": 4368,
  "\u2581Mid": 4369,
  "\u2581via": 4370,
  "\u2581wal": 4371,
  "amide": 4372,
  "ative": 4373,
  "loppy": 4374,
  "\u2581MISS": 4375,
  "\u2581STOP": 4376,
  "\u2581okay": 4377,
  "\u2581resc": 4378,
  "\u2581stro": 4379,
  "aniard": 4380,
  "\u2581MAKES": 4381,
  "\u2581Until": 4382,
  "\u2581parry": 4383,
  "amidele": 4384,
  "\u2581Colomb": 4385,
  "\u2581seemed": 4386,
  "\u2581restore": 4387,
  "\u2581tripped": 4388,
  "\u2581Spaniard": 4389,
  "\u2581combined": 4390,
  "\u2581thumping": 4391,
  "\u2581situation": 4392,
  "par": 4393,
  "zie": 4394,
  "ibly": 4395,
  "\u25814-3": 4396,
  "\u2581cha": 4397,
  "\u2581div": 4398,
  "\u2581ill": 4399,
  "\u2581joy": 4400,
  "\u2581dice": 4401,
  "\u2581fizz": 4402,
  "\u2581slip": 4403,
  "atched": 4404,
  "ritory": 4405,
  "\u2581equal": 4406,
  "\u2581incre": 4407,
  "\u2581simil": 4408,
  "\u2581tempo": 4409,
  "wasting": 4410,
  "\u2581German": 4411,
  "\u2581stroke": 4412,
  "\u2581gathers": 4413,
  "\u2581attacker": 4414,
  "\u2581dramatic": 4415,
  "\u2581leveller": 4416,
  "\u2581occasion": 4417,
  "\u2581particul": 4418,
  "\u2581reaching": 4419,
  "\u2581indicated": 4420,
  "\u2581seemingly": 4421,
  "\u2581territory": 4422,
  "adu": 4423,
  "iuk": 4424,
  "\u2581DO": 4425,
  "\u2581HO": 4426,
  "\u2581Iv": 4427,
  "STIT": 4428,
  "hour": 4429,
  "ream": 4430,
  "ryan": 4431,
  "\u2581Not": 4432,
  "\u2581Tav": 4433,
  "\u2581mix": 4434,
  "\u2581old": 4435,
  "\u2581pal": 4436,
  "lands": 4437,
  "oliuk": 4438,
  "\u2581Aust": 4439,
  "\u2581case": 4440,
  "\u2581doub": 4441,
  "\u2581hero": 4442,
  "\u2581know": 4443,
  "\u2581seal": 4444,
  "acking": 4445,
  "\u2581Bryan": 4446,
  "\u2581faith": 4447,
  "\u2581Albion": 4448,
  "\u2581dating": 4449,
  "\u2581option": 4450,
  "\u2581sloppy": 4451,
  "STITUTES": 4452,
  "\u2581Redmond": 4453,
  "\u2581Tavares": 4454,
  "\u2581appeals": 4455,
  "\u2581darting": 4456,
  "\u2581deficit": 4457,
  "\u2581drilled": 4458,
  "\u2581hopeful": 4459,
  "\u2581improve": 4460,
  "\u2581watches": 4461,
  "\u2581continued": 4462,
  "\u2581officials": 4463,
  "\u2581SUBSTITUTES": 4464,
  "4)": 4465,
  "SI": 4466,
  "ROM": 4467,
  "cal": 4468,
  "tty": 4469,
  "uds": 4470,
  "onny": 4471,
  "than": 4472,
  "\u2581100": 4473,
  "\u2581Cam": 4474,
  "\u2581ban": 4475,
  "\u2581ins": 4476,
  "ggest": 4477,
  "uries": 4478,
  "\u2581FROM": 4479,
  "\u2581Mads": 4480,
  "\u2581Part": 4481,
  "\u2581Rico": 4482,
  "\u2581fact": 4483,
  "\u2581keen": 4484,
  "\u2581slot": 4485,
  "\u2581tang": 4486,
  "\u2581text": 4487,
  "\u2581upon": 4488,
  "\u2581ways": 4489,
  "arlton": 4490,
  "around": 4491,
  "bottom": 4492,
  "ursday": 4493,
  "\u2581Moder": 4494,
  "\u2581alone": 4495,
  "\u2581appla": 4496,
  "\u2581fewer": 4497,
  "\u2581fresh": 4498,
  "\u2581heels": 4499,
  "\u2581large": 4500,
  "icester": 4501,
  "velling": 4502,
  "\u2581angles": 4503,
  "\u2581divert": 4504,
  "\u2581pretty": 4505,
  "\u2581raised": 4506,
  "\u2581spread": 4507,
  "\u2581growing": 4508,
  "\u2581lengthy": 4509,
  "\u2581suggest": 4510,
  "\u2581Thursday": 4511,
  "\u2581dragging": 4512,
  "\u2581whipping": 4513,
  "\u2581Leicester": 4514,
  "\u2581Yarmoliuk": 4515,
  "\u2581sidelines": 4516,
  "\u2581unleashes": 4517,
  "\u2581continuing": 4518,
  "\u2581offloading": 4519,
  "\u2581potentially": 4520,
  "\u2581substitutions": 4521,
  "3.": 4522,
  "AN": 4523,
  "TS": 4524,
  "des": 4525,
  "que": 4526,
  "umm": 4527,
  "win": 4528,
  "\u2581Be": 4529,
  "akam": 4530,
  "undo": 4531,
  "\u2581Che": 4532,
  "\u2581Dut": 4533,
  "\u2581Fac": 4534,
  "\u2581emb": 4535,
  "antly": 4536,
  "seven": 4537,
  "urgen": 4538,
  "\u25811-0!": 4539,
  "\u2581Radu": 4540,
  "\u2581harm": 4541,
  "\u2581wave": 4542,
  "AAAAAA": 4543,
  "akamba": 4544,
  "itchie": 4545,
  "\u2581earns": 4546,
  "\u2581lofts": 4547,
  "\u2581monit": 4548,
  "\u2581route": 4549,
  "\u2581swung": 4550,
  "rushing": 4551,
  "\u2581Jayden": 4552,
  "\u2581Manuel": 4553,
  "\u2581Morgan": 4554,
  "\u2581dances": 4555,
  "\u2581launch": 4556,
  "\u2581loanee": 4557,
  "\u2581slices": 4558,
  "\u2581summit": 4559,
  "\u2581Facundo": 4560,
  "\u2581Nakamba": 4561,
  "\u2581Ritchie": 4562,
  "\u2581follows": 4563,
  "\u2581staying": 4564,
  "\u2581working": 4565,
  "\u2581compared": 4566,
  "\u2581progress": 4567,
  "\u2581Frenchman": 4568,
  "\u2581awkwardly": 4569,
  "\u2581delivered": 4570,
  "\u2581turnaround": 4571,
  "\u2581proceedings": 4572,
  "eka": 4573,
  "ese": 4574,
  "por": 4575,
  "oice": 4576,
  "pton": 4577,
  "tect": 4578,
  "\u25814-2": 4579,
  "arent": 4580,
  "arton": 4581,
  "\u2581Bern": 4582,
  "\u2581Leon": 4583,
  "\u2581dism": 4584,
  "\u2581fanc": 4585,
  "\u2581gold": 4586,
  "\u2581sort": 4587,
  "\u2581tact": 4588,
  "alling": 4589,
  "munity": 4590,
  "uemeka": 4591,
  "\u2581Chukw": 4592,
  "\u2581Cress": 4593,
  "\u2581Royal": 4594,
  "\u2581Solom": 4595,
  "\u2581allow": 4596,
  "\u2581defin": 4597,
  "\u2581faced": 4598,
  "\u2581trigg": 4599,
  "hampton": 4600,
  "\u2581Indeed": 4601,
  "\u2581Partey": 4602,
  "\u2581afford": 4603,
  "\u2581closer": 4604,
  "\u2581confir": 4605,
  "\u2581curled": 4606,
  "\u2581depart": 4607,
  "\u2581reward": 4608,
  "\u2581tested": 4609,
  "\u2581thumps": 4610,
  "\u2581triple": 4611,
  "\u2581Andreas": 4612,
  "\u2581becomes": 4613,
  "\u2581falling": 4614,
  "\u2581monitor": 4615,
  "\u2581protect": 4616,
  "\u2581resumes": 4617,
  "\u2581teasing": 4618,
  "\u2581clearing": 4619,
  "\u2581produced": 4620,
  "\u2581recently": 4621,
  "\u2581Cresswell": 4622,
  "\u2581capitalise": 4623,
  "\u2581commentary": 4624,
  "\u2581complaints": 4625,
  "\u2581intercepts": 4626,
  "\u2581travelling": 4627,
  "\u2581Chukwuemeka": 4628,
  "\u2581outswinging": 4629,
  "1)": 4630,
  "2.": 4631,
  "oz": 4632,
  "ISE": 4633,
  "sit": 4634,
  "ult": 4635,
  "\u2581(5": 4636,
  "\u2581Er": 4637,
  "\u2581SE": 4638,
  "aker": 4639,
  "ardo": 4640,
  "inth": 4641,
  "post": 4642,
  "rees": 4643,
  "ties": 4644,
  "\u2581Dar": 4645,
  "\u2581Fel": 4646,
  "\u2581Jar": 4647,
  "\u2581bad": 4648,
  "\u2581ign": 4649,
  "\u2581val": 4650,
  "ignon": 4651,
  "\u2581Gary": 4652,
  "\u2581Lowe": 4653,
  "\u2581haul": 4654,
  "\u2581task": 4655,
  "\u2581word": 4656,
  "fortun": 4657,
  "omfort": 4658,
  "\u2581Kevin": 4659,
  "\u2581Thank": 4660,
  "\u2581belie": 4661,
  "\u2581hesit": 4662,
  "changed": 4663,
  "\u2581Erling": 4664,
  "\u2581Felipe": 4665,
  "\u2581Franca": 4666,
  "\u2581fairly": 4667,
  "\u2581Solomon": 4668,
  "\u2581Wharton": 4669,
  "\u2581survive": 4670,
  "\u2581trigger": 4671,
  "\u2581wayward": 4672,
  "\u2581Bernardo": 4673,
  "\u2581assisted": 4674,
  "\u2581managers": 4675,
  "\u2581probably": 4676,
  "\u2581Community": 4677,
  "\u2581impressed": 4678,
  "\u2581responded": 4679,
  "\u2581approaching": 4680,
  "sh": 4681,
  "emy": 4682,
  "ics": 4683,
  "rod": 4684,
  "\u258124": 4685,
  "\u2581Af": 4686,
  "\u2581BI": 4687,
  "goch": 4688,
  "kayo": 4689,
  "onna": 4690,
  "ukwu": 4691,
  "\u2581pay": 4692,
  "\u2581use": 4693,
  "istri": 4694,
  "risto": 4695,
  "under": 4696,
  "\u2581(3-5": 4697,
  "\u2581Ange": 4698,
  "\u2581BACK": 4699,
  "\u2581Jama": 4700,
  "\u2581Kore": 4701,
  "\u2581Omob": 4702,
  "\u2581Pell": 4703,
  "\u2581amid": 4704,
  "\u2581blue": 4705,
  "\u2581choo": 4706,
  "-2-1):": 4707,
  "\u2581Ethan": 4708,
  "\u2581Olsen": 4709,
  "\u2581Still": 4710,
  "\u2581Ugoch": 4711,
  "\u2581doubt": 4712,
  "\u2581lunge": 4713,
  "\u2581spect": 4714,
  "\u2581trans": 4715,
  "\u2581Bukayo": 4716,
  "\u2581Chance": 4717,
  "\u2581Jarrod": 4718,
  "\u2581backhe": 4719,
  "\u2581racing": 4720,
  "\u2581scorer": 4721,
  "\u2581visits": 4722,
  "vailable": 4723,
  "\u2581Belgian": 4724,
  "\u2581average": 4725,
  "\u2581bundles": 4726,
  "\u2581knocked": 4727,
  "\u2581provide": 4728,
  "\u2581similar": 4729,
  "\u2581Assignon": 4730,
  "\u2581actually": 4731,
  "\u2581footwork": 4732,
  "\u2581Pellistri": 4733,
  "\u2581Ugochukwu": 4734,
  "\u2581penalties": 4735,
  "\u2581harmlessly": 4736,
  "\u2581registered": 4737,
  "\u2581Omobamidele": 4738,
  "bw": 4739,
  "2),": 4740,
  "fro": 4741,
  "pid": 4742,
  "six": 4743,
  "\u2581Ba": 4744,
  "clan": 4745,
  "ffic": 4746,
  "ming": 4747,
  "rest": 4748,
  "ruct": 4749,
  "\u2581BIG": 4750,
  "\u2581Kar": 4751,
  "!!!!!": 4752,
  "bwala": 4753,
  "timed": 4754,
  "\u2581Roth": 4755,
  "\u2581feat": 4756,
  "\u2581gain": 4757,
  "\u2581halt": 4758,
  "\u2581mess": 4759,
  "\u2581ratt": 4760,
  "\u2581reck": 4761,
  "\u2581Fabio": 4762,
  "\u2581Julio": 4763,
  "\u2581issue": 4764,
  "\u2581ninth": 4765,
  "\u2581rapid": 4766,
  "\u2581solid": 4767,
  "\u2581think": 4768,
  "\u2581waste": 4769,
  "\u2581Amadou": 4770,
  "\u2581Declan": 4771,
  "\u2581Dendon": 4772,
  "\u2581Thanks": 4773,
  "\u2581denies": 4774,
  "\u2581higher": 4775,
  "\u2581midway": 4776,
  "\u25812023-24": 4777,
  "\u2581Hecking": 4778,
  "\u2581Ogbonna": 4779,
  "\u2581Villans": 4780,
  "\u2581begging": 4781,
  "\u2581charged": 4782,
  "\u2581cushion": 4783,
  "\u2581doubled": 4784,
  "\u2581leapfro": 4785,
  "\u2581letting": 4786,
  "\u2581lurking": 4787,
  "\u2581Kambwala": 4788,
  "\u2581Rothwell": 4789,
  "\u2581trailing": 4790,
  "\u2581Argentine": 4791,
  "\u2581Dendoncker": 4792,
  "\u2581GOOOOOAAAA": 4793,
  "\u2581attempting": 4794,
  "\u2581Heckingbottom": 4795,
  "-9": 4796,
  "6.": 4797,
  "?!": 4798,
  "GE": 4799,
  "ARD": 4800,
  "pec": 4801,
  "tes": 4802,
  "\u2581AN": 4803,
  "\u2581Ze": 4804,
  "anka": 4805,
  "orts": 4806,
  "osin": 4807,
  "usin": 4808,
  "\u2581Bay": 4809,
  "\u2581Pau": 4810,
  "\u2581Rog": 4811,
  "\u2581ens": 4812,
  "\u2581gra": 4813,
  "\u2581unc": 4814,
  "backs": 4815,
  "\u2581Sant": 4816,
  "\u2581cred": 4817,
  "\u2581limp": 4818,
  "\u2581pain": 4819,
  "\u2581scra": 4820,
  "\u2581sens": 4821,
  "\u2581spec": 4822,
  "inally": 4823,
  "\u25812021.": 4824,
  "\u2581Munoz": 4825,
  "\u2581Tosin": 4826,
  "\u2581Zanka": 4827,
  "\u2581coach": 4828,
  "\u2581latch": 4829,
  "\u2581prove": 4830,
  "\u2581separ": 4831,
  "\u2581signs": 4832,
  "\u2581trium": 4833,
  "\u2581Basham": 4834,
  "\u2581Esteve": 4835,
  "\u2581Rogers": 4836,
  "\u2581deemed": 4837,
  "\u2581effect": 4838,
  "\u2581laying": 4839,
  "\u2581losses": 4840,
  "\u2581matter": 4841,
  "\u2581shield": 4842,
  "\u2581showed": 4843,
  "\u2581tangle": 4844,
  "\u2581floated": 4845,
  "\u2581volleys": 4846,
  "\u2581Santiago": 4847,
  "\u2581division": 4848,
  "\u2581produces": 4849,
  "\u2581punished": 4850,
  "\u2581striking": 4851,
  "\u2581whistles": 4852,
  "\u2581unchanged": 4853,
  "0.": 4854,
  "BI": 4855,
  "mo": 4856,
  "UAL": 4857,
  "mos": 4858,
  "rob": 4859,
  "xel": 4860,
  "mosp": 4861,
  "uben": 4862,
  "ugal": 4863,
  "\u2581One": 4864,
  "\u2581San": 4865,
  "\u2581Tah": 4866,
  "\u2581spo": 4867,
  "ditch": 4868,
  "itely": 4869,
  "\u2581Axel": 4870,
  "\u2581Cole": 4871,
  "\u2581Hove": 4872,
  "\u2581Sout": 4873,
  "\u2581news": 4874,
  "\u2581seek": 4875,
  "\u2581wind": 4876,
  "UALISE": 4877,
  "\u2581Ruben": 4878,
  "\u2581acrob": 4879,
  "\u2581north": 4880,
  "\u2581share": 4881,
  "\u2581waits": 4882,
  "\u2581Jurgen": 4883,
  "\u2581Karius": 4884,
  "\u2581Tahith": 4885,
  "\u2581atmosp": 4886,
  "\u2581caused": 4887,
  "\u2581consol": 4888,
  "\u2581teeing": 4889,
  "\u2581tempor": 4890,
  "\u2581tricky": 4891,
  "pecially": 4892,
  "\u2581compact": 4893,
  "\u2581escapes": 4894,
  "\u2581massive": 4895,
  "\u2581secured": 4896,
  "\u2581setting": 4897,
  "\u2581spectac": 4898,
  "\u2581thumped": 4899,
  "\u2581winners": 4900,
  "\u2581(3-5-2):": 4901,
  "\u2581GOOOAAAA": 4902,
  "\u2581Portugal": 4903,
  "\u2581acrobatic": 4904,
  "\u2581assistant": 4905,
  "\u2581completed": 4906,
  "\u2581recovered": 4907,
  "\u2581sustained": 4908,
  "\u2581(3-4-2-1):": 4909,
  "\u2581atmosphere": 4910,
  "\u2581controlled": 4911,
  "\u2581Southampton": 4912,
  "\u2581interesting": 4913,
  "3),": 4914,
  "ias": 4915,
  "\u2581HU": 4916,
  "\u2581ur": 4917,
  "ager": 4918,
  "eded": 4919,
  "ewal": 4920,
  "peri": 4921,
  "raig": 4922,
  "\u2581ARE": 4923,
  "\u2581rel": 4924,
  "\u2581uns": 4925,
  "ornet": 4926,
  "\u25812024": 4927,
  "\u2581Egan": 4928,
  "\u2581Ivan": 4929,
  "\u2581Math": 4930,
  "change": 4931,
  "christ": 4932,
  "etting": 4933,
  "\u2581Craig": 4934,
  "\u2581Edson": 4935,
  "\u2581Tomas": 4936,
  "\u2581board": 4937,
  "\u2581cheap": 4938,
  "\u2581terms": 4939,
  "\u2581Cornet": 4940,
  "\u2581Julian": 4941,
  "\u2581consid": 4942,
  "\u2581hammer": 4943,
  "\u2581intens": 4944,
  "\u2581neatly": 4945,
  "\u2581onside": 4946,
  "\u2581slowly": 4947,
  "\u2581partner": 4948,
  "\u2581present": 4949,
  "\u2581swiftly": 4950,
  "\u2581thunder": 4951,
  "\u2581blasting": 4952,
  "\u2581delicate": 4953,
  "\u2581directly": 4954,
  "\u2581faithful": 4955,
  "\u2581injuries": 4956,
  "\u2581Gilchrist": 4957,
  "\u2581cautioned": 4958,
  "\u2581collected": 4959,
  "\u2581entertain": 4960,
  "\u2581onrushing": 4961,
  "\u2581definitely": 4962,
  "\u2581discomfort": 4963,
  "\u2581especially": 4964,
  "LA": 4965,
  "ery": 4966,
  "fin": 4967,
  "hor": 4968,
  "\u258129": 4969,
  "\u2581FI": 4970,
  "\u2581Sh": 4971,
  "eden": 4972,
  "efan": 4973,
  "form": 4974,
  "guay": 4975,
  "phon": 4976,
  "\u2581Pep": 4977,
  "\u2581Sim": 4978,
  "\u2581Uru": 4979,
  "eight": 4980,
  "ewald": 4981,
  "isive": 4982,
  "\u2581Raul": 4983,
  "\u2581Ried": 4984,
  "\u2581shar": 4985,
  "\u2581thri": 4986,
  "\u2581whip": 4987,
  "phonse": 4988,
  "\u2581Mario": 4989,
  "\u2581choos": 4990,
  "\u2581hangs": 4991,
  "\u2581joins": 4992,
  "\u2581light": 4993,
  "\u2581prior": 4994,
  "\u2581stage": 4995,
  "\u2581white": 4996,
  "\u2581Stefan": 4997,
  "\u2581blazes": 4998,
  "\u2581contri": 4999,
  "\u2581ending": 5000,
  "\u2581rescue": 5001,
  "\u2581thinks": 5002,
  "\u2581unlike": 5003,
  "\u2581Uruguay": 5004,
  "\u2581closest": 5005,
  "\u2581dragged": 5006,
  "\u2581overlap": 5007,
  "\u2581tackles": 5008,
  "\u2581Alphonse": 5009,
  "\u2581Midlands": 5010,
  "\u2581levelled": 5011,
  "\u2581reaction": 5012,
  "\u2581reckless": 5013,
  "\u2581required": 5014,
  "\u2581returned": 5015,
  "\u2581Riedewald": 5016,
  "\u2581intensity": 5017,
  "\u2581incredible": 5018,
  "\u2581punishment": 5019,
  "cy": 5020,
  "gy": 5021,
  "1).": 5022,
  "avo": 5023,
  "iny": 5024,
  "loy": 5025,
  "\u258131": 5026,
  "\u25811-2": 5027,
  "\u2581Cle": 5028,
  "\u2581Cor": 5029,
  "\u2581Gio": 5030,
  "\u2581Hee": 5031,
  "\u2581Kal": 5032,
  "\u2581Wes": 5033,
  "\u2581bid": 5034,
  "\u2581ide": 5035,
  "\u2581sal": 5036,
  "\u2581ske": 5037,
  "\u2581tor": 5038,
  "\u2581wea": 5039,
  "ading": 5040,
  "ivity": 5041,
  "\u2581Neal": 5042,
  "\u2581Next": 5043,
  "\u2581Scot": 5044,
  "\u2581kill": 5045,
  "\u2581thus": 5046,
  "\u2581trud": 5047,
  "\u2581Heung": 5048,
  "\u2581Jonny": 5049,
  "\u2581Moore": 5050,
  "\u2581Willy": 5051,
  "\u2581apply": 5052,
  "\u2581arrow": 5053,
  "\u2581closes": 5054,
  "\u2581experi": 5055,
  "\u2581penned": 5056,
  "\u2581snatch": 5057,
  "\u2581sweeps": 5058,
  "\u2581tunnel": 5059,
  "together": 5060,
  "\u2581Gustavo": 5061,
  "\u2581Leandro": 5062,
  "\u2581Mathias": 5063,
  "\u2581careful": 5064,
  "\u2581cynical": 5065,
  "\u2581decided": 5066,
  "\u2581endured": 5067,
  "\u2581bursting": 5068,
  "\u2581checking": 5069,
  "\u2581glancing": 5070,
  "\u2581leapfrog": 5071,
  "\u2581majority": 5072,
  "\u2581matchday": 5073,
  "\u2581overhits": 5074,
  "\u2581terrible": 5075,
  "\u2581visiting": 5076,
  "\u2581overlapping": 5077,
  "\u2581sensational": 5078,
  "\u2581introduction": 5079,
  "\u2581respectively": 5080,
  "bd": 5081,
  "ij": 5082,
  "my": 5083,
  "acy": 5084,
  "ely": 5085,
  "kha": 5086,
  "lad": 5087,
  "lex": 5088,
  "pir": 5089,
  "unt": 5090,
  "etic": 5091,
  "hley": 5092,
  "ijah": 5093,
  "mand": 5094,
  "tech": 5095,
  "turn": 5096,
  "\u2581(19": 5097,
  "\u2581Kai": 5098,
  "\u2581adj": 5099,
  "\u2581cir": 5100,
  "\u2581job": 5101,
  "\u2581wra": 5102,
  "igure": 5103,
  "stand": 5104,
  "\u2581Bren": 5105,
  "\u2581Giov": 5106,
  "\u2581HUGE": 5107,
  "\u2581sits": 5108,
  "\u2581tips": 5109,
  "forced": 5110,
  "khailo": 5111,
  "needed": 5112,
  "\u2581Dejan": 5113,
  "\u2581Gtech": 5114,
  "\u2581Mason": 5115,
  "\u2581Mikel": 5116,
  "\u2581Simon": 5117,
  "\u2581Three": 5118,
  "netting": 5119,
  "ristian": 5120,
  "\u2581Almost": 5121,
  "\u2581Ashley": 5122,
  "\u2581Auston": 5123,
  "\u2581Elijah": 5124,
  "\u2581Kalvin": 5125,
  "\u2581streng": 5126,
  "\u2581stride": 5127,
  "\u2581wouldn": 5128,
  "\u2581Carlton": 5129,
  "\u2581breathe": 5130,
  "\u2581exactly": 5131,
  "\u2581hanging": 5132,
  "\u2581offered": 5133,
  "\u2581pounces": 5134,
  "\u2581upright": 5135,
  "\u2581Mykhailo": 5136,
  "\u2581backheel": 5137,
  "\u2581brightly": 5138,
  "\u2581unlikely": 5139,
  "\u2581Alejandro": 5140,
  "\u2581contribut": 5141,
  "\u2581immediate": 5142,
  "\u2581interested": 5143,
  "\u2581intervenes": 5144,
  "\u2581consolation": 5145,
  "2)": 5146,
  "9.": 5147,
  "dr": 5148,
  "HER": 5149,
  "ICK": 5150,
  "ama": 5151,
  "\u2581Pl": 5152,
  "\u2581Yo": 5153,
  "BION": 5154,
  "RIKE": 5155,
  "eece": 5156,
  "eron": 5157,
  "ever": 5158,
  "heem": 5159,
  "inos": 5160,
  "ired": 5161,
  "itiz": 5162,
  "wich": 5163,
  "\u2581Day": 5164,
  "\u2581Mub": 5165,
  "\u2581beg": 5166,
  "\u2581dam": 5167,
  "aging": 5168,
  "ierre": 5169,
  "ounds": 5170,
  "\u2581Cody": 5171,
  "\u2581Drag": 5172,
  "\u2581HOVE": 5173,
  "\u2581clut": 5174,
  "\u2581dest": 5175,
  "\u2581inde": 5176,
  "\u2581vers": 5177,
  "\u2581Citiz": 5178,
  "\u2581Pelly": 5179,
  "\u2581Reece": 5180,
  "\u2581Rodak": 5181,
  "\u2581drama": 5182,
  "\u2581dying": 5183,
  "\u2581extra": 5184,
  "\u2581lands": 5185,
  "\u2581sorts": 5186,
  "\u2581style": 5187,
  "ference": 5188,
  "\u2581ALBION": 5189,
  "\u2581Alexis": 5190,
  "\u2581Darwin": 5191,
  "\u2581Mubama": 5192,
  "\u2581Pierre": 5193,
  "\u2581Raheem": 5194,
  "\u2581STRIKE": 5195,
  "\u2581career": 5196,
  "\u2581figure": 5197,
  "\u2581hardly": 5198,
  "\u2581stayed": 5199,
  "\u2581Cameron": 5200,
  "\u2581Nations": 5201,
  "\u2581Roberto": 5202,
  "\u2581kicking": 5203,
  "\u2581recycle": 5204,
  "\u2581replays": 5205,
  "\u2581surging": 5206,
  "\u2581(4-4-2):": 5207,
  "\u2581applause": 5208,
  "\u2581breather": 5209,
  "\u2581constant": 5210,
  "\u2581flicking": 5211,
  "\u2581knocking": 5212,
  "\u2581squaring": 5213,
  "\u2581unfortun": 5214,
  "\u2581celebrate": 5215,
  "\u2581stoppages": 5216,
  "\u2581suffering": 5217,
  "\u2581delivering": 5218,
  "\u2581stretching": 5219,
  "\u2581frustrating": 5220,
  "\u2581particularly": 5221,
  "\u2581GOOOOOOOOOOOO": 5222,
  "Em": 5223,
  "aye": 5224,
  "edu": 5225,
  "fit": 5226,
  "ler": 5227,
  "mas": 5228,
  "nan": 5229,
  "\u258126": 5230,
  "\u2581SO": 5231,
  "ango": 5232,
  "bing": 5233,
  "down": 5234,
  "iedo": 5235,
  "iste": 5236,
  "rica": 5237,
  "ules": 5238,
  "\u2581Ang": 5239,
  "\u2581Mig": 5240,
  "\u2581elb": 5241,
  "Emile": 5242,
  "arrad": 5243,
  "ersey": 5244,
  "ieran": 5245,
  "ksand": 5246,
  "lease": 5247,
  "\u25812-0!": 5248,
  "\u25812-1!": 5249,
  "\u2581Andy": 5250,
  "\u2581Anel": 5251,
  "\u2581Bapt": 5252,
  "\u2581Evan": 5253,
  "\u2581LINE": 5254,
  "\u2581Once": 5255,
  "\u2581Play": 5256,
  "\u2581Virg": 5257,
  "\u2581When": 5258,
  "\u2581Zeki": 5259,
  "\u2581cool": 5260,
  "\u2581dedu": 5261,
  "\u2581dive": 5262,
  "\u2581glor": 5263,
  "\u2581rush": 5264,
  "\u2581shad": 5265,
  "iliano": 5266,
  "uddock": 5267,
  "\u2581Matty": 5268,
  "\u2581Mauri": 5269,
  "\u2581Youri": 5270,
  "\u2581accur": 5271,
  "\u2581frant": 5272,
  "\u2581hover": 5273,
  "\u2581sharp": 5274,
  "\u2581spurn": 5275,
  "\u2581staff": 5276,
  "\u2581story": 5277,
  "\u2581swing": 5278,
  "iedozie": 5279,
  "\u2581Africa": 5280,
  "\u2581Brazil": 5281,
  "\u2581Jarrad": 5282,
  "\u2581Kieran": 5283,
  "\u2581Miguel": 5284,
  "\u2581aiming": 5285,
  "\u2581height": 5286,
  "\u2581ignore": 5287,
  "\u2581Brennan": 5288,
  "\u2581Dominik": 5289,
  "\u2581chooses": 5290,
  "\u2581dismiss": 5291,
  "\u2581Baptiste": 5292,
  "\u2581Chambers": 5293,
  "\u2581Citizens": 5294,
  "\u2581Cristian": 5295,
  "\u2581Dragusin": 5296,
  "\u2581Dutchman": 5297,
  "\u2581Emiliano": 5298,
  "\u2581Ibrahima": 5299,
  "\u2581becoming": 5300,
  "\u2581claiming": 5301,
  "\u2581enforced": 5302,
  "\u2581glorious": 5303,
  "\u2581provided": 5304,
  "\u2581requires": 5305,
  "\u2581sideline": 5306,
  "\u2581switched": 5307,
  "\u2581weighted": 5308,
  "\u2581Chiedozie": 5309,
  "\u2581Colombian": 5310,
  "\u2581temporarily": 5311,
  "hr": 5312,
  "ls": 5313,
  "1),": 5314,
  "ING": 5315,
  "bed": 5316,
  "cio": 5317,
  "let": 5318,
  "str": 5319,
  "\u2581Dw": 5320,
  "ased": 5321,
  "bled": 5322,
  "iple": 5323,
  "\u258125-": 5324,
  "\u2581Abd": 5325,
  "\u2581bay": 5326,
  "\u2581gro": 5327,
  "\u2581mus": 5328,
  "\u2581scy": 5329,
  "\u2581wip": 5330,
  "ladim": 5331,
  "udged": 5332,
  "\u2581Enzo": 5333,
  "\u2581Kurt": 5334,
  "\u2581Noni": 5335,
  "\u2581Ross": 5336,
  "\u2581mult": 5337,
  "\u2581spin": 5338,
  "\u2581tell": 5339,
  "\u2581your": 5340,
  "oulaye": 5341,
  "pieces": 5342,
  "\u2581Angel": 5343,
  "\u2581Bernd": 5344,
  "\u2581Lukas": 5345,
  "\u2581Rayan": 5346,
  "\u2581moved": 5347,
  "\u2581noise": 5348,
  "\u2581numer": 5349,
  "\u2581pause": 5350,
  "\u2581snuff": 5351,
  "\u2581truly": 5352,
  "arkable": 5353,
  "\u2581Andoni": 5354,
  "\u2581Dwight": 5355,
  "\u2581Justin": 5356,
  "\u2581Korean": 5357,
  "\u2581Moises": 5358,
  "\u2581Nicolo": 5359,
  "\u2581Virgil": 5360,
  "\u2581Vladim": 5361,
  "\u2581combin": 5362,
  "\u2581golden": 5363,
  "\u2581indeed": 5364,
  "\u2581reflex": 5365,
  "\u2581scream": 5366,
  "\u2581spoils": 5367,
  "\u2581tussle": 5368,
  "\u2581wasted": 5369,
  "\u2581Finally": 5370,
  "\u2581Neither": 5371,
  "\u2581absence": 5372,
  "\u2581capital": 5373,
  "\u2581content": 5374,
  "\u2581frantic": 5375,
  "\u2581infield": 5376,
  "\u2581lacking": 5377,
  "\u2581lifting": 5378,
  "\u2581seasons": 5379,
  "\u2581stadium": 5380,
  "\u2581traffic": 5381,
  "stantinos": 5382,
  "\u2581Mauricio": 5383,
  "\u2581Mohammed": 5384,
  "\u2581entirely": 5385,
  "\u2581managing": 5386,
  "\u2581multiple": 5387,
  "\u2581sweeping": 5388,
  "\u2581throwing": 5389,
  "\u2581trickles": 5390,
  "\u2581Abdoulaye": 5391,
  "\u2581switching": 5392,
  "\u2581needlessly": 5393,
  "\u2581respective": 5394,
  "\u2581threatened": 5395,
  "\u2581Konstantinos": 5396,
  "\u2581celebrations": 5397,
  "UST": 5398,
  "asp": 5399,
  "eco": 5400,
  "ink": 5401,
  "ipp": 5402,
  "ugu": 5403,
  "\u2581ty": 5404,
  "eliz": 5405,
  "gypt": 5406,
  "iest": 5407,
  "ippe": 5408,
  "irou": 5409,
  "othy": 5410,
  "umul": 5411,
  "\u25810-2": 5412,
  "\u25815-1": 5413,
  "\u2581GOA": 5414,
  "\u2581McC": 5415,
  "\u2581Ole": 5416,
  "\u2581age": 5417,
  "arted": 5418,
  "ginia": 5419,
  "gliel": 5420,
  "ishly": 5421,
  "\u2581Ezri": 5422,
  "\u2581Neco": 5423,
  "\u2581Pape": 5424,
  "\u2581Well": 5425,
  "\u2581door": 5426,
  "\u2581marg": 5427,
  "\u2581redu": 5428,
  "\u2581salv": 5429,
  "uguese": 5430,
  "\u2581Egypt": 5431,
  "\u2581Jason": 5432,
  "\u2581Trent": 5433,
  "\u2581Veliz": 5434,
  "\u2581Yoane": 5435,
  "\u2581brave": 5436,
  "\u2581rules": 5437,
  "\u2581steer": 5438,
  "\u2581wrest": 5439,
  "glielmo": 5440,
  "retched": 5441,
  "\u2581Angelo": 5442,
  "\u2581Benson": 5443,
  "\u2581Calvin": 5444,
  "\u2581Diallo": 5445,
  "\u2581Lukasz": 5446,
  "\u2581clumsy": 5447,
  "\u2581earned": 5448,
  "\u2581shouts": 5449,
  "\u2581wanted": 5450,
  "\u2581Antonee": 5451,
  "\u2581Michail": 5452,
  "\u2581Timothy": 5453,
  "\u2581accumul": 5454,
  "\u2581balance": 5455,
  "\u2581cannons": 5456,
  "\u2581cleanly": 5457,
  "\u2581release": 5458,
  "\u2581strides": 5459,
  "\u2581Virginia": 5460,
  "\u2581Vladimir": 5461,
  "\u2581apparent": 5462,
  "\u2581destined": 5463,
  "\u2581movement": 5464,
  "\u2581Guglielmo": 5465,
  "\u2581equalised": 5466,
  "3)": 5467,
  "3).": 5468,
  "SON": 5469,
  "oim": 5470,
  "rul": 5471,
  "\u2581Ek": 5472,
  "\u2581SP": 5473,
  "\u2581Ye": 5474,
  "\u2581si": 5475,
  "akig": 5476,
  "alha": 5477,
  "apha": 5478,
  "arek": 5479,
  "beit": 5480,
  "ssef": 5481,
  "used": 5482,
  "\u2581Div": 5483,
  "\u2581Han": 5484,
  "\u2581Hol": 5485,
  "\u2581Pas": 5486,
  "\u2581Ser": 5487,
  "\u2581bed": 5488,
  "\u2581exc": 5489,
  "\u2581fam": 5490,
  "\u2581mag": 5491,
  "\u2581mar": 5492,
  "\u2581sat": 5493,
  "\u2581sne": 5494,
  "\u2581tie": 5495,
  "arlie": 5496,
  "aster": 5497,
  "elled": 5498,
  "fting": 5499,
  "toine": 5500,
  "urtis": 5501,
  "\u2581Bart": 5502,
  "\u2581Ital": 5503,
  "\u2581JUST": 5504,
  "\u2581Krul": 5505,
  "\u2581Then": 5506,
  "\u2581fill": 5507,
  "\u2581spir": 5508,
  "\u2581west": 5509,
  "\u2581yard": 5510,
  "akigbe": 5511,
  "alhaes": 5512,
  "ksandr": 5513,
  "oimhin": 5514,
  "\u2581Ekdal": 5515,
  "\u2581Marek": 5516,
  "\u2581Teden": 5517,
  "\u2581Yehor": 5518,
  "\u2581awful": 5519,
  "\u2581clubs": 5520,
  "\u2581dinks": 5521,
  "\u2581elect": 5522,
  "\u2581explo": 5523,
  "\u2581fancy": 5524,
  "\u2581sense": 5525,
  "\u2581shock": 5526,
  "\u2581steal": 5527,
  "\u2581studs": 5528,
  "fferson": 5529,
  "rington": 5530,
  "\u2581Curtis": 5531,
  "\u2581Daniel": 5532,
  "\u2581Mersey": 5533,
  "\u2581Pascal": 5534,
  "\u2581Sander": 5535,
  "\u2581albeit": 5536,
  "\u2581awards": 5537,
  "\u2581chases": 5538,
  "\u2581energy": 5539,
  "\u2581lunges": 5540,
  "\u2581steals": 5541,
  "\u2581unself": 5542,
  "\u2581worthy": 5543,
  "\u2581Antoine": 5544,
  "\u2581Charlie": 5545,
  "\u2581Perhaps": 5546,
  "\u2581Vincent": 5547,
  "\u2581Youssef": 5548,
  "\u2581briefly": 5549,
  "\u2581commits": 5550,
  "\u2581flagged": 5551,
  "\u2581lashing": 5552,
  "\u2581lunging": 5553,
  "\u2581rushing": 5554,
  "\u2581totally": 5555,
  "\u2581triumph": 5556,
  "\u2581Caoimhin": 5557,
  "\u2581Olakigbe": 5558,
  "\u2581clatters": 5559,
  "\u2581clipping": 5560,
  "\u2581downward": 5561,
  "\u2581responds": 5562,
  "\u2581tactical": 5563,
  "\u2581volleyed": 5564,
  "\u2581Argentina": 5565,
  "\u2581Jefferson": 5566,
  "\u2581Magalhaes": 5567,
  "\u2581Oleksandr": 5568,
  "\u2581confident": 5569,
  "\u2581reception": 5570,
  "\u2581Conference": 5571,
  "\u2581Merseyside": 5572,
  "\u2581Portuguese": 5573,
  "\u2581encouraged": 5574,
  "\u2581remarkable": 5575,
  "\u2581entertaining": 5576,
  "\u2581outstretched": 5577,
  "0)": 5578,
  "1,": 5579,
  "3,": 5580,
  "OW": 5581,
  "oc": 5582,
  "4),": 5583,
  "uit": 5584,
  "uth": 5585,
  "zoh": 5586,
  "\u2581DE": 5587,
  "\u2581Ge": 5588,
  "\u2581Na": 5589,
  "\u2581SH": 5590,
  "\u2581TH": 5591,
  "Phil": 5592,
  "SIDE": 5593,
  "ican": 5594,
  "lime": 5595,
  "rall": 5596,
  "\u2581Ras": 5597,
  "\u2581awa": 5598,
  "\u2581tal": 5599,
  "\u2581war": 5600,
  "achim": 5601,
  "arell": 5602,
  "erves": 5603,
  "lucky": 5604,
  "\u2581Dara": 5605,
  "\u2581Dest": 5606,
  "\u2581Dumm": 5607,
  "\u2581Kyle": 5608,
  "\u2581Ozoh": 5609,
  "\u2581chip": 5610,
  "\u2581diag": 5611,
  "\u2581emph": 5612,
  "\u2581prol": 5613,
  "\u2581rate": 5614,
  "\u2581skim": 5615,
  "\u2581soil": 5616,
  "\u2581stat": 5617,
  "aphael": 5618,
  "\u2581Reiss": 5619,
  "\u2581cheer": 5620,
  "\u2581flood": 5621,
  "\u2581leaps": 5622,
  "\u2581names": 5623,
  "\u2581prods": 5624,
  "\u2581smash": 5625,
  "\u2581tried": 5626,
  "\u2581Jamaal": 5627,
  "\u2581Jarell": 5628,
  "\u2581Matthe": 5629,
  "\u2581Rasmus": 5630,
  "\u2581Tyrick": 5631,
  "\u2581Vitaly": 5632,
  "\u2581ensure": 5633,
  "\u2581facing": 5634,
  "\u2581issues": 5635,
  "\u2581lacked": 5636,
  "\u2581rushed": 5637,
  "\u2581scuffs": 5638,
  "\u2581sounds": 5639,
  "\u2581versus": 5640,
  "Philippe": 5641,
  "\u2581Destiny": 5642,
  "\u2581Dummett": 5643,
  "\u2581Joachim": 5644,
  "\u2581Raphael": 5645,
  "\u2581Worrall": 5646,
  "\u2581battles": 5647,
  "\u2581clatter": 5648,
  "\u2581creates": 5649,
  "\u2581glances": 5650,
  "\u2581parried": 5651,
  "\u2581produce": 5652,
  "\u2581slipped": 5653,
  "\u2581sublime": 5654,
  "\u2581(3-4-3):": 5655,
  "\u2581composed": 5656,
  "\u2581diagonal": 5657,
  "\u2581mountain": 5658,
  "\u2581presence": 5659,
  "\u2581question": 5660,
  "\u2581slipping": 5661,
  "\u2581spinning": 5662,
  "\u2581struggle": 5663,
  "\u2581stunning": 5664,
  "\u2581troubles": 5665,
  "\u2581Christmas": 5666,
  "\u2581deduction": 5667,
  "\u2581intervene": 5668,
  "\u2581sidelined": 5669,
  "\u2581Englishman": 5670,
  "\u2581approaches": 5671,
  "\u2581convincing": 5672,
  "\u2581previously": 5673,
  "\u2581outstanding": 5674,
  "\u2581spectacular": 5675,
  "\u2581subsequently": 5676,
  "IA": 5677,
  "ii": 5678,
  "Sak": 5679,
  "air": 5680,
  "any": 5681,
  "aru": 5682,
  "chi": 5683,
  "fic": 5684,
  "\u2581Eb": 5685,
  "ateo": 5686,
  "ibal": 5687,
  "loyd": 5688,
  "pher": 5689,
  "rect": 5690,
  "roat": 5691,
  "uley": 5692,
  "\u2581(15": 5693,
  "\u2581Idr": 5694,
  "\u2581ONE": 5695,
  "\u2581Ola": 5696,
  "\u2581Rak": 5697,
  "OTHER": 5698,
  "Sakyi": 5699,
  "alled": 5700,
  "endar": 5701,
  "janet": 5702,
  "kicks": 5703,
  "mouth": 5704,
  "queez": 5705,
  "sonne": 5706,
  "\u25812-2!": 5707,
  "\u2581Anis": 5708,
  "\u2581KICK": 5709,
  "\u2581Naou": 5710,
  "\u2581Vict": 5711,
  "\u2581cree": 5712,
  "\u2581emer": 5713,
  "\u2581inad": 5714,
  "\u2581laid": 5715,
  "\u2581list": 5716,
  "\u2581said": 5717,
  "\u2581view": 5718,
  "erechi": 5719,
  "keeper": 5720,
  "\u2581Billy": 5721,
  "\u2581Cheik": 5722,
  "\u2581Mateo": 5723,
  "\u2581Santo": 5724,
  "\u2581duels": 5725,
  "\u2581limps": 5726,
  "\u2581links": 5727,
  "\u2581newly": 5728,
  "\u2581plate": 5729,
  "\u2581pluck": 5730,
  "\u2581stood": 5731,
  "\u2581trail": 5732,
  "AAALLLL": 5733,
  "\u2581Cauley": 5734,
  "\u2581Divock": 5735,
  "\u2581Kristo": 5736,
  "\u2581Wataru": 5737,
  "\u2581months": 5738,
  "\u2581squeez": 5739,
  "AAAAAAAA": 5740,
  "\u2581ANOTHER": 5741,
  "\u2581Clement": 5742,
  "\u2581Holgate": 5743,
  "\u2581Idrissa": 5744,
  "\u2581Odsonne": 5745,
  "\u2581Vitalii": 5746,
  "\u2581belated": 5747,
  "\u2581departs": 5748,
  "\u2581derbies": 5749,
  "\u2581earning": 5750,
  "\u2581hammers": 5751,
  "\u2581tighten": 5752,
  "\u2581Eberechi": 5753,
  "\u2581Naouirou": 5754,
  "\u2581advances": 5755,
  "\u2581calendar": 5756,
  "\u2581clumsily": 5757,
  "\u2581delaying": 5758,
  "\u2581emphatic": 5759,
  "\u2581extended": 5760,
  "\u2581inadvert": 5761,
  "\u2581pinpoint": 5762,
  "\u2581received": 5763,
  "\u2581strength": 5764,
  "\u2581Nathaniel": 5765,
  "\u2581direction": 5766,
  "\u2581Kristoffer": 5767,
  "\u2581recovering": 5768,
  "\u2581unleashing": 5769,
  "\u2581replacement": 5770,
  "\u2581unfortunate": 5771,
  "\u2581dispossesses": 5772,
  "RA": 5773,
  "OFF": 5774,
  "car": 5775,
  "cri": 5776,
  "eds": 5777,
  "egb": 5778,
  "ger": 5779,
  "hou": 5780,
  "nor": 5781,
  "run": 5782,
  "\u258140": 5783,
  "\u2581SI": 5784,
  "UBLE": 5785,
  "aiwo": 5786,
  "ayef": 5787,
  "eful": 5788,
  "eter": 5789,
  "gged": 5790,
  "icky": 5791,
  "ints": 5792,
  "ival": 5793,
  "llia": 5794,
  "oury": 5795,
  "xing": 5796,
  "\u25810.1": 5797,
  "\u25813-3": 5798,
  "\u2581Ari": 5799,
  "\u2581Iro": 5800,
  "\u2581Jer": 5801,
  "\u2581dut": 5802,
  "\u2581pie": 5803,
  "\u2581sho": 5804,
  "\u2581thw": 5805,
  "\u2581tre": 5806,
  "alked": 5807,
  "asser": 5808,
  "ffrey": 5809,
  "indir": 5810,
  "inger": 5811,
  "irewa": 5812,
  "maker": 5813,
  "usion": 5814,
  "utter": 5815,
  "\u2581CARD": 5816,
  "\u2581Malo": 5817,
  "\u2581Over": 5818,
  "\u2581PUTS": 5819,
  "\u2581Yves": 5820,
  "\u2581exce": 5821,
  "\u2581heap": 5822,
  "\u2581plus": 5823,
  "\u2581risk": 5824,
  "\u2581shap": 5825,
  "\u25812022.": 5826,
  "\u2581Dango": 5827,
  "\u2581Emile": 5828,
  "\u2581Illia": 5829,
  "\u2581Josko": 5830,
  "\u2581Leeds": 5831,
  "\u2581Nayef": 5832,
  "\u2581Oscar": 5833,
  "\u2581Saman": 5834,
  "\u2581Taiwo": 5835,
  "\u2581Tommy": 5836,
  "\u2581World": 5837,
  "\u2581guide": 5838,
  "\u2581offer": 5839,
  "\u2581scare": 5840,
  "\u2581silen": 5841,
  "\u2581south": 5842,
  "\u2581world": 5843,
  "\u25812022-2": 5844,
  "\u2581DOUBLE": 5845,
  "\u2581Former": 5846,
  "\u2581Iroegb": 5847,
  "\u2581Jeremy": 5848,
  "\u2581Though": 5849,
  "\u2581Yasser": 5850,
  "\u2581apiece": 5851,
  "\u2581cancel": 5852,
  "\u2581chests": 5853,
  "\u2581damage": 5854,
  "\u2581shakes": 5855,
  "\u2581steers": 5856,
  "\u2581tipped": 5857,
  "\u2581urging": 5858,
  "\u2581Chirewa": 5859,
  "\u2581Jeffrey": 5860,
  "\u2581OFFSIDE": 5861,
  "\u2581chipped": 5862,
  "\u2581dipping": 5863,
  "\u2581spreads": 5864,
  "\u2581stepped": 5865,
  "\u2581Arijanet": 5866,
  "\u2581Bayindir": 5867,
  "\u2581Cheikhou": 5868,
  "\u2581defeated": 5869,
  "\u2581instruct": 5870,
  "\u2581linesman": 5871,
  "\u2581converted": 5872,
  "\u2581indicates": 5873,
  "UN": 5874,
  "su": 5875,
  "2).": 5876,
  "Min": 5877,
  "jax": 5878,
  "rel": 5879,
  "ros": 5880,
  "tay": 5881,
  "\u2581Go": 5882,
  "\u2581Ir": 5883,
  "\u2581Of": 5884,
  "\u2581To": 5885,
  "HEAD": 5886,
  "cles": 5887,
  "dden": 5888,
  "elie": 5889,
  "isic": 5890,
  "osed": 5891,
  "pass": 5892,
  "rian": 5893,
  "rift": 5894,
  "roup": 5895,
  "unam": 5896,
  "\u2581Wal": 5897,
  "\u2581Zar": 5898,
  "\u2581cul": 5899,
  "\u2581eng": 5900,
  "\u2581fra": 5901,
  "\u2581hor": 5902,
  "\u2581inf": 5903,
  "\u2581mil": 5904,
  "\u2581thr": 5905,
  "\u2581toe": 5906,
  "cause": 5907,
  "icked": 5908,
  "\u2581Ajax": 5909,
  "\u2581Ansu": 5910,
  "\u2581Back": 5911,
  "\u2581Dean": 5912,
  "\u2581Jhon": 5913,
  "\u2581cost": 5914,
  "\u2581deck": 5915,
  "\u2581deft": 5916,
  "\u2581hurt": 5917,
  "\u2581pers": 5918,
  "\u2581teen": 5919,
  "\u2581trap": 5920,
  "-1-1):": 5921,
  "OALLLL": 5922,
  "coming": 5923,
  "\u2581AHEAD": 5924,
  "\u2581Altay": 5925,
  "\u2581Kenny": 5926,
  "\u2581Lloyd": 5927,
  "\u2581Maxim": 5928,
  "\u2581McCon": 5929,
  "\u2581Milos": 5930,
  "\u2581aside": 5931,
  "\u2581aware": 5932,
  "\u2581elbow": 5933,
  "\u2581feels": 5934,
  "\u2581stray": 5935,
  "\u2581worry": 5936,
  "forward": 5937,
  "\u25812020-2": 5938,
  "\u2581Andros": 5939,
  "\u2581Before": 5940,
  "\u2581Marcos": 5941,
  "\u2581adrift": 5942,
  "\u2581credit": 5943,
  "\u2581deeper": 5944,
  "\u2581delays": 5945,
  "\u2581poking": 5946,
  "\u2581scoops": 5947,
  "\u2581Perisic": 5948,
  "\u2581Zaroury": 5949,
  "\u2581because": 5950,
  "\u2581crashed": 5951,
  "\u2581parries": 5952,
  "\u2581precise": 5953,
  "\u2581scrappy": 5954,
  "\u2581trudges": 5955,
  "\u2581usually": 5956,
  "\u2581walking": 5957,
  "\u2581wanting": 5958,
  "\u2581Matthews": 5959,
  "\u2581afforded": 5960,
  "\u2581blocking": 5961,
  "\u2581forwards": 5962,
  "\u2581physical": 5963,
  "\u2581reigning": 5964,
  "\u2581squander": 5965,
  "\u2581stepping": 5966,
  "\u2581strongly": 5967,
  "\u2581transfer": 5968,
  "\u2581assisting": 5969,
  "\u2581clutching": 5970,
  "\u2581concerned": 5971,
  "\u2581questions": 5972,
  "\u2581Iroegbunam": 5973,
  "\u2581incredibly": 5974,
  "\u2581successful": 5975,
  "\u2581GOOOOOOOOOO": 5976,
  "AK": 5977,
  "EN": 5978,
  "ES": 5979,
  "UR": 5980,
  "lls": 5981,
  "wel": 5982,
  "\u25812.": 5983,
  "\u2581Gh": 5984,
  "ders": 5985,
  "gest": 5986,
  "hift": 5987,
  "ioka": 5988,
  "ivid": 5989,
  "nine": 5990,
  "orge": 5991,
  "otic": 5992,
  "\u25810.3": 5993,
  "\u2581Ian": 5994,
  "\u2581Sub": 5995,
  "\u2581agg": 5996,
  "\u2581ann": 5997,
  "\u2581gen": 5998,
  "\u2581typ": 5999,
  "belie": 6000,
  "icner": 6001,
  "obbie": 6002,
  "\u25811-1.": 6003,
  "\u25812016": 6004,
  "\u2581Cork": 6005,
  "\u2581Dier": 6006,
  "\u2581Half": 6007,
  "\u2581Hann": 6008,
  "\u2581Hash": 6009,
  "\u2581Levi": 6010,
  "\u2581Lyle": 6011,
  "\u2581Mike": 6012,
  "\u2581PULL": 6013,
  "\u2581Take": 6014,
  "\u2581duel": 6015,
  "\u2581pile": 6016,
  "\u2581plan": 6017,
  "\u2581purs": 6018,
  "\u2581shut": 6019,
  "\u2581soft": 6020,
  "target": 6021,
  "\u2581began": 6022,
  "\u2581below": 6023,
  "\u2581hauls": 6024,
  "\u2581risks": 6025,
  "\u2581skews": 6026,
  "\u2581uncon": 6027,
  "\u2581using": 6028,
  "\u2581words": 6029,
  "\u2581worth": 6030,
  "UALISES": 6031,
  "cleared": 6032,
  "\u2581Andrew": 6033,
  "\u2581Boxing": 6034,
  "\u2581Connor": 6035,
  "\u2581Elliot": 6036,
  "\u2581Johann": 6037,
  "\u2581Kobbie": 6038,
  "\u2581LEVELS": 6039,
  "\u2581Philip": 6040,
  "\u2581Target": 6041,
  "\u2581calmly": 6042,
  "\u2581closed": 6043,
  "\u2581expert": 6044,
  "\u2581firmly": 6045,
  "\u2581halted": 6046,
  "\u2581joined": 6047,
  "\u2581lifted": 6048,
  "\u2581proper": 6049,
  "\u2581relent": 6050,
  "\u2581woeful": 6051,
  "\u2581account": 6052,
  "\u2581advance": 6053,
  "\u2581arrived": 6054,
  "\u2581avoided": 6055,
  "\u2581chaotic": 6056,
  "\u2581correct": 6057,
  "\u2581limping": 6058,
  "\u2581overall": 6059,
  "\u2581product": 6060,
  "\u2581proving": 6061,
  "\u2581regular": 6062,
  "\u2581sprints": 6063,
  "\u2581Hannibal": 6064,
  "\u2581Hashioka": 6065,
  "\u2581entering": 6066,
  "\u2581appealing": 6067,
  "\u2581delighted": 6068,
  "\u2581makeshift": 6069,
  "\u2581playmaker": 6070,
  "\u2581remainder": 6071,
  "\u2581collecting": 6072,
  "\u2581momentarily": 6073,
  "\u2581encouragement": 6074,
  "\u2581inadvertently": 6075,
  "HAR": 6076,
  "eat": 6077,
  "onz": 6078,
  "\u258135": 6079,
  "\u2581Gl": 6080,
  "\u2581Ka": 6081,
  "\u2581Uk": 6082,
  "aded": 6083,
  "alob": 6084,
  "arsh": 6085,
  "naut": 6086,
  "\u25810.5": 6087,
  "\u2581196": 6088,
  "\u2581Fri": 6089,
  "\u2581Ony": 6090,
  "\u2581Yet": 6091,
  "\u2581bro": 6092,
  "\u2581eye": 6093,
  "\u2581fla": 6094,
  "\u2581gri": 6095,
  "\u2581ori": 6096,
  "\u2581ton": 6097,
  "\u2581tow": 6098,
  "LLLLL": 6099,
  "Toure": 6100,
  "ervis": 6101,
  "icing": 6102,
  "otion": 6103,
  "urely": 6104,
  "\u2581Dane": 6105,
  "\u2581Gonz": 6106,
  "\u2581Tino": 6107,
  "\u2581fing": 6108,
  "\u2581ramp": 6109,
  "\u2581sett": 6110,
  "\u2581stum": 6111,
  "\u2581trio": 6112,
  "\u2581valu": 6113,
  "-4-1):": 6114,
  "Ricner": 6115,
  "alobah": 6116,
  "\u2581Ballo": 6117,
  "\u2581Calum": 6118,
  "\u2581Divin": 6119,
  "\u2581Micky": 6120,
  "\u2581Norwe": 6121,
  "\u2581areas": 6122,
  "\u2581hacks": 6123,
  "\u2581lacks": 6124,
  "\u2581stick": 6125,
  "\u2581stuff": 6126,
  "\u2581surge": 6127,
  "\u2581whole": 6128,
  "atively": 6129,
  "\u2581Arnaut": 6130,
  "\u2581French": 6131,
  "\u2581Friday": 6132,
  "\u2581George": 6133,
  "\u2581Hannes": 6134,
  "\u2581Maxwel": 6135,
  "\u2581Pervis": 6136,
  "\u2581adding": 6137,
  "\u2581breath": 6138,
  "\u2581climbs": 6139,
  "\u2581embark": 6140,
  "\u2581lineup": 6141,
  "\u2581origin": 6142,
  "\u2581packed": 6143,
  "\u2581prefer": 6144,
  "\u2581spells": 6145,
  "\u2581spring": 6146,
  "\u2581sudden": 6147,
  "\u2581torrid": 6148,
  "\u2581Forster": 6149,
  "\u2581Giovani": 6150,
  "\u2581Italian": 6151,
  "\u2581Targett": 6152,
  "\u2581chalked": 6153,
  "\u2581fizzing": 6154,
  "\u2581hosting": 6155,
  "\u2581illness": 6156,
  "\u2581instant": 6157,
  "\u2581pursuit": 6158,
  "\u2581rattled": 6159,
  "\u2581tackled": 6160,
  "\u2581testing": 6161,
  "\u2581Chalobah": 6162,
  "\u2581Scotland": 6163,
  "\u2581accident": 6164,
  "\u2581advanced": 6165,
  "\u2581connects": 6166,
  "\u2581crashing": 6167,
  "\u2581defended": 6168,
  "\u2581followed": 6169,
  "\u2581overhead": 6170,
  "\u2581recorded": 6171,
  "\u2581signific": 6172,
  "\u2581Uruguayan": 6173,
  "\u2581backwards": 6174,
  "\u2581cynically": 6175,
  "\u2581preparing": 6176,
  "\u2581(4-4-1-1):": 6177,
  "\u2581Maximilian": 6178,
  "\u2581Thankfully": 6179,
  "\u2581controvers": 6180,
  "\u2581goalkeeping": 6181,
  "\u2581improvement": 6182,
  "\u2581unconvincing": 6183,
  "kel": 6184,
  "usy": 6185,
  "\u258160": 6186,
  "\u2581ve": 6187,
  "akes": 6188,
  "ariq": 6189,
  "heet": 6190,
  "high": 6191,
  "hiro": 6192,
  "hrer": 6193,
  "ient": 6194,
  "lose": 6195,
  "neny": 6196,
  "\u2581Mah": 6197,
  "\u2581NET": 6198,
  "\u2581RED": 6199,
  "\u2581Sof": 6200,
  "\u2581foc": 6201,
  "\u2581gre": 6202,
  "\u2581jin": 6203,
  "\u2581mem": 6204,
  "\u2581sky": 6205,
  "asner": 6206,
  "enced": 6207,
  "final": 6208,
  "foots": 6209,
  "inian": 6210,
  "mando": 6211,
  "onday": 6212,
  "third": 6213,
  "\u2581Noth": 6214,
  "\u2581Remi": 6215,
  "\u2581SHOU": 6216,
  "\u2581Ukra": 6217,
  "\u2581disp": 6218,
  "\u2581mara": 6219,
  "\u2581sigh": 6220,
  "\u2581tuck": 6221,
  "heless": 6222,
  "season": 6223,
  "\u2581Amari": 6224,
  "\u2581Close": 6225,
  "\u2581Steve": 6226,
  "\u2581Tariq": 6227,
  "\u2581Trees": 6228,
  "\u2581carve": 6229,
  "\u2581gener": 6230,
  "\u2581nudge": 6231,
  "\u2581occup": 6232,
  "\u2581palms": 6233,
  "\u2581poked": 6234,
  "\u2581reads": 6235,
  "\u2581shore": 6236,
  "\u2581sneak": 6237,
  "\u2581sting": 6238,
  "\u2581sweet": 6239,
  "\u2581thigh": 6240,
  "\u2581timed": 6241,
  "ability": 6242,
  "\u2581Elneny": 6243,
  "\u2581Kehrer": 6244,
  "\u2581Monday": 6245,
  "\u2581Sofyan": 6246,
  "\u2581Surely": 6247,
  "\u2581Tricky": 6248,
  "\u2581assess": 6249,
  "\u2581avoids": 6250,
  "\u2581felled": 6251,
  "\u2581glance": 6252,
  "\u2581guides": 6253,
  "\u2581pounce": 6254,
  "\u2581weaves": 6255,
  "\u2581Armando": 6256,
  "\u2581Glasner": 6257,
  "\u2581Nothing": 6258,
  "\u2581believe": 6259,
  "\u2581bundled": 6260,
  "\u2581claimed": 6261,
  "\u2581company": 6262,
  "\u2581counted": 6263,
  "\u2581covered": 6264,
  "\u2581heavily": 6265,
  "\u2581needing": 6266,
  "\u2581rifling": 6267,
  "\u2581slotted": 6268,
  "\u2581tonight": 6269,
  "\u2581travels": 6270,
  "\u2581Takehiro": 6271,
  "\u2581exchange": 6272,
  "\u2581resolute": 6273,
  "\u2581suggests": 6274,
  "\u2581valuable": 6275,
  "\u2581thrilling": 6276,
  "\u2581completing": 6277,
  "\u2581scoresheet": 6278,
  "\u2581GOOOOOOOAAAA": 6279,
  "gs": 6280,
  "rd": 6281,
  "-20": 6282,
  "Dav": 6283,
  "aut": 6284,
  "yna": 6285,
  "\u2581ov": 6286,
  "airo": 6287,
  "arre": 6288,
  "chan": 6289,
  "ract": 6290,
  "shot": 6291,
  "urry": 6292,
  "wise": 6293,
  "wson": 6294,
  "\u25810.0": 6295,
  "\u2581Out": 6296,
  "\u2581Par": 6297,
  "\u2581cho": 6298,
  "\u2581cup": 6299,
  "\u2581mer": 6300,
  "\u2581pan": 6301,
  "\u2581pur": 6302,
  "clear": 6303,
  "istic": 6304,
  "lying": 6305,
  "ostas": 6306,
  "ushes": 6307,
  "\u2581Down": 6308,
  "\u2581Emil": 6309,
  "\u2581Orel": 6310,
  "\u2581Unal": 6311,
  "\u2581adds": 6312,
  "\u2581busy": 6313,
  "\u2581else": 6314,
  "\u2581flat": 6315,
  "Davies": 6316,
  "\u2581Could": 6317,
  "\u2581Fleck": 6318,
  "\u2581Jairo": 6319,
  "\u2581Reyna": 6320,
  "\u2581Short": 6321,
  "\u2581asked": 6322,
  "\u2581beaut": 6323,
  "\u2581chaos": 6324,
  "\u2581death": 6325,
  "\u2581diver": 6326,
  "\u2581knows": 6327,
  "\u2581peels": 6328,
  "\u2581shake": 6329,
  "\u2581thump": 6330,
  "asingly": 6331,
  "\u2581Kostas": 6332,
  "\u2581Pawson": 6333,
  "\u2581Victor": 6334,
  "\u2581circle": 6335,
  "\u2581culmin": 6336,
  "\u2581forget": 6337,
  "\u2581gotten": 6338,
  "\u2581outmus": 6339,
  "\u2581proved": 6340,
  "\u2581series": 6341,
  "\u2581speeds": 6342,
  "\u2581Tomkins": 6343,
  "\u2581aggress": 6344,
  "\u2581evening": 6345,
  "\u2581feeding": 6346,
  "\u2581landing": 6347,
  "\u2581nodding": 6348,
  "\u2581ovation": 6349,
  "\u2581signals": 6350,
  "\u2581special": 6351,
  "\u2581warning": 6352,
  "\u2581adjudged": 6353,
  "\u2581anywhere": 6354,
  "\u2581electric": 6355,
  "\u2581offering": 6356,
  "\u2581powering": 6357,
  "\u2581relieved": 6358,
  "\u2581restored": 6359,
  "\u2581survival": 6360,
  "\u2581Jorgensen": 6361,
  "\u2581available": 6362,
  "\u2581demanding": 6363,
  "\u2581exception": 6364,
  "\u2581preferred": 6365,
  "\u2581troubling": 6366,
  "\u2581underside": 6367,
  "\u2581Norrington": 6368,
  "\u2581constantly": 6369,
  "\u2581competitive": 6370,
  "\u2581considering": 6371,
  "\u2581excellently": 6372,
  "\u2581experienced": 6373,
  "\u2581increasingly": 6374,
  "\u2581instructions": 6375,
  "6)": 6376,
  "KA": 6377,
  "LY": 6378,
  "gr": 6379,
  "ze": 6380,
  "4).": 6381,
  "OOD": 6382,
  "RON": 6383,
  "VEN": 6384,
  "chn": 6385,
  "hit": 6386,
  "ilt": 6387,
  "\u258139": 6388,
  "\u2581Rh": 6389,
  "\u2581ap": 6390,
  "\u2581ob": 6391,
  "cend": 6392,
  "elsh": 6393,
  "entr": 6394,
  "erve": 6395,
  "iber": 6396,
  "ites": 6397,
  "moud": 6398,
  "\u2581(10": 6399,
  "\u2581(20": 6400,
  "\u25816-0": 6401,
  "\u2581Don": 6402,
  "\u2581Wow": 6403,
  "\u2581aff": 6404,
  "\u2581aud": 6405,
  "\u2581ble": 6406,
  "\u2581boy": 6407,
  "\u2581dep": 6408,
  "\u2581sle": 6409,
  "\u2581una": 6410,
  "stead": 6411,
  "\u25812009": 6412,
  "\u2581Five": 6413,
  "\u2581Huge": 6414,
  "\u2581Nick": 6415,
  "\u2581Sven": 6416,
  "\u2581Swed": 6417,
  "\u2581Wide": 6418,
  "\u2581aims": 6419,
  "\u2581calf": 6420,
  "\u2581cond": 6421,
  "\u2581cope": 6422,
  "\u2581duty": 6423,
  "\u2581isol": 6424,
  "\u2581jump": 6425,
  "\u2581mish": 6426,
  "\u2581sums": 6427,
  "\u2581tick": 6428,
  "\u2581woes": 6429,
  "istent": 6430,
  "itions": 6431,
  "losing": 6432,
  "ooking": 6433,
  "\u25812022,": 6434,
  "\u2581Ghana": 6435,
  "\u2581Rhian": 6436,
  "\u2581Welsh": 6437,
  "\u2581breat": 6438,
  "\u2581grate": 6439,
  "\u2581laces": 6440,
  "\u2581memor": 6441,
  "\u2581skims": 6442,
  "\u2581spott": 6443,
  "\u2581techn": 6444,
  "\u2581ticks": 6445,
  "ulation": 6446,
  "\u25812021-2": 6447,
  "\u2581Fortun": 6448,
  "\u2581affair": 6449,
  "\u2581arrive": 6450,
  "\u2581flurry": 6451,
  "\u2581glides": 6452,
  "\u2581kicked": 6453,
  "\u2581orders": 6454,
  "\u2581placed": 6455,
  "\u2581repeat": 6456,
  "\u2581rooted": 6457,
  "\u2581select": 6458,
  "\u2581shapes": 6459,
  "\u2581sheets": 6460,
  "\u2581wildly": 6461,
  "\u2581Gonzalo": 6462,
  "\u2581Instead": 6463,
  "\u2581Leander": 6464,
  "\u2581Mahmoud": 6465,
  "\u2581Norwich": 6466,
  "\u2581Shortly": 6467,
  "\u2581Travers": 6468,
  "\u2581changed": 6469,
  "\u2581dealing": 6470,
  "\u2581denying": 6471,
  "\u2581deserve": 6472,
  "\u2581directs": 6473,
  "\u2581feeling": 6474,
  "\u2581fouling": 6475,
  "\u2581gifting": 6476,
  "\u2581punched": 6477,
  "\u2581seeking": 6478,
  "\u2581building": 6479,
  "\u2581deciding": 6480,
  "\u2581improved": 6481,
  "\u2581shifting": 6482,
  "\u2581Norwegian": 6483,
  "\u2581absentees": 6484,
  "\u2581centrally": 6485,
  "\u2581completes": 6486,
  "\u2581hammering": 6487,
  "\u2581releasing": 6488,
  "\u2581beforehand": 6489,
  "\u2581impression": 6490,
  "\u2581relatively": 6491,
  "\u2581controlling": 6492,
  "\u2581dangerously": 6493,
  "\u2581unavailable": 6494,
  "\u2581frustrations": 6495,
  "\u2581counterattack": 6496,
  "5).": 6497,
  "ACK": 6498,
  "aps": 6499,
  "vre": 6500,
  "zed": 6501,
  "\u2581AT": 6502,
  "\u2581Mb": 6503,
  "\u2581ON": 6504,
  "\u2581Up": 6505,
  "\u2581ir": 6506,
  "\u2581je": 6507,
  "body": 6508,
  "ency": 6509,
  "eren": 6510,
  "hold": 6511,
  "ider": 6512,
  "izes": 6513,
  "oses": 6514,
  "othe": 6515,
  "ours": 6516,
  "tesy": 6517,
  "\u25810.4": 6518,
  "\u2581195": 6519,
  "\u2581Das": 6520,
  "\u2581Lor": 6521,
  "\u2581Tod": 6522,
  "\u2581Val": 6523,
  "\u2581bob": 6524,
  "\u2581ine": 6525,
  "\u2581max": 6526,
  "\u2581pet": 6527,
  "\u2581ran": 6528,
  "\u2581sen": 6529,
  "enoit": 6530,
  "inary": 6531,
  "onstr": 6532,
  "place": 6533,
  "pting": 6534,
  "ument": 6535,
  "\u25811-0.": 6536,
  "\u2581BALL": 6537,
  "\u2581Berg": 6538,
  "\u2581Brom": 6539,
  "\u2581Into": 6540,
  "\u2581Tier": 6541,
  "\u2581Time": 6542,
  "\u2581WOOD": 6543,
  "\u2581agon": 6544,
  "\u2581barg": 6545,
  "\u2581comm": 6546,
  "\u2581inex": 6547,
  "\u2581load": 6548,
  "\u2581pred": 6549,
  "\u2581ruth": 6550,
  "\u2581subs": 6551,
  "\u2581unch": 6552,
  "\u2581zips": 6553,
  "acious": 6554,
  "ishing": 6555,
  "\u2581Benie": 6556,
  "\u2581bears": 6557,
  "\u2581class": 6558,
  "\u2581contr": 6559,
  "\u2581fells": 6560,
  "\u2581focus": 6561,
  "\u2581harsh": 6562,
  "\u2581night": 6563,
  "\u2581piece": 6564,
  "\u2581slams": 6565,
  "\u2581survi": 6566,
  "\u2581swive": 6567,
  "\u2581walks": 6568,
  "\u2581weren": 6569,
  "athered": 6570,
  "balance": 6571,
  "othered": 6572,
  "\u2581Benoit": 6573,
  "\u2581Forson": 6574,
  "\u2581Mikkel": 6575,
  "\u2581Norway": 6576,
  "\u2581broken": 6577,
  "\u2581halves": 6578,
  "\u2581passed": 6579,
  "\u2581proves": 6580,
  "\u2581senior": 6581,
  "\u2581Dasilva": 6582,
  "\u2581Tierney": 6583,
  "\u2581biggest": 6584,
  "\u2581blasted": 6585,
  "\u2581cheaply": 6586,
  "\u2581fingert": 6587,
  "\u2581fitness": 6588,
  "\u2581largely": 6589,
  "\u2581luckily": 6590,
  "\u2581powered": 6591,
  "\u2581prolong": 6592,
  "\u2581retreat": 6593,
  "\u2581shadows": 6594,
  "\u2581silence": 6595,
  "ALLLLLLLL": 6596,
  "ification": 6597,
  "\u2581changing": 6598,
  "\u2581concentr": 6599,
  "\u2581courtesy": 6600,
  "\u2581cushions": 6601,
  "\u2581decisive": 6602,
  "\u2581latching": 6603,
  "\u2581marching": 6604,
  "\u2581pointing": 6605,
  "\u2581readying": 6606,
  "\u2581snatched": 6607,
  "\u2581stranded": 6608,
  "\u2581youngest": 6609,
  "\u2581delicious": 6610,
  "\u2581everybody": 6611,
  "\u2581goalbound": 6612,
  "\u2581stretched": 6613,
  "\u2581volleying": 6614,
  "\u2581Fortunately": 6615,
  "\u2581combination": 6616,
  "\u2581defensively": 6617,
  "\u2581midfielders": 6618,
  "\u2581unselfishly": 6619,
  "\u2581GOOOOAAAALLL": 6620,
  "\u2581involvements": 6621,
  "\u2581qualification": 6622,
  "10": 6623,
  "2,": 6624,
  "Ch": 6625,
  "RD": 6626,
  "WO": 6627,
  "ej": 6628,
  "6),": 6629,
  "6).": 6630,
  "BLE": 6631,
  "URS": 6632,
  "bri": 6633,
  "een": 6634,
  "oly": 6635,
  "oru": 6636,
  "yst": 6637,
  "\u258132": 6638,
  "\u258136": 6639,
  "\u2581BE": 6640,
  "\u2581Ex": 6641,
  "\u2581GA": 6642,
  "\u2581Pe": 6643,
  "\u2581SU": 6644,
  "\u2581Tw": 6645,
  "aged": 6646,
  "amus": 6647,
  "apan": 6648,
  "gasp": 6649,
  "plic": 6650,
  "\u25810.9": 6651,
  "\u2581Ced": 6652,
  "\u2581Mej": 6653,
  "\u2581bag": 6654,
  "\u2581bol": 6655,
  "\u2581flu": 6656,
  "going": 6657,
  "iliar": 6658,
  "illed": 6659,
  "iwome": 6660,
  "olyuk": 6661,
  "\u25812014": 6662,
  "\u25813-0!": 6663,
  "\u2581Arbl": 6664,
  "\u2581Fode": 6665,
  "\u2581Said": 6666,
  "\u2581Save": 6667,
  "\u2581bree": 6668,
  "\u2581nest": 6669,
  "\u2581palm": 6670,
  "\u2581rain": 6671,
  "\u2581rash": 6672,
  "\u2581safe": 6673,
  "\u2581slam": 6674,
  "\u2581taps": 6675,
  "\u2581tier": 6676,
  "\u2581used": 6677,
  "assing": 6678,
  "erving": 6679,
  "handed": 6680,
  "izarre": 6681,
  "lusion": 6682,
  "regate": 6683,
  "\u25812020.": 6684,
  "\u2581Adama": 6685,
  "\u2581Japan": 6686,
  "\u2581Kaoru": 6687,
  "\u2581SPURS": 6688,
  "\u2581Today": 6689,
  "\u2581absor": 6690,
  "\u2581apart": 6691,
  "\u2581bends": 6692,
  "\u2581benef": 6693,
  "\u2581coast": 6694,
  "\u2581deter": 6695,
  "\u2581eager": 6696,
  "\u2581jumps": 6697,
  "\u2581miles": 6698,
  "\u2581shaky": 6699,
  "\u2581tails": 6700,
  "\u2581thing": 6701,
  "Ruddock": 6702,
  "cessary": 6703,
  "ingerly": 6704,
  "\u2581Cedric": 6705,
  "\u2581Mejbri": 6706,
  "\u2581Seamus": 6707,
  "\u2581anyone": 6708,
  "\u2581gaping": 6709,
  "\u2581nudged": 6710,
  "\u2581physio": 6711,
  "\u2581rifles": 6712,
  "\u2581rolled": 6713,
  "\u2581upping": 6714,
  "\u2581wicked": 6715,
  "\u2581Chiwome": 6716,
  "\u2581bounced": 6717,
  "\u2581checked": 6718,
  "\u2581helping": 6719,
  "\u2581maximum": 6720,
  "\u2581pinball": 6721,
  "\u2581reacted": 6722,
  "\u2581rightly": 6723,
  "\u2581Egyptian": 6724,
  "\u2581battling": 6725,
  "\u2581controls": 6726,
  "\u2581demonstr": 6727,
  "\u2581expertly": 6728,
  "\u2581foothold": 6729,
  "\u2581gingerly": 6730,
  "\u2581overturn": 6731,
  "\u2581prevents": 6732,
  "\u2581properly": 6733,
  "\u2581towering": 6734,
  "\u2581troubled": 6735,
  "\u2581Arblaster": 6736,
  "\u2581aggregate": 6737,
  "\u2581beginning": 6738,
  "\u2581cancelled": 6739,
  "\u2581confirmed": 6740,
  "\u2581dismissal": 6741,
  "\u2581expecting": 6742,
  "\u2581goalmouth": 6743,
  "\u2581scrambles": 6744,
  "\u2581smothered": 6745,
  "\u2581committing": 6746,
  "\u2581deliveries": 6747,
  "\u2581GOOOOOOAAAA": 6748,
  "\u2581accidentally": 6749,
  "\u2581GOOOOOOAAAAAA": 6750,
  "AS": 6751,
  "AY": 6752,
  "td": 6753,
  "GHT": 6754,
  "NDS": 6755,
  "agu": 6756,
  "mal": 6757,
  "\u258134": 6758,
  "\u2581Es": 6759,
  "\u2581HE": 6760,
  "\u2581Ju": 6761,
  "\u2581na": 6762,
  "RONT": 6763,
  "adei": 6764,
  "band": 6765,
  "chie": 6766,
  "ened": 6767,
  "ivot": 6768,
  "nell": 6769,
  "olog": 6770,
  "pose": 6771,
  "whel": 6772,
  "\u25811.1": 6773,
  "\u25814-4": 6774,
  "\u25816-1": 6775,
  "\u2581Lis": 6776,
  "\u2581OWN": 6777,
  "\u2581Rep": 6778,
  "\u2581Utd": 6779,
  "\u2581duo": 6780,
  "\u2581hum": 6781,
  "\u2581sel": 6782,
  "anted": 6783,
  "blank": 6784,
  "icate": 6785,
  "ining": 6786,
  "iring": 6787,
  "oring": 6788,
  "\u25812012": 6789,
  "\u2581Gill": 6790,
  "\u2581Kick": 6791,
  "\u2581Luca": 6792,
  "\u2581boos": 6793,
  "\u2581clip": 6794,
  "\u2581cute": 6795,
  "\u2581heel": 6796,
  "\u2581mood": 6797,
  "\u2581teed": 6798,
  "believ": 6799,
  "velous": 6800,
  "\u2581Black": 6801,
  "\u2581Every": 6802,
  "\u2581FRONT": 6803,
  "\u2581Loris": 6804,
  "\u2581Omari": 6805,
  "\u2581SAVES": 6806,
  "\u2581achie": 6807,
  "\u2581balls": 6808,
  "\u2581blown": 6809,
  "\u2581deals": 6810,
  "\u2581fully": 6811,
  "\u2581grabs": 6812,
  "\u2581ideas": 6813,
  "\u2581raced": 6814,
  "\u2581rooms": 6815,
  "\u2581scamp": 6816,
  "\u2581shove": 6817,
  "\u2581swept": 6818,
  "\u2581talis": 6819,
  "\u2581track": 6820,
  "\u2581twist": 6821,
  "\u2581Adrian": 6822,
  "\u2581Hooper": 6823,
  "\u2581Soares": 6824,
  "\u2581Things": 6825,
  "\u2581Yellow": 6826,
  "\u2581arrows": 6827,
  "\u2581ascend": 6828,
  "\u2581breach": 6829,
  "\u2581cheers": 6830,
  "\u2581conver": 6831,
  "\u2581discip": 6832,
  "\u2581fought": 6833,
  "\u2581gifted": 6834,
  "\u2581handed": 6835,
  "\u2581nerves": 6836,
  "\u2581paused": 6837,
  "\u2581resili": 6838,
  "\u2581resume": 6839,
  "\u2581teases": 6840,
  "\u2581throat": 6841,
  "\u2581thrown": 6842,
  "\u2581Captain": 6843,
  "\u2581Casadei": 6844,
  "\u2581Substit": 6845,
  "\u2581Washing": 6846,
  "\u2581ability": 6847,
  "\u2581carried": 6848,
  "\u2581exposed": 6849,
  "\u2581handled": 6850,
  "\u2581limited": 6851,
  "\u2581marking": 6852,
  "\u2581matched": 6853,
  "\u2581matters": 6854,
  "\u2581ongoing": 6855,
  "\u2581salvage": 6856,
  "\u2581slender": 6857,
  "\u2581slowing": 6858,
  "\u2581stunned": 6859,
  "\u2581Lisandro": 6860,
  "\u2581chipping": 6861,
  "\u2581combines": 6862,
  "\u2581creative": 6863,
  "\u2581debutant": 6864,
  "\u2581determin": 6865,
  "\u2581incisive": 6866,
  "\u2581inexplic": 6867,
  "\u2581isolated": 6868,
  "\u2581precious": 6869,
  "\u2581separate": 6870,
  "\u2581stopping": 6871,
  "\u2581stronger": 6872,
  "\u2581talisman": 6873,
  "\u2581withdraw": 6874,
  "\u2581Yarmolyuk": 6875,
  "\u2581audacious": 6876,
  "\u2581campaigns": 6877,
  "\u2581colliding": 6878,
  "\u2581energetic": 6879,
  "\u2581extending": 6880,
  "\u2581numerical": 6881,
  "\u2581prolonged": 6882,
  "\u2581recording": 6883,
  "\u2581threatens": 6884,
  "\u2581Washington": 6885,
  "\u2581altogether": 6886,
  "\u2581deflecting": 6887,
  "\u2581relentless": 6888,
  "\u2581supporting": 6889,
  "\u2581challenging": 6890,
  "\u2581registering": 6891,
  "\u2581concentration": 6892,
  "5,": 6893,
  "ns": 6894,
  "AKE": 6895,
  "ito": 6896,
  "nds": 6897,
  "set": 6898,
  "sto": 6899,
  "\u2581(6": 6900,
  "\u258133": 6901,
  "\u258142": 6902,
  "\u2581UP": 6903,
  "\u2581gh": 6904,
  "\u2581vo": 6905,
  "aite": 6906,
  "asty": 6907,
  "edin": 6908,
  "lers": 6909,
  "uing": 6910,
  "\u25811-3": 6911,
  "\u25811.0": 6912,
  "\u2581Oli": 6913,
  "\u2581Who": 6914,
  "\u2581dug": 6915,
  "\u2581fum": 6916,
  "\u2581non": 6917,
  "\u2581spl": 6918,
  "\u2581tum": 6919,
  "\u2581und": 6920,
  "agues": 6921,
  "aitey": 6922,
  "guing": 6923,
  "ystem": 6924,
  "\u2581HAVE": 6925,
  "\u2581claw": 6926,
  "\u2581fren": 6927,
  "\u2581hack": 6928,
  "\u2581imag": 6929,
  "\u2581misc": 6930,
  "\u2581neck": 6931,
  "\u2581pays": 6932,
  "\u2581prof": 6933,
  "\u2581scyt": 6934,
  "\u2581tens": 6935,
  "atural": 6936,
  "edinma": 6937,
  "handon": 6938,
  "pirito": 6939,
  "riving": 6940,
  "\u2581Adams": 6941,
  "\u2581SHOUT": 6942,
  "\u2581Thilo": 6943,
  "\u2581books": 6944,
  "\u2581disru": 6945,
  "\u2581foray": 6946,
  "\u2581ghost": 6947,
  "\u2581groin": 6948,
  "\u2581influ": 6949,
  "\u2581leans": 6950,
  "\u2581pivot": 6951,
  "\u2581skill": 6952,
  "\u2581spill": 6953,
  "\u2581stuck": 6954,
  "\u2581utter": 6955,
  "\u2581voice": 6956,
  "\u2581Making": 6957,
  "\u2581amount": 6958,
  "\u2581camped": 6959,
  "\u2581driven": 6960,
  "\u2581easier": 6961,
  "\u2581flings": 6962,
  "\u2581hacked": 6963,
  "\u2581hooked": 6964,
  "\u2581lashed": 6965,
  "\u2581margin": 6966,
  "\u2581mistim": 6967,
  "\u2581nudges": 6968,
  "\u2581replay": 6969,
  "\u2581resist": 6970,
  "\u2581rocket": 6971,
  "\u2581shared": 6972,
  "\u2581signed": 6973,
  "\u2581system": 6974,
  "\u2581timely": 6975,
  "\u25812019-20": 6976,
  "\u25812022-23": 6977,
  "\u2581Germany": 6978,
  "\u2581Shandon": 6979,
  "\u2581armband": 6980,
  "\u2581arrival": 6981,
  "\u2581bizarre": 6982,
  "\u2581bobbles": 6983,
  "\u2581boosted": 6984,
  "\u2581crossed": 6985,
  "\u2581delayed": 6986,
  "\u2581flowing": 6987,
  "\u2581glanced": 6988,
  "\u2581latched": 6989,
  "\u2581lofting": 6990,
  "\u2581nervous": 6991,
  "\u2581overrun": 6992,
  "\u2581passage": 6993,
  "\u2581prepare": 6994,
  "\u2581quicker": 6995,
  "\u2581shepher": 6996,
  "\u2581springs": 6997,
  "\u2581spurned": 6998,
  "\u2581touched": 6999,
  "\u2581wasting": 7000,
  "\u2581Colombia": 7001,
  "\u2581Espirito": 7002,
  "\u2581Welshman": 7003,
  "\u2581accuracy": 7004,
  "\u2581activity": 7005,
  "\u2581confirms": 7006,
  "\u2581contrast": 7007,
  "\u2581ineffect": 7008,
  "\u2581preserve": 7009,
  "\u2581provider": 7010,
  "\u2581rebounds": 7011,
  "\u2581rewarded": 7012,
  "\u2581securing": 7013,
  "\u2581signings": 7014,
  "\u2581stumbles": 7015,
  "\u2581terrific": 7016,
  "\u2581thinking": 7017,
  "\u2581McConnell": 7018,
  "\u2581Onyedinma": 7019,
  "\u2581frustrate": 7020,
  "\u2581introduce": 7021,
  "\u2581stretcher": 7022,
  "\u2581culminates": 7023,
  "\u2581strugglers": 7024,
  "\u2581thunderous": 7025,
  "\u2581encouraging": 7026,
  "\u2581significant": 7027,
  "\u2581substituted": 7028,
  "Bo": 7029,
  "PE": 7030,
  "Pa": 7031,
  "SS": 7032,
  "je": 7033,
  "-19": 7034,
  "cho": 7035,
  "eas": 7036,
  "irm": 7037,
  "mar": 7038,
  "tic": 7039,
  "\u2581PS": 7040,
  "LLOW": 7041,
  "Paul": 7042,
  "anda": 7043,
  "hens": 7044,
  "rigg": 7045,
  "zing": 7046,
  "\u2581(13": 7047,
  "\u2581ALM": 7048,
  "\u2581BUT": 7049,
  "\u2581Big": 7050,
  "\u2581Bri": 7051,
  "\u2581Fai": 7052,
  "\u2581HIT": 7053,
  "\u2581Mal": 7054,
  "\u2581Taw": 7055,
  "\u2581arg": 7056,
  "\u2581bas": 7057,
  "\u2581fle": 7058,
  "\u2581kit": 7059,
  "\u2581tro": 7060,
  "\u2581why": 7061,
  "ached": 7062,
  "ademy": 7063,
  "irect": 7064,
  "rieve": 7065,
  "teran": 7066,
  "\u25812-0.": 7067,
  "\u25812-1.": 7068,
  "\u25812006": 7069,
  "\u25813-1!": 7070,
  "\u2581GAME": 7071,
  "\u2581Here": 7072,
  "\u2581Hill": 7073,
  "\u2581WITH": 7074,
  "\u2581duly": 7075,
  "\u2581exit": 7076,
  "\u2581flow": 7077,
  "\u2581loud": 7078,
  "\u2581musc": 7079,
  "\u2581pops": 7080,
  "\u2581says": 7081,
  "\u2581solo": 7082,
  "\u2581wary": 7083,
  "chance": 7084,
  "ection": 7085,
  "ential": 7086,
  "erable": 7087,
  "itting": 7088,
  "struck": 7089,
  "urpris": 7090,
  "\u25812023.": 7091,
  "\u25812024.": 7092,
  "\u2581Alejo": 7093,
  "\u2581Ameen": 7094,
  "\u2581Jamie": 7095,
  "\u2581Mings": 7096,
  "\u2581Sambi": 7097,
  "\u2581Serge": 7098,
  "\u2581Wales": 7099,
  "\u2581boots": 7100,
  "\u2581dream": 7101,
  "\u2581fluff": 7102,
  "\u2581greet": 7103,
  "\u2581limit": 7104,
  "\u2581minor": 7105,
  "\u2581noses": 7106,
  "\u2581order": 7107,
  "\u2581organ": 7108,
  "\u2581petul": 7109,
  "\u2581risky": 7110,
  "\u2581slice": 7111,
  "\u2581tests": 7112,
  "\u2581upend": 7113,
  "\u2581usual": 7114,
  "\u2581value": 7115,
  "\u2581wrigg": 7116,
  "ALLLLLL": 7117,
  "hearted": 7118,
  "isingly": 7119,
  "\u2581Cheick": 7120,
  "\u2581Danger": 7121,
  "\u2581Deivid": 7122,
  "\u2581Donley": 7123,
  "\u2581Faivre": 7124,
  "\u2581Joseph": 7125,
  "\u2581Madley": 7126,
  "\u2581alterc": 7127,
  "\u2581chased": 7128,
  "\u2581choice": 7129,
  "\u2581decide": 7130,
  "\u2581extrem": 7131,
  "\u2581maraud": 7132,
  "\u2581outfit": 7133,
  "\u2581wastes": 7134,
  "etheless": 7135,
  "\u2581Goodbye": 7136,
  "\u2581Tawanda": 7137,
  "\u2581assured": 7138,
  "\u2581embarks": 7139,
  "\u2581exploit": 7140,
  "\u2581hurried": 7141,
  "\u2581ignores": 7142,
  "\u2581pounced": 7143,
  "\u2581prodded": 7144,
  "\u2581purpose": 7145,
  "\u2581regroup": 7146,
  "\u2581sailing": 7147,
  "\u2581settled": 7148,
  "\u2581talking": 7149,
  "\u2581unlucky": 7150,
  "\u2581veteran": 7151,
  "\u2581Mitrovic": 7152,
  "\u2581accurate": 7153,
  "\u2581covering": 7154,
  "\u2581dominate": 7155,
  "\u2581familiar": 7156,
  "\u2581flashing": 7157,
  "\u2581fortunes": 7158,
  "\u2581recovery": 7159,
  "\u2581released": 7160,
  "\u2581smashing": 7161,
  "\u2581training": 7162,
  "\u2581unbeliev": 7163,
  "\u2581Marvelous": 7164,
  "\u2581Ukrainian": 7165,
  "\u2581appearing": 7166,
  "\u2581attackers": 7167,
  "\u2581clattered": 7168,
  "\u2581effective": 7169,
  "\u2581instantly": 7170,
  "\u2581involving": 7171,
  "\u2581memorable": 7172,
  "\u2581producing": 7173,
  "\u2581seriously": 7174,
  "\u2581underwhel": 7175,
  "\u2581GOOAAALLLL": 7176,
  "\u2581creativity": 7177,
  "\u2581deservedly": 7178,
  "\u2581spiralling": 7179,
  "\u2581accumulated": 7180,
  "\u2581celebration": 7181,
  "\u2581inexplicably": 7182,
  "\u2581surprisingly": 7183,
  ".2": 7184,
  "zy": 7185,
  "5),": 7186,
  "9).": 7187,
  "MER": 7188,
  "PER": 7189,
  "REE": 7190,
  "SSI": 7191,
  "bre": 7192,
  "cei": 7193,
  "noc": 7194,
  "ugg": 7195,
  "yes": 7196,
  "\u258165": 7197,
  "\u2581Dj": 7198,
  "\u2581Oh": 7199,
  "AALA": 7200,
  "Chan": 7201,
  "HARP": 7202,
  "aken": 7203,
  "apse": 7204,
  "best": 7205,
  "cond": 7206,
  "fire": 7207,
  "gium": 7208,
  "imal": 7209,
  "lust": 7210,
  "noon": 7211,
  "olly": 7212,
  "oned": 7213,
  "rous": 7214,
  "uemo": 7215,
  "upts": 7216,
  "ures": 7217,
  "\u2581CON": 7218,
  "\u2581Fre": 7219,
  "\u2581Kie": 7220,
  "\u2581STA": 7221,
  "\u2581TWO": 7222,
  "\u2581ple": 7223,
  "\u2581unt": 7224,
  "\u2581unw": 7225,
  "\u2581vul": 7226,
  "acken": 7227,
  "aguay": 7228,
  "arded": 7229,
  "ature": 7230,
  "flict": 7231,
  "henom": 7232,
  "light": 7233,
  "ordje": 7234,
  "overs": 7235,
  "press": 7236,
  "strom": 7237,
  "\u2581(11)": 7238,
  "\u2581(14)": 7239,
  "\u2581(4-1": 7240,
  "\u25810-0.": 7241,
  "\u2581Eric": 7242,
  "\u2581Hold": 7243,
  "\u2581SAKA": 7244,
  "\u2581bite": 7245,
  "\u2581cage": 7246,
  "\u2581crun": 7247,
  "\u2581dict": 7248,
  "\u2581eyes": 7249,
  "\u2581gear": 7250,
  "\u2581grew": 7251,
  "\u2581hobb": 7252,
  "\u2581knew": 7253,
  "\u2581lash": 7254,
  "\u2581loop": 7255,
  "\u2581nips": 7256,
  "\u2581note": 7257,
  "\u2581pack": 7258,
  "\u2581pacy": 7259,
  "\u2581pose": 7260,
  "\u2581prop": 7261,
  "\u2581self": 7262,
  "\u2581shru": 7263,
  "\u2581slid": 7264,
  "\u2581snap": 7265,
  "\u2581vent": 7266,
  "!!!!!!": 7267,
  "AALAND": 7268,
  "fought": 7269,
  "lustre": 7270,
  "ristol": 7271,
  "\u2581Baker": 7272,
  "\u2581Irons": 7273,
  "\u2581Matos": 7274,
  "\u2581SHARP": 7275,
  "\u2581Solly": 7276,
  "\u2581Those": 7277,
  "\u2581antic": 7278,
  "\u2581begin": 7279,
  "\u2581colle": 7280,
  "\u2581edged": 7281,
  "\u2581grand": 7282,
  "\u2581hurry": 7283,
  "\u2581innoc": 7284,
  "\u2581minds": 7285,
  "\u2581nicks": 7286,
  "\u2581optim": 7287,
  "\u2581patch": 7288,
  "\u2581plant": 7289,
  "\u2581stead": 7290,
  "\u2581wings": 7291,
  "Boaitey": 7292,
  "ibility": 7293,
  "\u2581Albert": 7294,
  "\u2581Mbuemo": 7295,
  "\u2581Sandro": 7296,
  "\u2581erupts": 7297,
  "\u2581hauled": 7298,
  "\u2581hearts": 7299,
  "\u2581hovers": 7300,
  "\u2581hugely": 7301,
  "\u2581inject": 7302,
  "\u2581levels": 7303,
  "\u2581lining": 7304,
  "\u2581manner": 7305,
  "\u2581medics": 7306,
  "\u2581misery": 7307,
  "\u2581mishit": 7308,
  "\u2581offers": 7309,
  "\u2581parity": 7310,
  "\u2581patter": 7311,
  "\u2581person": 7312,
  "\u2581phenom": 7313,
  "\u2581plants": 7314,
  "\u2581slowed": 7315,
  "\u2581unlock": 7316,
  "\u2581vulner": 7317,
  "piration": 7318,
  "\u25812020-21": 7319,
  "\u2581Belgium": 7320,
  "\u2581Bristol": 7321,
  "\u2581Djordje": 7322,
  "\u2581HAALAND": 7323,
  "\u2581Kieffer": 7324,
  "\u2581Ruddock": 7325,
  "\u2581academy": 7326,
  "\u2581aimless": 7327,
  "\u2581bending": 7328,
  "\u2581bolster": 7329,
  "\u2581dancing": 7330,
  "\u2581minimal": 7331,
  "\u2581natural": 7332,
  "\u2581retains": 7333,
  "\u2581smashed": 7334,
  "\u2581sweetly": 7335,
  "\u2581tracked": 7336,
  "\u2581tussles": 7337,
  "\u2581watched": 7338,
  "\u2581worried": 7339,
  "\u2581Paraguay": 7340,
  "\u2581doubling": 7341,
  "\u2581fraction": 7342,
  "\u2581gathered": 7343,
  "\u2581hesitate": 7344,
  "\u2581increase": 7345,
  "\u2581original": 7346,
  "\u2581overlaps": 7347,
  "\u2581patience": 7348,
  "\u2581redirect": 7349,
  "\u2581stroking": 7350,
  "\u2581suddenly": 7351,
  "\u2581surround": 7352,
  "\u2581swinging": 7353,
  "\u2581watching": 7354,
  "\u2581Bergstrom": 7355,
  "\u2581belatedly": 7356,
  "\u2581breathing": 7357,
  "\u2581correctly": 7358,
  "\u2581extremely": 7359,
  "\u2581fightback": 7360,
  "\u2581levelling": 7361,
  "\u2581screaming": 7362,
  "\u2581separates": 7363,
  "\u2581threading": 7364,
  "urprisingly": 7365,
  "\u2581apparently": 7366,
  "\u2581encounters": 7367,
  "\u2581experience": 7368,
  "\u2581grandstand": 7369,
  "\u2581lacklustre": 7370,
  "\u2581particular": 7371,
  "\u2581phenomenal": 7372,
  "\u2581resistance": 7373,
  "\u2581situations": 7374,
  "\u2581squandered": 7375,
  "\u2581altercation": 7376,
  "\u2581contributed": 7377,
  "\u2581ineffective": 7378,
  "\u2581performances": 7379,
  "\u2581unbelievable": 7380,
  "\u2581controversial": 7381,
  "\u2581straightforward": 7382,
  "-6": 7383,
  "0,": 7384,
  "jo": 7385,
  "me": 7386,
  "tr": 7387,
  "CON": 7388,
  "NEZ": 7389,
  "col": 7390,
  "ids": 7391,
  "iff": 7392,
  "ike": 7393,
  "jal": 7394,
  "lic": 7395,
  "ptu": 7396,
  "yss": 7397,
  "\u258143": 7398,
  "\u2581GI": 7399,
  "ALAH": 7400,
  "IGHT": 7401,
  "also": 7402,
  "arac": 7403,
  "book": 7404,
  "ject": 7405,
  "orde": 7406,
  "rope": 7407,
  "\u25811.2": 7408,
  "\u2581Ces": 7409,
  "\u2581DIA": 7410,
  "\u2581Due": 7411,
  "\u2581Inc": 7412,
  "\u2581Off": 7413,
  "\u2581Rem": 7414,
  "\u2581ask": 7415,
  "\u2581dig": 7416,
  "\u2581maz": 7417,
  "\u2581nip": 7418,
  "\u2581tug": 7419,
  "again": 7420,
  "class": 7421,
  "ender": 7422,
  "inson": 7423,
  "lines": 7424,
  "never": 7425,
  "pples": 7426,
  "usted": 7427,
  "ution": 7428,
  "\u25811994": 7429,
  "\u258150-5": 7430,
  "\u2581Birm": 7431,
  "\u2581Hjal": 7432,
  "\u2581Hunt": 7433,
  "\u2581Timo": 7434,
  "\u2581Zack": 7435,
  "\u2581base": 7436,
  "\u2581grip": 7437,
  "\u2581inch": 7438,
  "\u2581lock": 7439,
  "\u2581magn": 7440,
  "\u2581ring": 7441,
  "\u2581rock": 7442,
  "\u2581sequ": 7443,
  "\u2581serv": 7444,
  "\u2581slum": 7445,
  "\u2581sole": 7446,
  "\u2581stor": 7447,
  "\u2581trad": 7448,
  "\u2581unus": 7449,
  "\u2581wear": 7450,
  "ALLLLL": 7451,
  "LLLLLL": 7452,
  "idence": 7453,
  "luding": 7454,
  "soever": 7455,
  "tended": 7456,
  "ubborn": 7457,
  "uccess": 7458,
  "ventry": 7459,
  "ysseas": 7460,
  "\u25812021,": 7461,
  "\u2581Alger": 7462,
  "\u2581Bayer": 7463,
  "\u2581Dorde": 7464,
  "\u2581Nouri": 7465,
  "\u2581SALAH": 7466,
  "\u2581Swede": 7467,
  "\u2581Tyler": 7468,
  "\u2581backs": 7469,
  "\u2581black": 7470,
  "\u2581blood": 7471,
  "\u2581cagey": 7472,
  "\u2581crash": 7473,
  "\u2581deput": 7474,
  "\u2581faces": 7475,
  "\u2581grown": 7476,
  "\u2581intri": 7477,
  "\u2581opted": 7478,
  "\u2581panic": 7479,
  "\u2581sacri": 7480,
  "\u2581scene": 7481,
  "\u2581steam": 7482,
  "\u2581threw": 7483,
  "\u2581upset": 7484,
  "\u2581waved": 7485,
  "\u2581worst": 7486,
  "\u2581youth": 7487,
  "ulative": 7488,
  "\u2581Carney": 7489,
  "\u2581Macken": 7490,
  "\u2581STANDS": 7491,
  "\u2581Valent": 7492,
  "\u2581claret": 7493,
  "\u2581costly": 7494,
  "\u2581descri": 7495,
  "\u2581dugout": 7496,
  "\u2581edging": 7497,
  "\u2581errors": 7498,
  "\u2581impose": 7499,
  "\u2581normal": 7500,
  "\u2581occupy": 7501,
  "\u2581pegged": 7502,
  "\u2581rarely": 7503,
  "\u2581realis": 7504,
  "\u2581reduce": 7505,
  "\u2581regard": 7506,
  "\u2581rifled": 7507,
  "\u2581rounds": 7508,
  "\u2581sealed": 7509,
  "\u2581serves": 7510,
  "\u2581sprint": 7511,
  "\u2581thwart": 7512,
  "allenged": 7513,
  "\u2581Brandon": 7514,
  "\u2581Further": 7515,
  "\u2581Hjalmar": 7516,
  "\u2581Unlucky": 7517,
  "\u2581anticip": 7518,
  "\u2581bearing": 7519,
  "\u2581bravely": 7520,
  "\u2581convers": 7521,
  "\u2581deliber": 7522,
  "\u2581diverts": 7523,
  "\u2581escaped": 7524,
  "\u2581flashed": 7525,
  "\u2581fortune": 7526,
  "\u2581handing": 7527,
  "\u2581happier": 7528,
  "\u2581notable": 7529,
  "\u2581obvious": 7530,
  "\u2581offence": 7531,
  "\u2581outcome": 7532,
  "\u2581periods": 7533,
  "\u2581presses": 7534,
  "\u2581rapidly": 7535,
  "\u2581respons": 7536,
  "\u2581scooped": 7537,
  "\u2581serving": 7538,
  "\u2581smartly": 7539,
  "\u2581strolls": 7540,
  "\u2581swivels": 7541,
  "\u2581tapping": 7542,
  "\u2581utterly": 7543,
  "\u2581weaving": 7544,
  "attacking": 7545,
  "\u2581Coventry": 7546,
  "\u2581Odysseas": 7547,
  "\u2581drifting": 7548,
  "\u2581escaping": 7549,
  "\u2581exciting": 7550,
  "\u2581happened": 7551,
  "\u2581intended": 7552,
  "\u2581numerous": 7553,
  "\u2581pouncing": 7554,
  "\u2581provides": 7555,
  "\u2581ruthless": 7556,
  "\u2581swerving": 7557,
  "\u2581teenager": 7558,
  "\u2581thwarted": 7559,
  "\u2581touching": 7560,
  "\u2581Mackenzie": 7561,
  "\u2581afternoon": 7562,
  "\u2581formation": 7563,
  "\u2581happening": 7564,
  "\u2581innocence": 7565,
  "\u2581miserable": 7566,
  "\u2581otherwise": 7567,
  "\u2581selection": 7568,
  "\u2581tightrope": 7569,
  "\u2581typically": 7570,
  "\u2581Birmingham": 7571,
  "\u2581aggressive": 7572,
  "\u2581conclusion": 7573,
  "\u2581determined": 7574,
  "\u2581intriguing": 7575,
  "\u2581meaningful": 7576,
  "\u2581perfection": 7577,
  "\u2581protesting": 7578,
  "\u2581vulnerable": 7579,
  "\u2581whatsoever": 7580,
  "\u2581agonisingly": 7581,
  "\u2581complaining": 7582,
  "\u2581inspiration": 7583,
  ".5": 7584,
  "IE": 7585,
  "-16": 7586,
  "ANG": 7587,
  "Ken": 7588,
  "RES": 7589,
  "TRI": 7590,
  "cul": 7591,
  "cum": 7592,
  "mon": 7593,
  "ona": 7594,
  "\u2581FO": 7595,
  "\u2581RO": 7596,
  "ANKE": 7597,
  "ROSS": 7598,
  "aint": 7599,
  "ancy": 7600,
  "anni": 7601,
  "atri": 7602,
  "dles": 7603,
  "fect": 7604,
  "icio": 7605,
  "oyed": 7606,
  "play": 7607,
  "scor": 7608,
  "\u25810.2": 7609,
  "\u2581150": 7610,
  "\u258116.": 7611,
  "\u2581193": 7612,
  "\u2581HAT": 7613,
  "\u2581Pro": 7614,
  "\u2581SOL": 7615,
  "\u2581alm": 7616,
  "\u2581fal": 7617,
  "\u2581fed": 7618,
  "\u2581fre": 7619,
  "\u2581nan": 7620,
  "\u2581nil": 7621,
  "\u2581rat": 7622,
  "\u2581yes": 7623,
  "Kenna": 7624,
  "TRICK": 7625,
  "acing": 7626,
  "eling": 7627,
  "ening": 7628,
  "ettin": 7629,
  "ighty": 7630,
  "taken": 7631,
  "using": 7632,
  "\u25812002": 7633,
  "\u25812013": 7634,
  "\u25812015": 7635,
  "\u2581Beek": 7636,
  "\u2581Derb": 7637,
  "\u2581Four": 7638,
  "\u2581Kane": 7639,
  "\u2581Much": 7640,
  "\u2581THAT": 7641,
  "\u2581blat": 7642,
  "\u2581dumm": 7643,
  "\u2581gest": 7644,
  "\u2581paid": 7645,
  "\u2581shin": 7646,
  "\u2581soak": 7647,
  "\u2581sold": 7648,
  "\u2581tast": 7649,
  "\u2581tend": 7650,
  "\u2581unha": 7651,
  "\u2581wrap": 7652,
  "arring": 7653,
  "atriot": 7654,
  "choice": 7655,
  "enalty": 7656,
  "ipient": 7657,
  "isions": 7658,
  "\u25812019.": 7659,
  "\u2581Dutch": 7660,
  "\u2581Goals": 7661,
  "\u2581Hodge": 7662,
  "\u2581Milan": 7663,
  "\u2581North": 7664,
  "\u2581SUPER": 7665,
  "\u2581brink": 7666,
  "\u2581dread": 7667,
  "\u2581glove": 7668,
  "\u2581grasp": 7669,
  "\u2581jeers": 7670,
  "\u2581jinks": 7671,
  "\u2581lower": 7672,
  "\u2581marks": 7673,
  "\u2581mouth": 7674,
  "\u2581nasty": 7675,
  "\u2581piled": 7676,
  "\u2581posts": 7677,
  "\u2581slopp": 7678,
  "\u2581spraw": 7679,
  "\u2581thick": 7680,
  "\u2581tired": 7681,
  "outinho": 7682,
  "\u2581ALMOST": 7683,
  "\u2581Bettin": 7684,
  "\u2581Gilles": 7685,
  "\u2581Moment": 7686,
  "\u2581Wander": 7687,
  "\u2581amidst": 7688,
  "\u2581belief": 7689,
  "\u2581debuts": 7690,
  "\u2581embarr": 7691,
  "\u2581emerge": 7692,
  "\u2581famous": 7693,
  "\u2581handle": 7694,
  "\u2581living": 7695,
  "\u2581muscle": 7696,
  "\u2581outlet": 7697,
  "\u2581parent": 7698,
  "\u2581plucks": 7699,
  "\u2581poised": 7700,
  "\u2581shoves": 7701,
  "\u2581shrugs": 7702,
  "\u2581sights": 7703,
  "\u2581sneaks": 7704,
  "\u2581spills": 7705,
  "\u2581treble": 7706,
  "\u2581weight": 7707,
  "\u2581window": 7708,
  "tracking": 7709,
  "weighted": 7710,
  "\u2581Benicio": 7711,
  "\u2581Forward": 7712,
  "\u2581Holding": 7713,
  "\u2581McKenna": 7714,
  "\u2581SOLANKE": 7715,
  "\u2581Somehow": 7716,
  "\u2581address": 7717,
  "\u2581battled": 7718,
  "\u2581breezes": 7719,
  "\u2581coaches": 7720,
  "\u2581command": 7721,
  "\u2581consist": 7722,
  "\u2581desired": 7723,
  "\u2581dribble": 7724,
  "\u2581greater": 7725,
  "\u2581heroics": 7726,
  "\u2581jumping": 7727,
  "\u2581knowing": 7728,
  "\u2581linking": 7729,
  "\u2581pattern": 7730,
  "\u2581pressed": 7731,
  "\u2581reduced": 7732,
  "\u2581reflect": 7733,
  "\u2581setback": 7734,
  "\u2581shipped": 7735,
  "\u2581strings": 7736,
  "\u2581warming": 7737,
  "\u25812023-24.": 7738,
  "\u2581Ghanaian": 7739,
  "\u2581almighty": 7740,
  "\u2581argument": 7741,
  "\u2581attacked": 7742,
  "\u2581bookings": 7743,
  "\u2581captains": 7744,
  "\u2581charging": 7745,
  "\u2581contests": 7746,
  "\u2581converts": 7747,
  "\u2581creeping": 7748,
  "\u2581deadline": 7749,
  "\u2581eventful": 7750,
  "\u2581evidence": 7751,
  "\u2581generate": 7752,
  "\u2581included": 7753,
  "\u2581magnific": 7754,
  "\u2581muscular": 7755,
  "\u2581openings": 7756,
  "\u2581overruns": 7757,
  "\u2581quarters": 7758,
  "\u2581quickest": 7759,
  "\u2581recalled": 7760,
  "\u2581sequence": 7761,
  "\u2581shepherd": 7762,
  "\u2581smothers": 7763,
  "\u2581stubborn": 7764,
  "\u2581thriller": 7765,
  "\u2581thunders": 7766,
  "\u2581tripping": 7767,
  "\u2581whenever": 7768,
  "\u2581Wanderers": 7769,
  "\u2581averaging": 7770,
  "\u2581cushioned": 7771,
  "\u2581dismissed": 7772,
  "\u2581dribbling": 7773,
  "\u2581hesitates": 7774,
  "\u2581launching": 7775,
  "\u2581marauding": 7776,
  "\u2581pitchside": 7777,
  "\u2581promotion": 7778,
  "\u2581providing": 7779,
  "\u2581recipient": 7780,
  "\u2581replicate": 7781,
  "\u2581slightest": 7782,
  "\u2581standings": 7783,
  "\u2581wrongfoot": 7784,
  "\u2581(4-1-4-1):": 7785,
  "\u2581Bettinelli": 7786,
  "\u2581ascendancy": 7787,
  "\u2581commanding": 7788,
  "\u2581compatriot": 7789,
  "\u2581converting": 7790,
  "\u2581crossfield": 7791,
  "\u2581fingertips": 7792,
  "\u2581intentions": 7793,
  "\u2581overturned": 7794,
  "\u2581transition": 7795,
  "\u2581GOOOOOALLLL": 7796,
  "\u2581speculative": 7797,
  "\u2581unchallenged": 7798,
  "\u2581underwhelming": 7799,
  "\u2581GOOOOOAAAAALLL": 7800,
  "5)": 7801,
  "9)": 7802,
  "IC": 7803,
  "mi": 7804,
  "ys": 7805,
  "Har": 7806,
  "IME": 7807,
  "INE": 7808,
  "ORK": 7809,
  "PPE": 7810,
  "baf": 7811,
  "gid": 7812,
  "idy": 7813,
  "ify": 7814,
  "iki": 7815,
  "iro": 7816,
  "non": 7817,
  "ogs": 7818,
  "ume": 7819,
  "\u2581CO": 7820,
  "\u2581GE": 7821,
  "WORK": 7822,
  "away": 7823,
  "blig": 7824,
  "cled": 7825,
  "dued": 7826,
  "iced": 7827,
  "illy": 7828,
  "ilst": 7829,
  "iven": 7830,
  "mind": 7831,
  "ouch": 7832,
  "pers": 7833,
  "rone": 7834,
  "urun": 7835,
  "uses": 7836,
  "uted": 7837,
  "\u2581(11": 7838,
  "\u258119-": 7839,
  "\u2581192": 7840,
  "\u2581Kav": 7841,
  "\u2581Les": 7842,
  "\u2581Net": 7843,
  "\u2581PAL": 7844,
  "\u2581Ste": 7845,
  "\u2581Sud": 7846,
  "\u2581Sup": 7847,
  "\u2581bul": 7848,
  "\u2581era": 7849,
  "\u2581fan": 7850,
  "\u2581hon": 7851,
  "\u2581mod": 7852,
  "\u2581nav": 7853,
  "\u2581rue": 7854,
  "\u2581ven": 7855,
  "\u2581ver": 7856,
  "PPEAL": 7857,
  "anagh": 7858,
  "cumst": 7859,
  "denly": 7860,
  "eline": 7861,
  "ences": 7862,
  "erley": 7863,
  "first": 7864,
  "iburg": 7865,
  "iness": 7866,
  "neath": 7867,
  "orian": 7868,
  "orted": 7869,
  "start": 7870,
  "table": 7871,
  "\u25812011": 7872,
  "\u2581Card": 7873,
  "\u2581Femi": 7874,
  "\u2581Fred": 7875,
  "\u2581Hung": 7876,
  "\u2581Last": 7877,
  "\u2581NINE": 7878,
  "\u2581None": 7879,
  "\u2581Obaf": 7880,
  "\u2581Rhys": 7881,
  "\u2581SENT": 7882,
  "\u2581STUN": 7883,
  "\u2581Soon": 7884,
  "\u2581Stra": 7885,
  "\u2581felt": 7886,
  "\u2581fool": 7887,
  "\u2581mazy": 7888,
  "\u2581told": 7889,
  "\u2581unne": 7890,
  "\u2581upgr": 7891,
  "\u2581walk": 7892,
  "\u2581zero": 7893,
  "Harris": 7894,
  "finals": 7895,
  "pleted": 7896,
  "terday": 7897,
  "topher": 7898,
  "\u25812023,": 7899,
  "\u2581Anass": 7900,
  "\u2581Derby": 7901,
  "\u2581Early": 7902,
  "\u2581Event": 7903,
  "\u2581Inter": 7904,
  "\u2581Peart": 7905,
  "\u2581THREE": 7906,
  "\u2581Under": 7907,
  "\u2581chops": 7908,
  "\u2581deems": 7909,
  "\u2581drift": 7910,
  "\u2581evade": 7911,
  "\u2581exits": 7912,
  "\u2581float": 7913,
  "\u2581guess": 7914,
  "\u2581horri": 7915,
  "\u2581ideal": 7916,
  "\u2581initi": 7917,
  "\u2581magic": 7918,
  "\u2581maybe": 7919,
  "\u2581meant": 7920,
  "\u2581oblig": 7921,
  "\u2581parts": 7922,
  "\u2581probe": 7923,
  "\u2581reply": 7924,
  "\u2581screw": 7925,
  "\u2581sizes": 7926,
  "\u2581slick": 7927,
  "\u2581small": 7928,
  "\u2581sniff": 7929,
  "\u2581": 7930,
  "e": 7931,
  "t": 7932,
  "a": 7933,
  "o": 7934,
  "i": 7935,
  "n": 7936,
  "s": 7937,
  "r": 7938,
  "h": 7939,
  "l": 7940,
  "d": 7941,
  "f": 7942,
  "c": 7943,
  "u": 7944,
  "g": 7945,
  "m": 7946,
  "w": 7947,
  "b": 7948,
  "p": 7949,
  "y": 7950,
  "k": 7951,
  ".": 7952,
  ",": 7953,
  "v": 7954,
  "-": 7955,
  "T": 7956,
  "A": 7957,
  "L": 7958,
  "S": 7959,
  "'": 7960,
  "B": 7961,
  "E": 7962,
  "!": 7963,
  "H": 7964,
  "C": 7965,
  "M": 7966,
  "O": 7967,
  "P": 7968,
  "N": 7969,
  "W": 7970,
  "R": 7971,
  "D": 7972,
  "F": 7973,
  "x": 7974,
  "G": 7975,
  "I": 7976,
  "1": 7977,
  "j": 7978,
  "V": 7979,
  "z": 7980,
  "U": 7981,
  "2": 7982,
  "0": 7983,
  "J": 7984,
  "K": 7985,
  "3": 7986,
  "q": 7987,
  ";": 7988,
  "(": 7989,
  ")": 7990,
  ":": 7991,
  "4": 7992,
  "5": 7993,
  "Y": 7994,
  "\u2019": 7995,
  "9": 7996,
  "Z": 7997,
  "?": 7998,
  "6": 7999
}